// Automatically generated from ./model/model.tflite
const unsigned char model[] = {
  28,0,0,0,84,70,76,51,20,0,32,0,
  28,0,24,0,20,0,16,0,12,0,0,0,
  8,0,4,0,20,0,0,0,28,0,0,0,
  152,0,0,0,240,0,0,0,36,98,2,0,
  52,98,2,0,48,103,2,0,3,0,0,0,
  1,0,0,0,16,0,0,0,0,0,10,0,
  16,0,12,0,8,0,4,0,10,0,0,0,
  12,0,0,0,28,0,0,0,60,0,0,0,
  15,0,0,0,115,101,114,118,105,110,103,95,
  100,101,102,97,117,108,116,0,1,0,0,0,
  4,0,0,0,144,255,255,255,9,0,0,0,
  4,0,0,0,8,0,0,0,111,117,116,112,
  117,116,95,48,0,0,0,0,1,0,0,0,
  4,0,0,0,210,157,253,255,4,0,0,0,
  12,0,0,0,107,101,114,97,115,95,116,101,
  110,115,111,114,0,0,0,0,2,0,0,0,
  52,0,0,0,4,0,0,0,220,255,255,255,
  12,0,0,0,4,0,0,0,19,0,0,0,
  67,79,78,86,69,82,83,73,79,78,95,77,
  69,84,65,68,65,84,65,0,8,0,12,0,
  8,0,4,0,8,0,0,0,11,0,0,0,
  4,0,0,0,19,0,0,0,109,105,110,95,
  114,117,110,116,105,109,101,95,118,101,114,115,
  105,111,110,0,13,0,0,0,48,97,2,0,
  40,97,2,0,24,90,2,0,8,2,0,0,
  248,0,0,0,204,0,0,0,180,0,0,0,
  172,0,0,0,164,0,0,0,156,0,0,0,
  148,0,0,0,116,0,0,0,4,0,0,0,
  130,158,253,255,4,0,0,0,96,0,0,0,
  16,0,0,0,0,0,0,0,8,0,14,0,
  8,0,4,0,8,0,0,0,16,0,0,0,
  36,0,0,0,0,0,6,0,8,0,4,0,
  6,0,0,0,4,0,0,0,0,0,0,0,
  12,0,24,0,20,0,16,0,12,0,4,0,
  12,0,0,0,203,1,125,232,25,20,212,140,
  2,0,0,0,2,0,0,0,4,0,0,0,
  6,0,0,0,50,46,49,57,46,48,0,0,
  238,158,253,255,4,0,0,0,16,0,0,0,
  49,46,53,46,48,0,0,0,0,0,0,0,
  0,0,0,0,176,154,253,255,180,154,253,255,
  184,154,253,255,188,154,253,255,26,159,253,255,
  4,0,0,0,8,0,0,0,255,255,255,255,
  88,2,0,0,46,159,253,255,4,0,0,0,
  28,0,0,0,123,242,14,188,228,195,22,189,
  133,121,135,188,190,87,236,188,16,56,116,61,
  38,32,2,189,104,246,250,188,86,159,253,255,
  4,0,0,0,0,1,0,0,164,163,0,189,
  144,215,36,61,171,11,159,60,139,219,178,60,
  56,116,100,61,170,74,122,186,119,180,207,188,
  32,124,192,188,21,24,176,187,161,232,178,60,
  34,124,21,189,117,153,194,60,105,232,165,60,
  83,127,13,189,55,168,208,60,58,113,254,188,
  205,67,43,188,241,115,192,188,193,4,81,61,
  55,30,82,61,36,176,102,59,251,156,246,188,
  148,13,252,188,177,71,122,188,224,225,157,60,
  150,45,15,189,131,134,40,60,80,2,10,189,
  249,252,110,61,184,71,168,188,178,228,210,60,
  241,77,178,60,59,39,55,61,167,32,193,59,
  51,190,73,61,177,145,37,61,101,149,97,188,
  136,15,200,188,193,235,247,58,65,75,142,188,
  64,244,108,61,169,30,28,61,123,18,89,61,
  64,200,53,61,157,33,59,61,73,87,206,188,
  133,48,2,61,44,167,32,189,23,4,227,187,
  146,56,74,61,173,7,228,60,222,135,7,189,
  162,43,35,189,231,193,216,188,11,120,242,188,
  143,219,58,61,81,123,201,188,87,243,6,189,
  98,38,31,61,5,114,31,61,249,98,63,61,
  80,131,1,188,227,48,225,60,40,243,234,188,
  98,160,253,255,4,0,0,0,0,88,2,0,
  96,90,161,188,119,114,51,189,82,159,183,60,
  34,221,193,61,75,133,236,187,14,91,57,61,
  241,141,223,188,255,249,70,61,123,67,93,61,
  244,167,155,61,30,100,56,61,108,166,187,61,
  155,9,33,61,1,35,75,189,135,50,56,61,
  99,104,51,60,203,37,54,60,149,45,164,60,
  76,143,86,60,228,181,172,188,46,163,128,189,
  160,141,176,189,243,166,83,189,89,196,171,61,
  202,171,142,61,33,230,143,189,219,7,202,188,
  10,48,211,60,79,223,140,61,35,166,156,60,
  56,248,158,189,57,249,164,189,223,194,118,189,
  215,119,91,61,55,210,133,61,120,53,128,61,
  219,70,49,189,69,48,201,60,127,242,174,60,
  135,41,55,61,1,158,148,61,143,72,189,61,
  49,234,37,187,128,95,166,61,171,133,101,61,
  195,36,15,61,30,5,181,189,144,53,189,186,
  189,186,217,189,246,243,103,60,108,89,155,188,
  210,70,180,187,104,130,231,189,255,160,82,188,
  175,130,57,61,40,127,132,61,154,151,185,60,
  224,176,151,189,108,191,157,189,12,36,171,188,
  156,52,134,61,149,37,126,61,86,245,39,59,
  164,221,71,189,7,120,229,189,94,147,169,189,
  51,96,214,189,164,4,4,189,181,227,187,189,
  207,227,202,58,188,53,126,189,102,222,2,61,
  241,42,38,61,191,110,173,60,188,116,50,61,
  47,46,165,61,254,171,125,189,174,200,152,188,
  132,128,52,188,255,155,187,60,6,212,162,189,
  106,159,159,61,97,198,131,187,10,123,168,189,
  252,211,174,189,244,2,28,189,59,221,64,59,
  138,89,9,189,76,96,110,188,145,174,247,59,
  122,120,190,189,154,10,140,61,150,12,25,188,
  104,80,128,188,87,245,9,59,248,65,17,189,
  8,32,166,60,187,23,0,188,127,208,71,61,
  182,112,213,187,145,104,131,61,47,117,122,188,
  193,189,252,188,243,201,158,61,58,124,23,189,
  24,232,179,187,234,221,206,189,37,109,36,60,
  65,246,150,188,142,15,69,189,6,174,123,61,
  206,228,149,61,108,82,10,189,131,127,104,187,
  203,199,148,61,169,65,188,189,25,2,42,189,
  143,122,183,188,223,2,170,189,150,43,45,61,
  247,245,6,189,212,34,130,60,76,11,172,189,
  253,139,18,61,131,99,250,60,48,136,138,61,
  196,107,61,61,99,85,156,189,185,167,150,189,
  161,134,210,186,97,175,55,61,23,61,214,61,
  102,246,172,189,53,70,0,61,170,113,20,189,
  166,161,193,188,8,14,154,189,243,123,176,61,
  92,34,199,60,44,42,128,60,162,82,142,60,
  51,62,238,187,196,31,59,61,218,73,142,189,
  181,91,220,188,203,84,13,61,34,106,172,188,
  8,25,226,188,143,195,138,189,222,157,31,61,
  167,5,23,58,80,1,108,61,79,148,169,189,
  24,187,163,61,209,124,187,60,63,214,67,189,
  136,127,20,61,150,179,231,189,111,11,34,189,
  83,236,54,61,156,104,171,61,251,181,17,61,
  214,101,128,189,175,235,130,60,27,161,219,188,
  69,150,137,188,162,149,80,61,16,206,232,60,
  165,160,122,189,17,53,147,189,200,227,166,61,
  86,192,217,189,20,2,85,189,71,190,146,188,
  193,241,153,61,234,46,189,189,134,65,166,61,
  122,70,214,188,214,65,172,189,63,31,61,189,
  191,26,168,189,124,182,101,61,135,166,176,189,
  177,48,91,188,208,124,170,61,98,5,150,61,
  64,174,109,189,229,7,196,60,183,144,14,189,
  203,42,93,61,66,9,188,61,173,200,132,189,
  129,175,129,60,213,108,122,189,216,25,150,61,
  220,139,137,61,156,147,161,61,52,84,114,189,
  168,128,186,189,48,193,137,61,132,228,138,189,
  6,129,7,189,180,121,181,188,169,9,79,188,
  95,203,84,189,230,67,130,61,187,86,54,189,
  109,131,19,189,50,8,88,189,200,163,209,61,
  199,80,104,61,155,231,70,189,36,232,76,189,
  25,122,176,60,160,71,75,61,95,206,254,60,
  191,227,169,188,58,127,77,61,117,82,159,189,
  18,61,85,61,106,74,179,187,44,218,226,61,
  95,37,219,60,29,82,48,189,15,52,34,61,
  178,23,172,189,29,7,95,189,83,199,178,61,
  206,205,251,59,89,72,77,61,168,209,195,59,
  131,38,206,187,66,56,183,61,100,47,77,189,
  148,74,3,61,97,116,180,188,151,39,94,189,
  150,133,165,60,217,74,172,61,24,65,190,189,
  143,118,41,61,227,240,106,189,233,202,154,189,
  222,171,218,189,113,21,158,61,228,176,147,189,
  36,80,183,189,189,237,6,61,7,236,119,188,
  40,222,210,187,9,50,143,189,214,110,187,61,
  238,231,211,60,122,74,55,186,89,46,39,61,
  254,25,123,61,58,33,124,188,202,168,53,189,
  50,196,229,187,125,224,119,59,224,182,17,61,
  155,119,203,189,21,74,146,189,226,86,60,61,
  231,130,97,61,236,141,166,189,194,224,236,188,
  58,217,7,189,45,193,177,61,60,155,21,188,
  91,121,21,189,166,198,147,61,24,11,56,60,
  38,35,75,189,185,20,135,60,240,4,235,61,
  120,189,89,189,127,118,117,61,27,141,2,189,
  250,20,116,188,120,236,163,61,172,222,177,61,
  63,167,215,187,62,142,62,189,84,149,30,61,
  127,228,63,189,150,213,143,189,65,90,159,188,
  16,116,160,189,185,51,23,189,7,56,202,61,
  76,47,141,61,244,197,14,61,157,212,207,188,
  197,99,1,189,107,92,94,61,189,42,96,61,
  183,203,157,61,179,234,216,61,83,219,190,61,
  8,16,89,189,18,209,70,189,226,212,101,61,
  79,154,145,60,150,44,127,59,96,41,175,188,
  246,75,114,61,249,232,136,188,156,218,159,60,
  105,34,43,188,214,66,232,61,160,185,130,189,
  36,94,34,61,205,4,117,61,230,198,61,60,
  73,217,205,60,235,173,179,61,17,209,124,61,
  184,236,153,60,242,170,189,61,64,224,229,60,
  85,8,159,59,17,218,118,189,255,34,126,61,
  229,188,91,189,148,67,155,189,150,76,156,61,
  172,23,184,189,48,97,140,187,123,78,132,61,
  135,209,147,61,165,99,175,189,33,91,132,189,
  173,147,216,187,105,47,197,60,1,141,90,189,
  105,85,25,60,83,60,146,189,128,116,97,189,
  111,248,60,61,126,122,179,61,180,142,222,188,
  137,35,151,189,177,125,208,189,86,49,119,189,
  156,104,39,189,163,244,170,61,102,229,25,61,
  98,96,207,60,217,39,185,188,112,146,210,61,
  49,217,198,189,126,151,208,61,181,32,122,189,
  133,83,118,61,245,30,74,189,113,114,0,61,
  244,255,174,189,231,89,255,187,59,254,93,188,
  104,146,188,60,82,149,43,189,193,102,76,61,
  120,235,131,61,83,162,133,61,140,202,60,61,
  131,126,107,59,93,84,52,189,252,224,175,61,
  186,43,240,188,3,212,29,189,104,207,131,189,
  171,111,70,61,240,172,107,188,200,75,201,60,
  52,98,162,61,93,228,175,61,189,244,187,61,
  92,249,197,61,99,251,173,61,222,15,84,61,
  42,49,163,60,116,163,174,189,3,188,32,189,
  107,200,186,60,208,230,105,61,237,114,179,188,
  133,52,216,186,122,142,185,61,207,212,153,61,
  2,198,167,189,38,65,190,189,155,25,21,61,
  192,105,37,61,12,7,177,189,144,209,199,189,
  11,146,92,188,48,142,160,61,105,165,141,189,
  83,216,23,61,244,154,170,60,220,61,73,189,
  75,246,193,188,111,38,69,188,6,50,184,61,
  2,116,133,189,155,134,155,189,220,137,187,61,
  78,161,87,189,202,97,212,188,107,179,49,188,
  6,119,24,61,142,216,14,188,26,83,123,61,
  101,250,181,61,185,169,147,61,200,224,116,61,
  90,54,53,61,133,180,125,61,222,105,56,189,
  153,234,42,189,72,243,166,189,156,9,71,61,
  199,135,140,189,114,115,26,189,158,191,8,189,
  98,181,173,189,107,20,34,61,152,96,185,188,
  80,157,130,189,117,227,146,189,90,2,214,59,
  167,133,155,61,0,53,179,61,96,30,99,189,
  249,69,156,189,159,99,199,189,72,234,200,61,
  111,156,84,61,156,2,189,189,66,234,221,189,
  216,146,94,189,145,112,28,189,203,245,228,186,
  127,8,1,189,31,54,38,60,227,233,9,61,
  57,211,152,189,225,157,27,189,41,103,242,187,
  78,146,199,61,1,65,156,60,38,200,95,61,
  48,118,160,189,247,204,238,188,254,173,196,189,
  9,84,35,189,113,61,183,61,251,74,118,61,
  78,47,0,189,29,84,177,189,242,128,198,189,
  33,30,8,61,51,49,107,189,115,163,12,188,
  180,125,11,61,55,173,113,60,122,126,173,189,
  60,125,136,189,75,138,145,189,249,39,210,188,
  62,97,239,188,124,103,44,61,21,79,214,59,
  196,64,113,60,215,195,81,187,37,86,135,61,
  9,212,3,189,202,75,20,189,125,147,50,186,
  103,170,131,61,196,4,214,61,68,66,81,189,
  46,251,169,61,57,103,107,58,79,76,27,60,
  125,11,25,189,131,121,7,189,180,21,195,188,
  240,143,72,188,61,12,233,187,193,8,179,189,
  162,202,165,61,233,3,130,188,118,3,187,188,
  221,249,128,61,148,141,103,61,118,108,146,60,
  96,105,114,186,159,218,43,61,96,208,22,60,
  61,10,82,59,148,153,106,61,52,167,71,61,
  146,203,140,60,92,232,168,61,20,18,189,58,
  234,194,0,189,81,53,27,189,173,86,169,188,
  133,15,145,189,35,233,147,60,150,98,155,189,
  154,226,128,189,192,72,129,189,177,156,149,189,
  92,46,45,189,184,215,148,60,239,142,16,188,
  33,89,200,60,194,112,171,189,225,113,214,187,
  5,235,26,189,185,243,73,60,245,220,128,189,
  113,45,135,60,140,37,136,61,146,2,181,61,
  73,216,21,188,240,150,236,61,96,63,172,60,
  30,191,85,189,222,71,134,60,116,185,156,61,
  132,228,18,188,26,119,233,61,149,234,189,188,
  224,113,136,59,71,144,99,61,78,62,135,189,
  230,163,190,61,201,170,187,61,160,33,203,189,
  73,104,208,60,145,231,39,60,183,78,221,60,
  8,90,119,189,155,13,51,61,144,72,102,61,
  48,57,177,61,228,43,54,61,122,189,67,189,
  140,42,62,60,255,194,149,189,249,44,207,189,
  71,105,249,59,39,252,50,189,11,155,85,189,
  86,175,14,61,91,190,223,188,120,27,197,60,
  34,165,22,61,172,213,71,61,201,16,44,59,
  105,60,133,189,141,153,110,60,94,189,13,189,
  47,32,72,188,55,42,33,189,37,89,147,58,
  88,152,137,61,207,34,190,61,237,120,131,61,
  30,202,65,61,33,138,162,60,117,110,218,188,
  21,183,42,189,62,236,235,59,212,251,137,189,
  173,9,76,188,140,91,165,189,146,23,152,61,
  115,25,118,189,232,97,150,61,54,2,171,189,
  152,54,98,61,215,227,174,189,217,142,176,61,
  32,143,169,61,208,42,243,60,27,197,44,188,
  87,206,231,187,97,125,172,189,143,84,172,189,
  118,83,126,61,157,130,129,61,119,24,128,189,
  166,6,122,189,55,48,12,61,124,14,176,189,
  11,82,115,61,219,197,55,189,57,225,97,61,
  166,6,124,189,122,255,0,61,4,152,156,189,
  53,208,29,189,58,39,130,189,233,12,20,61,
  53,70,4,189,74,235,52,61,77,74,137,189,
  147,86,250,188,143,93,96,61,249,168,143,189,
  77,197,60,61,52,162,128,188,100,75,212,189,
  165,206,218,189,247,135,160,61,105,36,150,189,
  147,44,204,189,142,41,77,189,18,128,57,189,
  47,43,42,189,149,151,4,61,143,149,157,188,
  125,204,144,61,123,175,185,189,121,74,36,61,
  120,204,192,61,69,175,194,61,42,75,219,188,
  0,140,65,60,230,44,145,189,64,165,78,61,
  49,253,181,189,185,128,129,189,234,234,126,188,
  0,52,180,189,196,179,162,188,238,66,9,61,
  109,72,138,61,254,33,3,60,206,208,173,189,
  253,56,31,189,103,141,85,61,54,133,57,188,
  133,206,187,188,73,98,11,61,71,224,125,188,
  129,89,101,59,8,55,152,188,0,28,151,61,
  37,35,162,189,100,3,199,188,71,94,241,187,
  90,160,166,189,29,193,207,188,254,6,90,189,
  138,82,242,188,24,167,141,188,128,96,28,189,
  239,195,33,60,30,33,151,189,109,184,148,61,
  182,53,166,61,71,77,164,189,73,240,4,61,
  181,96,146,61,2,114,76,60,63,90,128,61,
  52,16,238,59,6,96,122,189,115,91,121,60,
  28,211,203,60,74,196,163,61,251,118,136,61,
  181,92,245,188,198,102,97,61,34,210,88,189,
  64,211,155,189,124,48,113,189,198,76,224,186,
  156,5,125,59,247,80,5,61,14,192,230,60,
  96,200,154,61,157,202,128,189,12,38,169,61,
  190,66,40,60,191,182,138,60,239,155,111,189,
  26,234,74,189,119,241,114,61,16,89,148,189,
  46,32,166,189,76,145,79,189,210,164,98,189,
  26,46,209,189,188,180,112,189,64,167,0,61,
  170,194,40,189,140,122,183,61,183,223,194,189,
  170,249,251,187,90,225,184,188,25,153,153,61,
  168,155,28,187,40,51,24,61,13,179,133,59,
  109,120,196,60,104,172,21,61,215,234,96,61,
  185,255,129,189,130,52,132,61,50,216,99,61,
  72,241,134,60,156,203,169,189,71,51,181,61,
  42,83,188,60,29,236,177,61,238,227,22,61,
  252,98,126,61,187,65,249,59,168,210,236,187,
  41,245,73,189,115,203,206,61,138,155,139,189,
  166,219,139,189,18,166,107,189,92,152,88,189,
  94,216,12,189,15,173,42,60,156,172,101,189,
  9,108,133,61,60,99,96,60,28,81,151,61,
  148,4,4,61,145,141,135,61,212,251,88,60,
  83,19,33,60,45,75,176,189,152,73,90,189,
  24,156,45,61,161,200,149,61,186,226,63,189,
  155,83,205,61,74,225,182,61,215,6,173,189,
  141,240,115,61,163,254,86,61,182,111,133,61,
  177,44,124,188,94,240,0,189,172,135,139,188,
  61,83,207,189,112,17,10,189,73,72,111,61,
  71,32,106,61,124,23,163,189,154,87,140,60,
  127,72,155,61,113,99,161,189,128,130,44,60,
  208,67,92,60,114,159,100,189,139,84,242,60,
  255,161,88,188,193,245,107,61,22,248,144,189,
  255,85,146,189,221,41,149,61,12,20,89,189,
  164,83,35,189,197,24,55,189,40,135,82,60,
  254,132,28,188,33,197,1,188,166,235,97,189,
  241,9,142,61,76,80,130,189,220,225,132,189,
  90,150,158,61,0,21,12,189,254,125,192,189,
  222,251,50,187,3,67,185,189,3,221,31,189,
  9,118,109,189,195,166,128,59,244,78,95,61,
  219,30,149,188,232,165,198,60,202,61,116,61,
  61,189,77,61,169,124,6,61,9,251,210,189,
  176,41,194,189,23,94,79,189,159,11,124,188,
  156,173,141,61,246,82,53,61,137,152,224,189,
  80,137,145,188,9,16,33,61,255,241,92,189,
  10,232,185,61,226,131,34,186,21,120,65,61,
  104,69,34,60,40,239,157,189,85,231,173,60,
  167,218,217,60,254,78,2,189,107,60,64,189,
  94,7,129,59,14,45,82,189,201,97,124,61,
  77,68,198,188,247,254,250,60,1,10,74,61,
  47,42,17,189,54,244,163,189,138,8,212,60,
  104,28,224,61,200,139,84,189,35,28,174,189,
  222,174,145,189,233,41,22,189,223,105,82,189,
  24,167,25,189,255,21,181,61,96,144,128,61,
  83,157,15,188,100,154,245,188,81,135,160,61,
  31,210,79,189,74,62,177,61,243,155,49,189,
  91,126,142,189,85,65,149,188,195,139,151,61,
  233,134,150,189,106,103,14,61,220,159,60,187,
  63,97,87,61,210,135,80,188,14,196,165,60,
  73,149,229,61,168,248,169,61,64,38,131,61,
  4,8,170,61,249,65,140,186,204,80,54,189,
  20,49,93,61,163,87,108,61,53,101,155,188,
  158,183,58,189,74,121,138,186,97,135,135,61,
  132,106,48,61,207,81,194,61,15,247,33,61,
  194,182,224,60,93,46,117,60,94,154,132,61,
  53,10,67,189,188,213,156,58,41,159,119,188,
  168,242,169,61,184,104,164,59,75,68,114,61,
  193,81,175,61,248,106,62,61,226,148,121,61,
  61,107,120,61,241,116,77,61,131,252,151,189,
  18,170,133,61,229,245,1,61,171,213,142,189,
  137,63,153,61,205,38,135,61,53,168,57,189,
  88,16,180,61,234,154,181,189,213,151,18,61,
  1,58,254,188,22,149,157,189,25,42,38,186,
  60,137,19,61,169,3,215,186,117,61,95,61,
  147,186,133,189,229,87,113,189,192,2,147,61,
  95,29,31,61,76,209,95,60,75,42,179,189,
  92,85,176,189,213,168,42,189,109,218,112,189,
  178,136,190,61,230,118,185,59,70,176,139,60,
  21,23,160,189,41,99,37,189,85,47,12,189,
  199,84,83,61,255,0,45,189,183,144,104,188,
  105,132,135,189,30,70,176,188,25,228,69,58,
  62,28,207,61,4,220,33,60,3,170,39,189,
  64,193,193,187,196,120,192,60,1,96,148,61,
  217,164,199,61,187,200,72,61,56,154,47,189,
  246,139,199,60,208,75,69,61,221,100,57,61,
  11,22,59,188,30,219,143,61,251,234,77,61,
  53,253,141,61,170,232,1,188,168,219,182,60,
  129,192,126,61,219,236,175,60,156,23,78,61,
  228,144,6,189,201,147,205,61,74,197,150,189,
  19,210,42,189,59,174,119,61,31,103,226,189,
  170,200,137,61,33,206,122,189,223,65,98,188,
  61,40,205,61,156,221,29,189,38,28,154,189,
  20,96,141,61,191,121,29,188,102,111,27,61,
  97,84,72,59,101,122,131,189,47,105,20,60,
  133,31,41,189,23,137,200,189,253,101,25,189,
  23,69,52,61,219,228,22,189,116,131,22,61,
  129,93,162,189,201,7,70,189,174,92,100,61,
  57,19,141,189,111,125,193,61,36,70,174,189,
  159,216,122,61,168,29,193,189,222,29,206,61,
  158,122,193,61,113,204,129,189,169,145,157,60,
  124,224,109,61,4,33,131,61,204,235,138,189,
  192,99,81,188,141,63,27,189,99,52,132,60,
  247,56,9,188,49,92,227,60,59,200,149,188,
  242,117,120,189,196,33,162,189,163,140,225,60,
  30,143,47,60,81,36,78,189,188,222,238,188,
  108,133,19,189,176,202,111,60,140,76,207,188,
  122,140,7,188,2,29,197,189,34,13,194,61,
  64,238,182,61,90,240,227,187,165,144,135,189,
  242,221,183,189,62,84,189,61,107,36,31,189,
  83,21,133,61,116,168,68,60,212,54,164,189,
  32,208,85,61,48,221,152,189,166,3,79,189,
  237,27,179,61,46,163,160,189,251,242,24,60,
  139,179,140,61,122,196,146,61,207,82,109,61,
  32,199,162,61,120,2,239,60,116,40,156,61,
  222,135,184,61,10,151,35,60,114,171,154,59,
  36,239,207,61,120,138,142,189,222,224,114,189,
  21,38,205,61,59,184,7,61,118,52,129,61,
  149,228,93,61,117,198,88,189,14,205,156,189,
  209,38,117,61,239,186,126,61,126,157,123,61,
  240,149,139,61,68,249,143,189,77,240,78,189,
  180,243,123,189,202,153,169,61,125,103,95,59,
  59,141,233,60,162,182,152,189,185,194,131,61,
  130,240,63,187,34,113,163,61,142,103,24,61,
  6,7,149,188,165,132,164,187,215,255,169,189,
  176,152,249,188,131,176,173,189,148,190,138,61,
  191,157,155,61,191,183,63,61,127,50,54,189,
  48,144,6,189,6,117,43,61,96,197,29,189,
  120,17,85,189,252,117,231,61,78,87,244,60,
  126,137,163,61,198,15,169,61,254,94,145,61,
  35,165,225,60,222,208,68,61,108,183,14,188,
  33,201,60,188,11,134,2,188,152,183,140,189,
  203,216,147,61,136,214,212,61,69,34,17,189,
  134,223,45,188,8,236,163,61,228,233,148,189,
  130,51,4,189,46,130,98,61,158,221,161,189,
  103,145,218,61,169,57,160,189,177,95,218,59,
  41,161,171,61,97,163,89,189,71,153,34,61,
  216,46,28,189,128,182,207,60,167,121,43,189,
  116,27,36,61,216,59,9,189,14,232,119,189,
  23,182,95,61,255,64,93,189,222,3,76,188,
  114,79,169,188,80,135,55,60,106,6,202,61,
  111,23,115,189,71,39,127,61,100,197,49,189,
  236,7,45,61,50,153,51,189,87,112,26,189,
  220,237,66,189,198,124,121,189,208,212,196,61,
  38,84,82,61,199,46,128,61,159,135,61,189,
  225,80,55,189,188,191,103,61,10,95,216,61,
  105,186,13,61,101,235,3,61,138,46,139,61,
  180,102,9,183,17,154,146,61,222,72,143,189,
  21,219,118,189,62,63,9,60,56,230,145,61,
  15,56,109,60,243,98,35,61,156,249,168,61,
  129,173,233,60,47,178,191,185,98,62,59,189,
  69,81,141,187,110,200,89,61,226,130,176,61,
  42,253,159,189,149,87,119,61,141,206,61,189,
  105,250,118,189,42,227,134,189,198,40,200,61,
  240,177,236,188,127,97,178,61,146,43,78,61,
  237,56,11,189,150,34,56,188,192,89,174,60,
  25,202,93,61,11,243,188,61,43,226,73,61,
  124,123,116,189,67,142,252,60,67,7,130,189,
  110,222,32,61,163,192,16,189,195,244,104,61,
  207,65,83,61,239,105,135,188,67,133,193,61,
  133,135,235,60,129,104,32,189,115,177,165,61,
  155,150,24,188,168,31,175,61,137,41,137,60,
  93,154,155,189,47,7,175,189,10,26,187,59,
  244,93,161,60,195,248,135,60,85,33,105,60,
  73,10,69,189,3,128,156,61,246,138,184,188,
  229,11,134,61,65,195,196,61,184,10,160,188,
  231,173,160,60,202,144,157,189,96,229,158,189,
  85,124,148,189,209,10,196,189,159,49,116,61,
  102,158,157,61,27,21,138,189,75,142,137,61,
  57,15,60,189,21,105,176,189,242,174,166,188,
  152,28,203,188,4,26,13,60,131,138,9,61,
  1,112,120,189,67,211,115,189,48,247,154,61,
  193,199,54,61,177,71,124,189,208,34,181,189,
  243,39,200,60,26,104,175,189,231,2,6,60,
  182,238,150,60,198,104,98,61,101,120,147,61,
  189,186,233,188,31,50,224,60,96,94,139,189,
  228,205,175,61,210,230,83,59,42,106,76,189,
  138,40,24,189,149,178,138,61,77,131,134,60,
  32,2,52,189,86,63,8,189,190,80,102,59,
  156,95,249,60,228,179,16,188,28,110,213,189,
  30,111,153,61,255,93,86,60,201,235,55,59,
  159,87,211,189,203,199,200,61,235,105,181,189,
  228,144,69,61,202,255,135,189,102,196,128,189,
  97,204,162,189,146,51,140,188,233,164,107,61,
  189,188,138,61,53,55,138,188,77,134,82,61,
  231,185,176,61,228,237,215,61,153,202,196,189,
  44,197,129,58,226,40,168,61,92,25,34,61,
  142,6,25,61,150,90,154,188,191,12,176,188,
  54,125,47,61,204,135,135,60,121,117,248,188,
  207,82,175,188,141,52,174,61,166,188,141,189,
  114,9,106,189,177,84,229,188,7,64,60,61,
  176,7,173,189,124,104,162,61,13,43,134,61,
  58,72,108,61,90,88,64,189,112,158,147,189,
  126,201,183,189,72,80,212,61,214,224,131,59,
  75,104,13,189,200,85,128,61,183,190,137,189,
  209,225,35,61,59,86,152,61,115,120,144,189,
  29,68,140,189,7,90,128,188,115,241,126,61,
  219,43,162,61,2,218,143,189,203,169,173,61,
  216,182,163,61,39,255,236,60,249,186,23,189,
  40,29,223,60,28,167,151,60,32,230,161,188,
  46,77,9,61,77,42,204,61,112,118,166,189,
  113,103,68,189,131,60,163,189,187,14,99,59,
  98,6,182,61,156,26,21,61,5,100,12,189,
  198,120,63,189,165,230,117,61,128,186,104,189,
  109,225,218,61,84,201,181,188,94,13,28,187,
  243,134,233,59,220,117,165,61,191,231,12,188,
  127,200,186,188,218,162,59,189,121,42,134,189,
  175,21,194,61,32,96,65,188,180,104,156,189,
  146,218,27,189,243,89,136,187,81,231,163,189,
  124,213,133,188,202,1,9,189,122,22,99,189,
  8,84,20,188,35,191,105,189,35,115,152,61,
  225,89,161,61,44,74,103,189,44,68,88,189,
  134,137,145,189,116,36,107,61,206,24,95,61,
  152,27,234,61,182,66,8,189,19,182,161,61,
  15,47,42,60,244,205,124,189,168,70,179,188,
  129,172,14,61,169,158,16,189,82,203,190,188,
  183,36,230,61,68,17,153,61,203,204,39,189,
  163,13,6,189,194,134,26,189,40,108,64,60,
  76,152,226,59,139,54,85,185,228,124,217,189,
  183,115,159,60,178,209,158,189,191,254,179,61,
  107,2,91,188,251,229,52,58,56,35,78,61,
  38,183,93,188,188,218,132,189,20,29,69,189,
  110,204,196,61,50,241,26,61,156,101,21,189,
  217,92,214,187,196,159,123,61,104,230,211,59,
  143,103,189,188,37,222,15,189,74,51,7,60,
  54,173,122,189,191,20,183,189,148,166,140,189,
  66,219,162,188,79,102,172,61,155,13,33,189,
  54,135,201,188,220,44,63,61,122,23,132,189,
  107,236,26,61,206,27,231,61,36,96,125,61,
  238,90,113,61,195,92,136,60,170,167,86,61,
  41,238,98,61,83,171,126,61,45,178,176,189,
  21,18,85,188,127,69,174,189,161,210,142,189,
  236,247,185,188,51,254,46,60,193,27,169,189,
  178,111,83,188,36,201,9,61,9,24,119,189,
  137,18,134,189,240,89,148,60,117,11,83,189,
  96,238,49,59,230,101,38,189,65,88,217,61,
  128,52,152,61,163,213,120,60,95,198,172,189,
  15,24,31,188,38,184,109,60,208,221,198,60,
  162,255,149,61,139,214,99,189,169,44,146,188,
  248,129,138,189,55,50,30,59,30,250,19,60,
  115,146,177,59,65,223,177,189,247,253,14,189,
  115,87,222,61,62,22,175,189,237,88,214,61,
  233,78,111,61,96,115,1,61,50,18,172,60,
  82,89,2,188,11,188,199,60,195,236,246,188,
  181,235,54,61,207,218,53,186,195,194,218,60,
  235,144,155,189,233,200,95,189,11,47,175,185,
  208,180,50,189,57,91,123,61,37,57,200,61,
  59,237,153,61,254,58,82,189,146,55,181,61,
  24,40,75,188,190,162,52,60,211,207,78,61,
  69,99,36,189,220,189,129,61,62,194,58,189,
  230,236,233,188,216,38,110,60,87,136,155,189,
  4,58,126,60,191,137,244,188,49,236,89,60,
  211,128,169,59,128,141,134,61,91,24,139,59,
  38,252,74,61,44,230,162,61,182,142,209,61,
  103,101,93,189,224,228,187,187,24,224,112,61,
  251,219,32,61,38,244,8,188,47,184,86,61,
  79,137,100,188,72,194,71,58,255,200,219,188,
  178,103,213,60,203,69,113,61,196,213,236,59,
  239,166,179,189,237,188,114,60,55,17,183,61,
  39,45,191,59,250,184,65,189,214,126,137,61,
  66,44,73,189,113,178,122,61,132,35,237,188,
  204,212,179,61,69,210,167,189,30,134,157,61,
  206,188,174,59,208,64,205,189,208,188,198,61,
  85,139,20,189,135,21,62,189,125,42,132,189,
  5,16,132,60,112,79,7,61,245,50,116,61,
  28,239,161,60,98,156,129,189,5,57,223,60,
  82,1,209,189,207,48,13,61,113,29,111,189,
  72,66,74,189,83,140,60,61,113,158,199,61,
  87,2,215,189,14,50,227,188,221,54,11,61,
  81,47,115,61,177,218,113,189,63,228,222,60,
  156,245,30,61,170,242,137,61,68,38,211,61,
  186,46,108,189,238,3,32,61,205,26,232,188,
  188,95,106,59,156,94,194,189,36,95,79,189,
  13,86,47,189,50,52,171,188,113,124,70,61,
  43,96,94,60,121,153,95,187,154,83,82,61,
  194,125,134,61,114,29,165,189,144,60,158,189,
  5,127,188,189,103,45,253,188,61,211,56,189,
  69,35,142,189,201,44,61,60,233,196,188,189,
  4,125,37,189,6,237,175,189,188,188,21,60,
  123,103,253,60,96,54,66,187,64,212,56,61,
  177,73,71,61,180,51,41,188,107,136,156,61,
  207,110,105,189,168,194,222,188,77,242,60,189,
  64,215,154,61,204,81,144,59,6,185,179,61,
  46,69,158,60,192,155,87,61,252,236,59,61,
  169,140,176,187,238,209,123,60,53,167,216,188,
  74,212,138,189,254,154,145,189,219,216,144,61,
  134,246,146,187,66,123,13,61,195,142,172,61,
  221,55,210,189,31,137,159,61,99,131,103,187,
  252,124,136,61,157,207,46,61,246,143,127,189,
  125,178,194,188,37,158,201,187,90,32,45,186,
  79,224,83,189,11,155,38,60,164,81,98,188,
  173,8,175,188,90,66,100,189,134,25,202,189,
  51,43,5,61,10,199,203,60,51,51,193,189,
  255,22,128,59,136,171,229,60,8,134,130,61,
  178,85,20,189,78,243,103,189,73,60,41,189,
  127,176,224,59,205,252,39,189,146,45,64,61,
  44,211,247,187,157,90,198,61,155,132,16,189,
  105,144,196,189,118,64,3,189,112,114,44,189,
  76,36,129,189,238,220,190,60,94,191,170,59,
  116,82,160,189,195,148,142,60,8,69,50,61,
  96,3,91,189,201,134,131,61,234,238,196,187,
  62,197,50,189,66,80,21,189,124,146,130,61,
  145,180,190,189,107,149,14,60,148,21,95,61,
  190,129,115,189,107,70,37,188,201,152,168,188,
  189,102,124,60,69,239,74,61,147,189,184,61,
  141,152,10,189,11,22,209,58,58,217,55,189,
  251,180,239,59,107,108,153,189,122,240,63,188,
  157,207,216,60,121,12,185,61,242,32,162,189,
  143,225,27,189,238,227,236,187,166,221,171,60,
  50,221,10,61,105,246,64,61,99,247,37,189,
  88,158,175,61,250,55,30,61,49,153,159,189,
  25,125,26,189,244,124,193,189,167,131,124,60,
  164,174,176,61,254,112,68,61,228,172,115,61,
  45,247,132,61,3,157,25,187,0,90,85,189,
  234,225,110,59,206,24,243,188,26,191,135,189,
  197,200,88,188,122,13,61,189,131,199,208,189,
  74,236,80,61,55,234,119,189,45,15,149,189,
  159,62,68,61,34,176,47,189,108,162,132,61,
  219,166,221,60,245,161,105,60,125,202,244,60,
  145,32,56,189,135,78,84,189,164,28,8,187,
  8,36,167,56,126,157,142,61,207,173,94,61,
  161,134,158,189,28,199,166,189,69,98,170,60,
  203,65,72,61,182,130,34,188,21,28,20,61,
  21,142,60,61,60,87,0,61,135,75,177,189,
  91,169,1,189,113,108,161,61,113,0,182,61,
  225,242,173,60,161,234,171,189,25,158,210,188,
  143,159,187,61,73,194,50,187,206,213,0,189,
  157,68,0,189,79,229,135,61,147,203,145,61,
  154,107,82,188,180,67,181,61,77,170,115,61,
  153,195,124,189,138,144,195,61,73,244,205,188,
  177,105,72,189,154,221,50,61,151,115,209,60,
  150,201,148,61,113,135,148,189,2,119,2,61,
  84,123,16,61,42,169,46,189,149,244,49,189,
  251,148,110,189,111,140,35,189,64,137,141,189,
  252,219,143,60,202,196,180,188,60,173,248,59,
  79,102,149,189,49,51,151,187,131,210,59,189,
  30,233,32,188,6,119,165,60,32,108,157,189,
  68,187,198,189,67,77,86,189,3,160,236,188,
  66,94,61,61,250,251,56,188,187,166,120,189,
  91,91,190,189,192,103,163,189,69,122,178,189,
  172,85,32,61,237,80,216,61,218,101,163,61,
  37,35,5,61,196,83,169,188,55,85,129,60,
  199,30,105,189,177,247,239,61,104,100,132,61,
  56,135,39,189,58,11,139,59,82,51,233,60,
  42,21,116,188,11,189,2,189,27,115,119,189,
  61,92,159,61,204,125,111,60,226,250,80,61,
  121,75,5,189,28,163,92,189,105,201,39,59,
  189,192,147,189,92,162,38,188,228,139,154,189,
  64,67,136,189,60,120,175,61,159,9,179,189,
  98,205,115,61,119,146,239,60,127,228,110,61,
  229,89,209,61,226,189,177,60,121,93,87,61,
  146,147,158,60,227,251,85,59,144,226,196,188,
  72,12,101,60,35,204,147,61,248,134,19,60,
  90,135,220,189,216,46,137,61,23,101,71,189,
  135,48,158,61,143,225,40,61,42,189,166,187,
  79,89,250,186,80,147,192,187,62,236,225,187,
  125,128,134,189,38,149,240,61,75,99,206,188,
  50,144,13,189,82,190,128,189,15,145,177,60,
  238,119,81,61,93,37,129,188,222,237,33,189,
  17,180,147,60,207,24,60,189,103,97,98,189,
  217,117,14,61,163,206,242,60,150,124,195,60,
  226,219,45,189,38,197,20,61,232,144,81,188,
  230,49,127,61,148,121,201,61,89,81,220,188,
  53,220,194,189,179,43,20,61,190,134,22,187,
  134,242,197,61,139,91,7,60,169,12,170,188,
  40,245,143,188,173,107,224,58,217,169,110,188,
  169,17,131,188,94,190,219,61,29,64,5,189,
  128,170,119,189,123,182,151,189,199,26,56,60,
  207,236,20,189,89,175,21,189,95,118,34,61,
  208,152,197,60,160,62,162,189,80,107,187,58,
  203,172,192,61,129,88,176,59,232,143,130,189,
  50,40,74,189,222,231,164,189,242,131,177,60,
  84,122,178,188,136,245,128,189,25,161,66,189,
  239,207,44,189,221,76,127,61,240,246,73,61,
  153,74,203,60,255,242,152,61,153,63,36,188,
  46,187,17,61,160,217,141,189,133,163,236,188,
  211,79,135,189,212,55,123,60,132,124,250,60,
  79,85,113,189,117,219,62,189,221,160,130,61,
  17,99,155,187,48,240,109,61,10,46,100,187,
  174,157,133,60,104,82,87,61,162,69,161,187,
  235,68,196,61,231,106,46,61,50,191,136,188,
  30,52,66,61,174,0,33,60,48,194,44,61,
  156,254,89,61,219,64,215,61,211,68,51,189,
  213,115,158,61,5,126,178,61,179,234,75,189,
  117,14,154,61,135,91,20,187,120,178,60,61,
  30,220,193,189,105,6,62,189,30,58,138,61,
  191,61,165,60,113,62,37,61,154,116,242,189,
  238,100,76,189,186,104,165,61,123,182,65,61,
  168,232,232,61,106,136,85,188,193,116,179,188,
  68,243,134,60,1,25,136,61,60,219,246,60,
  146,30,213,61,250,37,163,61,114,172,85,61,
  221,90,134,189,186,242,130,189,104,139,161,188,
  152,133,214,61,203,73,253,186,71,45,94,60,
  52,203,173,189,186,36,117,61,184,224,236,187,
  34,39,177,61,156,135,62,189,210,233,85,189,
  244,65,18,61,40,35,195,61,114,64,136,61,
  108,211,242,188,135,2,201,61,221,218,227,188,
  237,50,202,189,253,222,129,61,166,82,132,189,
  162,55,46,60,30,39,48,189,105,239,40,60,
  84,156,48,189,242,104,222,188,76,103,79,61,
  177,230,167,61,253,215,153,189,240,49,59,189,
  103,29,124,189,190,169,149,61,27,28,18,61,
  76,137,40,188,108,90,92,188,200,238,43,189,
  80,114,156,189,39,207,85,189,88,163,142,60,
  152,108,99,61,98,203,54,188,31,10,122,189,
  213,133,118,61,10,60,10,61,90,71,132,61,
  123,148,189,61,51,223,125,61,29,190,18,61,
  150,221,42,61,172,226,77,189,115,84,200,61,
  228,124,133,188,131,115,32,189,207,146,191,188,
  35,107,208,59,49,20,39,61,147,233,163,60,
  38,45,44,59,30,137,145,189,52,143,191,187,
  248,252,175,189,142,248,192,60,109,225,60,61,
  20,122,3,189,245,6,17,61,153,232,41,61,
  77,203,112,61,237,155,156,61,97,209,9,61,
  139,63,5,61,178,69,109,189,217,200,214,59,
  52,44,169,61,129,40,15,189,160,241,129,189,
  150,109,130,61,152,64,32,60,203,59,211,60,
  180,133,235,60,155,104,129,188,209,178,98,189,
  149,202,137,61,79,123,76,188,49,208,251,59,
  81,200,140,189,56,11,2,189,110,243,111,187,
  32,228,107,61,220,97,0,61,11,175,76,61,
  250,179,188,61,155,161,63,61,128,163,62,189,
  177,36,191,60,143,142,17,189,187,50,146,61,
  193,228,57,61,1,106,18,61,22,10,149,61,
  67,15,129,189,157,75,232,186,14,201,164,189,
  27,57,164,189,62,148,70,189,10,230,126,61,
  129,58,180,61,95,65,215,59,214,214,85,61,
  152,21,226,188,253,145,17,189,68,82,223,188,
  236,147,103,188,253,223,186,61,229,14,252,188,
  58,137,66,61,196,103,55,189,108,69,31,61,
  138,79,10,61,140,46,132,61,90,30,65,61,
  100,199,137,60,2,227,58,188,43,69,127,189,
  216,195,109,61,90,156,65,189,241,25,178,61,
  4,155,154,189,84,10,162,61,3,202,141,189,
  99,132,181,187,32,177,102,188,105,198,210,187,
  180,96,150,60,72,204,153,189,164,88,152,61,
  139,189,197,189,135,105,178,61,117,120,156,188,
  140,165,81,58,163,48,184,189,226,107,72,189,
  221,70,154,61,252,192,133,61,242,184,14,189,
  215,61,6,189,104,158,133,189,19,66,162,189,
  146,75,189,189,110,113,143,188,100,182,210,61,
  150,167,184,188,208,203,210,59,96,23,146,61,
  111,186,250,188,213,175,98,189,241,223,188,188,
  0,144,157,61,3,65,130,189,178,16,116,61,
  96,116,94,60,247,72,28,61,26,37,167,61,
  222,229,140,60,251,250,80,61,234,181,229,187,
  226,203,126,61,118,83,205,187,22,85,180,61,
  235,84,153,61,214,40,151,189,1,127,35,61,
  240,178,56,61,193,149,153,189,181,97,151,61,
  81,178,108,60,222,69,179,61,1,32,81,61,
  196,151,135,61,23,209,247,188,96,30,47,189,
  157,111,197,61,70,72,179,189,240,183,195,188,
  189,12,6,61,4,82,125,60,116,26,7,188,
  252,216,201,61,153,233,134,189,247,16,158,61,
  49,59,203,60,236,208,28,61,237,165,98,189,
  64,158,124,189,240,211,114,61,100,203,178,60,
  183,143,144,61,252,5,4,187,188,38,174,61,
  53,34,194,60,251,67,63,189,94,44,193,187,
  124,212,95,188,44,90,137,60,197,61,46,189,
  142,232,173,188,6,199,123,60,232,116,40,61,
  118,149,132,188,136,166,166,189,180,35,5,61,
  22,33,130,188,114,131,82,61,145,134,152,61,
  166,93,79,189,88,251,137,61,52,254,114,60,
  114,233,49,189,21,36,61,59,119,40,18,189,
  161,10,185,185,213,113,16,189,37,248,140,187,
  91,2,161,189,206,220,37,61,104,195,163,188,
  222,79,94,189,121,91,201,188,70,149,64,61,
  157,64,118,61,167,228,31,188,5,71,150,61,
  195,48,80,61,177,116,109,189,20,224,13,189,
  31,149,184,187,135,71,12,61,108,50,152,189,
  193,159,49,61,218,213,81,61,206,123,100,61,
  65,67,134,61,200,97,169,61,255,242,44,189,
  100,75,194,189,20,147,105,189,18,106,157,189,
  237,25,159,60,43,131,9,61,143,32,200,60,
  75,142,32,188,80,14,80,189,170,29,148,61,
  39,170,80,60,147,229,114,188,216,31,85,61,
  106,207,71,61,57,212,204,60,206,77,194,60,
  141,81,38,60,50,87,189,60,11,199,243,60,
  153,17,142,189,124,126,129,189,47,193,161,61,
  246,26,106,188,114,70,45,189,244,179,224,60,
  162,157,210,188,250,125,128,187,39,188,128,189,
  56,82,71,189,5,28,171,189,187,69,95,61,
  64,204,101,61,240,96,83,61,21,49,155,189,
  157,255,11,189,197,135,112,61,226,68,194,189,
  20,150,127,61,75,218,135,189,235,189,77,189,
  77,210,42,59,249,200,24,189,82,190,237,187,
  230,14,73,61,183,192,98,186,9,192,147,189,
  152,3,29,189,254,177,13,189,50,116,88,189,
  214,71,148,61,74,74,32,189,8,92,233,60,
  15,121,139,61,165,96,194,188,25,21,148,189,
  106,221,211,188,184,186,161,189,51,43,164,189,
  175,209,74,189,88,241,251,188,203,214,111,187,
  140,74,105,61,85,194,132,189,150,213,253,59,
  40,41,7,189,132,165,88,61,70,108,156,61,
  255,35,203,60,168,88,248,188,68,98,83,188,
  135,42,38,61,135,195,108,189,170,223,42,189,
  102,16,151,188,83,42,228,60,62,205,25,188,
  172,97,71,61,137,116,220,61,122,107,167,61,
  222,88,245,187,114,151,129,61,121,154,29,61,
  82,231,94,189,31,81,42,61,142,105,145,60,
  106,113,156,188,18,225,5,189,137,18,130,189,
  98,50,137,60,206,15,186,189,98,228,131,189,
  185,233,174,188,142,65,152,61,142,0,154,189,
  232,100,154,59,185,132,142,60,254,188,44,61,
  232,95,167,61,28,219,137,61,17,176,82,60,
  252,61,33,61,85,47,178,189,248,108,235,59,
  205,194,202,61,125,165,160,189,149,85,236,60,
  168,82,189,189,96,229,207,60,62,116,155,189,
  227,124,120,189,186,224,149,61,162,129,5,188,
  226,103,97,187,60,184,218,188,191,202,18,61,
  194,172,188,61,240,43,143,188,13,219,164,60,
  62,66,197,60,76,27,19,61,151,129,178,189,
  124,130,6,61,41,157,151,60,212,133,148,61,
  214,129,142,189,174,159,125,189,57,11,172,189,
  213,20,158,61,120,52,113,189,100,116,236,189,
  177,95,160,60,200,60,142,61,135,158,165,61,
  1,155,106,188,186,24,134,61,180,90,101,60,
  8,187,129,189,199,5,174,61,147,79,60,189,
  201,224,98,59,211,159,132,60,208,213,238,188,
  181,121,81,189,8,175,245,60,122,11,194,189,
  231,43,168,60,223,102,193,61,4,246,219,189,
  104,118,137,59,166,117,21,61,158,27,75,189,
  206,234,165,61,65,17,184,61,81,228,50,58,
  195,146,248,60,217,238,245,187,143,123,229,188,
  106,140,179,61,247,0,16,60,210,155,216,189,
  38,175,139,188,10,2,66,60,113,237,29,61,
  101,8,241,60,89,29,223,61,218,162,127,188,
  47,174,46,189,146,138,39,189,174,4,36,61,
  12,184,101,189,64,41,211,188,89,66,100,59,
  101,26,180,60,251,238,113,61,36,107,156,189,
  250,47,111,61,249,70,56,60,122,183,95,189,
  168,19,21,60,112,52,83,188,72,48,156,189,
  200,237,101,189,147,59,133,189,10,65,119,189,
  242,186,51,61,14,180,1,60,76,136,72,189,
  217,95,79,188,183,82,223,61,253,54,153,189,
  229,215,164,61,140,189,149,61,83,251,31,189,
  154,145,161,60,193,29,161,61,43,224,158,60,
  221,20,176,188,213,184,156,189,47,211,134,61,
  151,213,62,189,237,66,104,189,220,200,3,59,
  73,84,198,59,42,110,54,61,246,100,191,60,
  201,62,65,189,2,218,235,60,235,178,198,188,
  134,91,174,60,218,129,63,189,113,19,192,189,
  127,209,168,61,173,240,160,60,167,57,9,61,
  62,42,128,61,240,129,68,188,154,146,17,189,
  200,239,51,60,24,182,96,188,108,143,216,189,
  119,249,92,60,51,250,92,188,61,192,196,189,
  17,217,25,189,220,170,138,61,41,168,247,60,
  69,98,70,61,247,240,98,61,164,165,29,189,
  60,14,15,61,60,101,175,61,235,231,171,189,
  122,161,45,188,94,91,169,188,216,12,12,60,
  253,143,22,61,41,171,28,61,158,219,107,61,
  7,173,11,187,219,65,194,60,192,115,13,61,
  6,235,24,188,179,39,228,188,30,54,158,188,
  8,43,150,189,120,6,131,61,156,206,182,189,
  142,97,61,189,205,123,244,186,196,56,163,189,
  62,254,194,188,80,119,176,188,100,180,198,189,
  174,88,132,189,130,58,84,188,191,129,33,189,
  249,91,94,61,161,216,187,61,153,33,108,60,
  117,17,64,60,0,213,25,60,75,90,158,61,
  135,204,158,188,128,202,193,187,243,119,192,60,
  164,144,0,61,85,35,81,61,240,16,132,188,
  10,157,181,61,100,154,223,188,1,47,118,61,
  95,108,97,187,37,100,183,61,1,146,134,189,
  168,247,143,61,5,72,201,189,195,107,163,61,
  16,62,8,61,219,7,42,189,168,134,192,188,
  60,96,40,61,104,191,72,61,79,2,147,59,
  222,115,23,189,8,115,223,61,189,94,33,61,
  147,160,114,61,147,88,225,59,107,32,176,61,
  50,50,121,189,243,12,144,189,198,21,210,60,
  99,111,238,188,111,0,116,61,93,37,159,188,
  34,249,153,61,94,145,154,189,82,176,71,189,
  14,49,159,189,111,20,163,60,69,214,18,61,
  203,80,180,188,163,54,14,189,222,213,179,61,
  58,80,13,189,81,52,244,60,100,23,243,60,
  147,249,200,60,186,163,190,188,217,133,220,187,
  240,123,57,189,67,223,53,189,220,63,221,59,
  120,3,69,189,78,80,223,61,77,43,47,189,
  220,84,119,61,200,37,4,189,110,152,49,189,
  107,10,230,189,26,56,149,61,108,20,235,189,
  102,131,20,61,144,72,145,61,12,19,152,61,
  21,31,212,188,253,143,215,188,38,11,209,189,
  110,253,125,61,50,33,48,189,142,90,247,60,
  21,126,138,189,0,44,46,61,234,206,45,61,
  97,130,195,189,146,206,159,189,152,186,23,61,
  184,85,126,189,43,2,198,61,161,102,151,189,
  180,189,10,61,34,185,136,61,162,47,36,61,
  201,206,198,189,235,1,184,61,73,1,129,60,
  111,60,123,189,41,131,212,61,23,75,44,189,
  225,196,64,189,146,27,172,188,74,117,9,61,
  246,19,206,61,94,0,136,189,197,25,215,188,
  206,122,174,59,81,94,185,61,195,149,81,186,
  141,99,44,188,12,207,36,61,53,85,186,59,
  33,185,174,189,141,123,231,187,226,120,254,189,
  194,138,133,189,189,248,236,61,221,138,215,61,
  210,92,142,61,255,184,134,61,136,26,95,61,
  59,212,188,59,69,76,168,61,251,40,73,61,
  64,233,88,188,170,141,204,61,168,73,110,189,
  121,80,46,189,15,248,163,189,117,58,156,59,
  76,97,225,189,203,223,73,61,63,241,62,61,
  165,249,104,61,57,180,168,189,22,11,45,61,
  40,114,213,189,242,85,183,188,20,204,70,61,
  142,74,196,61,133,243,188,61,48,131,147,189,
  33,194,86,61,27,246,107,61,252,32,224,189,
  99,44,122,61,214,208,187,61,10,31,40,61,
  169,113,248,188,222,133,152,189,254,6,114,61,
  62,35,57,189,220,41,186,61,240,136,207,188,
  179,181,220,189,224,156,71,61,86,202,136,61,
  48,151,174,61,167,150,9,188,202,38,59,189,
  246,207,67,61,26,129,194,61,144,159,20,188,
  123,21,207,60,130,10,179,188,97,38,212,189,
  159,129,247,188,118,237,168,189,94,49,190,189,
  96,231,194,189,9,30,65,188,92,180,184,189,
  140,120,44,188,147,61,175,61,196,118,134,61,
  38,127,150,189,36,125,107,189,183,151,95,189,
  63,172,248,59,169,241,140,188,70,241,155,61,
  9,75,183,189,192,157,146,59,73,60,60,189,
  7,88,90,61,192,19,39,61,27,184,137,61,
  0,68,4,60,237,129,171,61,128,153,143,188,
  108,42,30,189,117,150,154,61,216,123,70,61,
  214,126,125,61,120,107,89,60,228,184,160,189,
  77,9,33,189,97,116,182,189,131,129,145,189,
  42,86,171,189,162,70,18,61,39,53,155,61,
  158,26,172,61,100,87,8,187,63,7,66,189,
  72,84,160,189,19,159,52,61,238,107,170,54,
  41,33,81,189,243,12,57,189,198,61,160,189,
  241,162,67,61,9,238,177,61,118,234,17,61,
  233,56,176,189,140,66,173,187,247,184,217,60,
  108,254,104,61,47,116,53,59,246,154,169,60,
  236,74,212,188,45,193,164,189,52,243,154,189,
  170,40,5,60,181,99,115,188,7,119,67,188,
  95,110,174,61,103,67,12,187,48,148,146,61,
  69,9,219,189,216,209,210,188,88,77,217,189,
  232,74,89,188,205,159,8,61,162,71,131,60,
  134,52,37,61,84,255,8,189,180,123,109,189,
  176,53,141,189,166,9,229,188,234,33,179,189,
  4,216,170,189,246,148,48,61,101,239,69,61,
  185,184,186,188,128,198,161,189,68,7,47,60,
  41,180,107,61,153,99,201,188,90,133,218,60,
  197,33,141,61,182,200,166,189,98,220,22,189,
  179,222,54,188,151,4,156,61,65,233,213,189,
  201,176,137,189,238,191,133,60,3,8,178,189,
  76,107,196,189,197,195,114,188,189,91,236,188,
  81,85,69,189,123,60,180,60,56,72,116,189,
  13,56,129,61,137,108,67,61,46,164,174,188,
  150,43,183,61,166,120,183,60,69,129,232,188,
  208,146,125,61,17,143,24,61,177,81,208,60,
  127,13,2,60,189,72,120,189,19,55,4,189,
  167,24,24,61,131,110,242,61,82,225,162,188,
  108,219,238,60,163,77,118,61,168,32,129,61,
  66,206,106,189,92,178,148,59,149,102,141,189,
  235,92,108,189,98,180,161,189,30,135,160,59,
  225,228,132,188,5,163,143,61,211,28,86,189,
  93,125,218,61,172,151,144,189,95,54,144,188,
  188,189,186,189,230,181,128,61,239,204,137,61,
  70,14,158,61,120,229,119,61,87,30,84,61,
  60,98,152,61,158,213,49,61,93,163,53,187,
  47,43,130,189,127,139,158,61,135,245,166,189,
  18,151,192,189,33,115,180,188,33,253,35,61,
  5,51,34,61,182,83,163,189,128,248,61,61,
  77,17,68,188,203,43,182,61,42,161,66,189,
  49,228,153,188,171,30,206,61,65,140,17,189,
  38,229,6,61,136,150,117,189,52,53,136,189,
  228,11,77,189,197,115,228,60,199,144,26,189,
  247,87,157,188,3,86,159,61,106,86,46,189,
  230,71,178,61,187,216,255,60,160,245,197,189,
  216,194,21,61,16,134,170,61,68,35,168,61,
  23,45,128,189,28,187,151,60,143,35,191,59,
  79,82,28,60,21,69,191,61,168,9,245,188,
  7,119,138,189,50,214,67,60,155,14,15,189,
  68,224,110,61,233,92,33,189,190,105,168,61,
  148,246,203,61,45,57,63,189,95,98,165,189,
  92,246,0,189,202,242,195,189,67,229,175,61,
  109,209,223,61,41,226,65,60,91,137,214,188,
  245,39,157,189,239,21,186,60,169,44,95,189,
  53,175,186,55,161,152,165,187,31,20,74,189,
  231,52,59,186,212,17,138,189,16,72,139,189,
  76,90,20,186,44,174,58,188,209,198,132,189,
  57,60,99,188,219,150,136,189,189,168,179,189,
  203,183,156,61,227,193,140,60,154,210,91,61,
  157,40,70,61,103,210,109,188,195,160,144,188,
  39,82,170,189,0,245,198,61,31,141,165,189,
  74,111,177,188,130,245,156,61,59,25,210,61,
  170,74,135,60,213,65,110,187,86,245,195,60,
  42,250,173,61,218,35,120,187,129,0,63,61,
  89,244,15,189,51,77,167,189,104,249,174,189,
  16,84,159,189,34,128,85,61,227,187,4,189,
  130,244,28,61,80,152,146,189,86,136,145,189,
  74,145,63,188,119,26,139,61,46,71,4,189,
  153,13,41,61,24,52,1,61,57,114,69,189,
  108,118,215,61,229,188,90,61,137,169,67,60,
  213,100,17,189,210,15,182,188,215,17,222,188,
  254,158,23,189,136,35,33,189,130,32,210,61,
  204,177,16,189,230,145,157,189,25,118,64,61,
  218,183,156,61,189,81,6,61,244,189,179,61,
  209,72,157,188,68,186,200,61,219,154,217,189,
  139,210,156,61,127,244,179,186,229,121,175,61,
  41,12,198,60,161,240,229,188,189,94,150,189,
  109,24,57,61,25,43,158,189,255,97,198,61,
  33,187,19,189,218,9,215,60,240,107,23,61,
  212,200,81,60,30,93,164,60,205,89,3,187,
  83,172,102,189,195,136,118,187,98,97,218,189,
  189,153,143,61,204,106,171,189,155,145,163,61,
  156,101,161,61,114,219,201,61,216,61,13,188,
  202,234,46,188,47,153,234,58,133,18,133,188,
  109,140,165,60,134,39,85,189,156,212,58,61,
  55,179,72,189,89,16,178,189,120,66,129,61,
  176,180,165,59,209,46,179,61,151,57,184,189,
  105,142,56,60,145,60,138,61,153,110,114,189,
  243,240,132,188,53,199,62,61,61,143,220,60,
  98,105,8,189,198,63,205,188,236,72,255,60,
  94,193,204,60,239,132,169,61,227,108,7,188,
  195,137,71,189,246,1,199,189,76,172,214,61,
  70,246,108,189,40,97,50,189,148,203,180,189,
  225,128,100,61,9,95,250,60,98,129,158,60,
  20,249,15,188,219,187,135,61,145,249,147,189,
  227,140,185,61,69,171,181,189,202,75,253,60,
  107,64,183,61,60,214,242,188,177,63,17,187,
  158,42,77,189,137,31,149,59,45,206,145,189,
  15,254,146,60,47,3,69,61,99,194,249,60,
  25,215,180,189,0,49,3,189,246,156,223,61,
  98,61,113,61,129,123,241,188,148,183,231,189,
  15,87,82,189,156,131,95,60,227,118,216,60,
  214,103,59,61,208,79,11,61,103,242,131,61,
  148,166,11,189,38,161,187,189,98,60,229,61,
  10,125,67,189,65,95,158,61,94,86,110,60,
  105,67,1,188,241,213,74,189,215,240,157,61,
  84,55,186,189,3,185,107,188,166,248,230,188,
  87,110,132,188,34,60,164,188,123,228,144,61,
  42,115,175,189,201,134,168,60,240,248,207,189,
  228,220,156,61,102,24,3,189,75,97,208,188,
  119,128,62,61,189,68,32,61,84,94,147,61,
  18,186,165,61,11,239,132,61,101,49,73,61,
  178,197,205,60,59,96,139,189,132,107,139,189,
  110,128,208,61,161,205,245,56,6,97,235,61,
  157,59,61,61,240,126,103,189,93,151,137,189,
  179,178,154,61,207,218,244,59,223,118,83,189,
  199,9,147,188,164,25,121,186,255,119,245,189,
  41,23,47,189,97,216,46,61,15,251,251,60,
  46,163,173,61,223,182,171,189,195,9,225,60,
  247,12,185,60,111,153,159,59,61,31,190,61,
  104,30,176,61,166,199,55,61,232,162,48,61,
  191,210,160,61,179,224,12,189,73,193,56,189,
  171,174,217,188,118,40,193,61,240,165,232,60,
  19,137,233,60,250,226,148,61,27,241,11,61,
  222,40,151,189,156,161,3,61,6,20,44,61,
  26,159,133,188,72,60,167,189,189,43,231,58,
  74,154,149,61,111,79,135,61,252,209,194,188,
  15,20,145,60,149,245,56,60,251,108,170,60,
  175,203,19,61,74,139,123,188,171,245,2,61,
  84,46,177,61,192,19,94,189,73,121,104,61,
  75,43,125,189,162,124,41,189,91,201,217,189,
  101,208,184,189,164,182,135,189,61,211,240,61,
  155,135,128,61,40,66,132,189,241,244,10,190,
  15,239,167,189,88,164,103,61,67,199,107,61,
  233,24,84,189,143,66,137,189,0,120,3,190,
  126,115,187,61,0,189,220,61,210,199,14,189,
  5,9,83,189,217,116,102,61,191,116,185,187,
  23,98,129,61,127,158,156,189,143,37,2,189,
  89,126,43,189,170,215,131,61,106,118,54,61,
  69,172,96,61,167,2,152,189,213,71,23,61,
  54,236,139,188,237,238,169,60,222,47,40,189,
  41,239,17,61,159,40,147,189,215,65,130,61,
  167,206,19,60,17,247,129,189,109,118,29,61,
  211,128,158,60,234,53,131,61,241,229,161,61,
  245,47,195,189,72,100,219,188,199,206,68,189,
  252,215,199,60,187,217,81,185,166,77,157,61,
  205,112,10,60,32,84,164,189,103,233,229,189,
  233,46,210,187,71,138,160,189,64,87,212,61,
  30,68,56,189,220,53,131,188,18,8,240,189,
  5,41,216,61,147,130,99,189,186,124,211,61,
  70,181,192,60,191,98,147,187,37,211,244,189,
  110,43,144,189,193,51,121,189,131,179,120,60,
  214,40,123,189,24,244,126,188,121,151,133,59,
  216,21,174,189,65,7,162,61,81,167,237,61,
  150,250,148,188,56,190,49,61,54,165,149,188,
  67,140,161,60,213,210,226,60,249,18,228,60,
  57,247,123,189,155,104,54,189,142,14,195,188,
  50,173,19,189,193,220,49,187,79,161,182,60,
  87,197,153,61,17,120,224,60,235,122,18,188,
  172,8,145,61,254,203,105,59,254,162,106,188,
  228,37,74,60,13,17,157,189,118,178,182,189,
  63,177,4,61,115,30,17,60,121,158,44,61,
  78,88,74,61,230,111,162,61,199,64,144,61,
  179,17,65,187,93,202,241,188,49,73,183,60,
  136,169,64,61,228,194,127,61,63,28,123,189,
  245,58,207,186,116,171,59,189,243,222,89,61,
  51,76,56,189,41,177,149,189,30,69,255,60,
  4,33,127,188,141,81,88,188,149,213,15,189,
  118,87,33,60,130,236,99,60,201,21,121,188,
  95,27,136,61,251,200,29,189,106,246,14,189,
  139,219,222,188,176,203,53,59,9,164,191,189,
  152,88,108,188,5,78,67,187,255,64,134,189,
  135,28,87,61,153,212,55,61,211,242,17,60,
  233,172,133,61,15,59,133,61,84,98,181,60,
  71,42,92,61,11,102,75,61,250,26,64,61,
  252,155,36,189,132,139,195,188,235,17,152,188,
  111,135,90,189,254,181,195,61,242,171,160,60,
  204,140,134,189,50,178,137,60,40,119,211,60,
  222,6,150,61,155,217,176,189,192,231,108,189,
  61,172,146,61,167,101,67,60,146,37,138,60,
  85,158,106,61,210,123,196,61,62,17,238,60,
  78,63,162,60,149,102,80,189,14,248,58,61,
  29,129,18,189,184,145,9,59,7,129,131,188,
  88,20,170,61,154,212,184,188,80,144,82,61,
  72,83,141,60,112,92,136,189,63,24,61,189,
  199,226,12,61,21,59,53,61,139,212,62,61,
  166,218,2,58,40,103,144,189,216,53,102,189,
  194,162,119,189,245,162,187,189,127,65,175,188,
  19,34,182,61,206,1,172,61,252,181,213,59,
  171,143,51,189,214,89,58,187,255,17,118,61,
  57,162,109,61,123,81,142,61,245,135,246,188,
  164,197,143,61,223,75,37,59,88,211,147,61,
  204,115,205,188,38,128,147,189,225,136,203,189,
  34,143,131,61,35,67,50,188,29,173,65,188,
  176,212,158,61,209,161,77,61,140,186,18,61,
  250,12,85,188,157,102,211,61,227,97,45,189,
  9,34,106,61,204,43,51,61,120,152,36,189,
  154,22,163,61,136,94,135,61,62,174,150,61,
  117,203,165,61,37,75,115,189,64,229,179,60,
  158,172,202,61,165,241,174,60,241,241,128,60,
  223,123,0,189,13,145,166,59,201,76,187,189,
  216,220,42,189,159,85,106,61,177,78,210,61,
  84,199,20,61,93,245,125,188,252,44,151,61,
  168,187,229,60,190,13,147,61,44,105,171,61,
  204,177,151,61,62,53,132,61,53,149,62,61,
  95,18,26,61,44,199,25,61,72,7,80,189,
  240,32,43,61,115,102,161,189,32,165,185,60,
  230,56,66,61,47,37,232,59,147,206,154,189,
  82,9,233,188,232,149,189,189,37,213,90,61,
  12,194,126,189,205,106,212,61,41,59,114,188,
  8,35,147,61,188,181,41,187,240,113,106,61,
  252,102,61,189,170,202,37,61,5,75,94,60,
  110,27,141,61,8,95,101,61,200,43,134,60,
  168,105,139,189,142,58,121,189,91,236,136,61,
  238,156,200,188,138,137,186,189,146,60,77,59,
  18,150,191,188,157,249,144,188,55,217,237,188,
  67,95,156,189,124,48,189,60,58,170,57,189,
  205,123,184,59,31,111,173,61,153,53,163,61,
  168,243,183,189,163,53,17,61,98,252,18,61,
  41,172,8,61,73,214,156,60,13,82,151,189,
  189,158,188,189,183,138,69,61,254,39,19,189,
  174,184,111,187,135,59,95,61,138,205,85,60,
  147,188,210,189,19,52,144,189,103,230,8,61,
  131,53,106,189,62,167,243,188,216,166,103,189,
  223,25,230,188,195,221,213,60,13,218,58,189,
  144,135,77,61,143,133,165,188,178,40,137,60,
  209,128,222,60,171,159,114,61,137,72,176,61,
  199,244,4,189,8,141,97,189,25,56,187,61,
  246,50,252,188,215,164,2,189,78,130,176,59,
  169,233,167,60,95,211,49,189,122,99,20,187,
  31,249,141,188,78,237,67,189,239,230,150,60,
  252,9,165,189,203,123,140,189,165,86,156,189,
  42,125,131,189,71,62,133,61,16,208,242,59,
  53,181,128,189,253,72,0,60,45,23,9,61,
  206,65,163,61,166,196,169,189,182,108,215,60,
  227,142,21,61,250,250,149,189,240,53,96,189,
  231,12,208,189,138,254,110,60,84,220,21,188,
  13,157,227,60,217,208,26,189,161,141,71,61,
  131,194,103,60,83,196,166,189,149,154,107,61,
  15,170,157,189,217,34,49,189,70,30,197,61,
  225,194,192,189,163,97,99,189,99,191,195,61,
  126,56,153,189,226,219,155,188,91,172,216,61,
  235,128,138,61,10,195,139,188,193,206,68,189,
  14,220,154,61,70,56,28,61,41,119,8,189,
  184,42,16,61,186,151,222,60,206,149,64,188,
  15,203,102,189,31,206,18,60,236,113,108,61,
  146,145,162,189,195,183,125,189,141,248,15,188,
  36,93,137,60,55,251,197,60,44,136,219,188,
  228,197,167,189,214,110,171,61,153,43,64,188,
  234,65,165,189,124,96,133,189,98,129,110,189,
  90,176,123,189,198,144,169,61,160,37,96,61,
  184,212,89,61,97,172,0,61,52,184,187,189,
  124,26,221,60,254,81,198,189,132,176,245,60,
  31,74,58,189,232,138,214,61,190,241,23,61,
  249,246,150,189,200,79,98,61,131,250,35,189,
  248,193,9,189,100,134,7,61,80,29,110,61,
  187,4,129,189,59,86,196,189,133,5,147,61,
  1,153,209,189,54,197,77,189,143,46,93,189,
  220,61,83,61,237,96,22,189,103,53,171,61,
  5,182,175,188,85,151,188,60,157,19,146,61,
  214,134,186,188,112,193,181,61,144,103,243,58,
  133,13,151,189,250,17,205,61,52,143,74,59,
  69,96,81,61,167,245,175,189,11,12,90,189,
  137,39,154,60,7,157,246,188,193,12,202,189,
  225,15,66,188,152,255,207,188,28,157,119,61,
  7,50,204,189,55,125,123,60,144,104,177,189,
  72,21,124,189,160,8,10,61,244,9,33,61,
  78,105,196,189,199,132,209,188,213,142,53,188,
  46,249,211,60,151,187,129,189,164,240,168,58,
  233,172,159,189,17,214,157,61,50,254,251,59,
  183,58,145,61,62,191,151,189,107,202,68,189,
  163,209,132,189,225,114,185,61,253,137,62,189,
  136,245,170,189,142,116,77,189,240,130,213,61,
  253,163,158,61,107,181,128,189,118,65,174,188,
  152,38,49,60,34,30,48,61,66,50,144,61,
  180,10,185,189,212,239,133,189,210,66,202,188,
  107,217,253,188,244,214,137,188,12,216,196,188,
  230,115,223,187,119,148,117,188,83,193,152,188,
  205,65,33,186,15,68,147,189,76,139,225,58,
  124,52,15,61,63,203,166,61,11,104,83,189,
  242,20,175,189,246,247,166,61,101,83,189,61,
  187,151,186,188,75,228,27,60,211,81,7,61,
  49,236,86,189,14,183,201,59,1,102,241,188,
  252,16,27,59,208,241,252,188,180,121,242,188,
  192,63,131,189,98,2,90,189,218,252,121,189,
  124,186,220,60,175,242,43,59,148,227,160,189,
  202,0,151,61,221,206,247,60,119,204,167,60,
  165,176,193,189,84,253,180,61,211,162,11,59,
  195,142,133,189,186,5,168,61,120,94,211,188,
  158,46,126,61,98,221,51,189,176,174,174,189,
  254,0,125,61,234,2,172,188,176,15,219,61,
  64,186,76,61,146,69,76,60,29,163,140,189,
  10,29,250,187,90,47,165,61,89,212,221,188,
  84,198,176,60,147,78,189,188,91,113,148,189,
  249,40,172,189,169,217,3,60,253,134,201,61,
  193,24,201,189,201,190,67,189,83,223,92,61,
  213,240,115,61,55,244,202,188,115,226,192,61,
  84,234,71,61,116,57,37,188,209,109,213,187,
  105,162,19,61,42,213,55,188,77,220,130,61,
  165,160,75,189,211,122,144,60,250,42,100,189,
  212,43,216,61,56,122,149,61,39,159,60,61,
  206,0,29,61,30,202,111,189,197,253,26,189,
  68,44,106,61,142,80,76,61,118,206,224,59,
  10,137,52,189,199,207,247,188,48,161,81,61,
  86,160,22,188,198,55,230,60,38,245,28,189,
  168,123,137,189,209,188,19,189,91,115,79,61,
  148,60,183,60,186,245,158,61,233,177,201,58,
  160,201,134,188,188,70,171,189,229,16,100,60,
  250,254,81,189,78,96,141,189,59,48,105,189,
  241,188,89,189,206,234,165,188,104,105,212,60,
  132,93,62,189,7,191,122,59,167,110,164,61,
  252,66,163,61,211,111,71,187,35,206,125,188,
  102,109,93,189,255,152,29,189,147,90,70,187,
  68,172,202,189,81,89,143,61,144,34,219,189,
  155,191,29,189,79,1,146,61,49,137,128,189,
  47,128,175,187,111,110,52,188,48,1,114,189,
  247,22,59,188,191,161,19,59,204,121,167,189,
  251,100,53,61,72,128,7,61,59,180,76,189,
  152,96,22,61,230,3,137,61,78,20,119,60,
  213,95,165,188,145,98,6,61,65,139,124,61,
  192,27,199,187,192,245,63,61,40,105,162,189,
  114,246,53,187,102,55,190,61,182,107,181,189,
  133,51,36,189,51,137,191,61,168,48,84,187,
  120,138,65,61,137,69,185,189,156,179,209,60,
  169,176,153,61,87,83,147,189,224,145,188,60,
  216,56,234,188,184,81,165,189,44,45,235,188,
  239,213,25,61,33,171,173,61,72,107,137,60,
  2,35,167,60,179,188,19,60,14,245,125,61,
  15,2,148,189,190,72,71,189,247,116,145,61,
  217,254,52,60,52,47,61,185,109,14,115,60,
  63,60,175,188,40,118,208,188,48,4,113,188,
  66,59,68,189,96,251,67,61,127,109,138,189,
  162,125,146,60,175,176,106,189,171,85,129,189,
  221,34,151,189,127,168,162,60,19,224,33,61,
  80,32,17,60,174,112,147,60,159,95,142,61,
  172,5,84,189,83,182,213,59,66,155,131,61,
  197,10,101,189,88,160,109,189,187,187,37,189,
  76,152,180,59,225,61,121,60,203,189,74,189,
  71,56,176,61,116,132,28,59,148,61,114,189,
  84,193,143,61,42,229,154,61,73,79,142,61,
  242,67,145,61,38,69,103,189,9,236,131,61,
  17,99,186,60,113,8,199,61,233,73,177,61,
  97,188,20,61,101,240,53,189,200,81,44,187,
  49,34,192,61,40,57,61,61,8,187,137,189,
  76,42,138,61,110,199,106,61,243,23,168,189,
  119,173,152,189,244,172,174,60,167,35,204,61,
  219,250,73,61,77,82,121,61,118,121,137,61,
  213,144,206,61,50,3,51,61,100,193,231,61,
  174,186,13,61,117,212,123,189,127,114,153,189,
  187,179,125,189,165,207,102,61,206,154,90,61,
  67,233,25,189,83,255,154,189,82,85,137,188,
  248,70,148,188,139,76,129,61,237,188,75,60,
  201,113,166,61,86,125,114,60,15,247,134,61,
  200,15,47,189,14,1,143,61,89,103,25,187,
  129,42,148,61,6,145,85,60,178,192,63,189,
  92,144,102,189,212,61,128,61,31,229,201,61,
  224,43,186,188,251,197,143,189,187,32,190,61,
  62,34,229,60,35,84,175,189,232,201,48,61,
  9,126,93,61,170,33,137,60,81,26,184,61,
  10,244,176,59,49,195,176,189,218,12,218,60,
  190,194,120,61,229,32,40,61,95,207,107,58,
  102,44,211,60,63,120,130,61,38,40,209,189,
  62,195,90,187,253,57,189,61,20,86,3,60,
  198,154,181,189,40,248,219,187,162,144,150,61,
  119,16,28,60,148,130,129,189,85,187,62,187,
  29,114,186,61,125,157,204,189,9,253,12,189,
  49,168,103,189,199,18,139,189,123,5,89,61,
  130,103,234,188,109,39,228,189,94,125,128,61,
  27,7,203,189,27,45,87,189,103,39,84,189,
  52,71,171,61,71,182,38,189,24,28,88,189,
  85,34,54,189,35,254,130,61,166,197,69,60,
  116,233,146,189,2,71,217,188,68,135,9,61,
  141,174,162,189,116,239,24,61,95,1,51,188,
  76,50,144,61,52,200,97,60,147,136,21,189,
  207,124,92,61,40,128,124,188,92,98,238,61,
  73,131,25,60,81,142,179,61,159,7,194,60,
  124,108,156,189,51,3,103,60,49,127,115,189,
  110,15,5,189,172,185,74,189,154,33,179,188,
  12,58,250,60,239,229,142,61,157,170,134,60,
  28,199,218,61,145,198,13,188,251,156,25,61,
  108,206,168,189,48,25,179,61,146,137,65,189,
  251,65,89,189,119,90,162,189,64,209,108,61,
  193,169,187,60,220,167,116,61,55,28,63,188,
  0,121,29,60,248,58,161,60,251,179,174,61,
  195,15,178,187,34,136,81,61,75,240,195,188,
  41,219,144,187,29,106,47,61,205,248,109,188,
  110,199,20,61,50,232,149,61,200,22,144,188,
  21,229,164,61,97,162,20,189,153,164,226,188,
  53,112,117,189,146,158,87,189,131,202,122,189,
  48,1,245,59,238,212,201,188,201,7,163,60,
  34,205,155,61,0,18,37,61,45,215,135,61,
  103,254,110,61,146,117,178,189,179,98,146,61,
  202,247,181,61,162,158,187,61,123,190,225,60,
  94,80,132,189,250,147,248,60,82,57,99,189,
  244,56,145,61,204,24,67,61,11,165,145,61,
  87,65,139,61,133,69,19,189,160,239,73,60,
  213,55,150,61,211,104,62,61,20,204,119,61,
  62,66,148,61,131,143,214,189,204,214,140,59,
  97,132,72,188,18,157,219,58,92,200,125,61,
  119,207,181,188,214,3,130,61,14,88,180,189,
  54,251,221,188,37,45,79,60,118,252,156,188,
  15,180,27,60,246,131,138,189,123,129,248,188,
  81,93,162,61,119,39,15,189,216,202,3,61,
  122,244,21,189,103,126,90,61,71,87,92,60,
  133,26,148,61,163,255,14,189,166,26,117,61,
  37,64,139,189,13,95,151,61,255,12,85,61,
  229,206,220,61,43,75,167,60,233,26,3,61,
  73,164,53,188,216,27,113,61,174,36,176,189,
  17,230,46,188,108,128,154,60,240,118,129,189,
  66,13,173,58,51,169,162,59,177,186,144,189,
  216,166,213,61,173,8,30,189,243,146,132,189,
  13,26,20,188,103,178,114,61,200,173,54,59,
  54,177,135,61,87,111,139,189,3,103,139,188,
  206,32,205,60,12,75,61,61,151,138,78,58,
  189,169,137,61,36,203,149,186,189,211,99,60,
  185,11,225,59,128,111,42,188,2,77,140,61,
  7,222,26,189,77,255,26,189,138,21,158,61,
  152,177,218,187,35,52,133,61,81,23,130,186,
  120,173,25,189,22,74,153,188,14,234,89,61,
  223,138,18,60,154,202,227,188,75,13,57,61,
  149,130,189,188,175,50,69,188,120,7,99,61,
  18,240,135,189,221,60,185,189,220,8,94,188,
  253,84,244,188,247,15,92,188,187,125,23,60,
  252,189,139,60,212,197,175,189,178,6,54,61,
  117,106,166,61,61,56,181,61,107,76,4,188,
  10,54,85,61,83,51,222,188,137,48,221,61,
  134,227,39,61,213,197,162,188,65,137,133,61,
  17,108,158,61,95,108,172,189,223,181,217,61,
  95,11,175,188,63,102,250,186,42,156,182,188,
  196,246,128,61,65,81,116,189,41,6,172,61,
  134,31,163,60,106,36,78,59,185,253,116,61,
  93,13,97,189,70,212,110,187,166,65,166,189,
  142,201,124,61,178,61,202,189,83,233,157,189,
  185,49,150,189,174,143,167,188,27,105,216,188,
  11,54,23,61,225,14,175,187,160,156,88,61,
  186,73,38,60,183,252,135,61,95,200,173,189,
  43,17,117,61,85,44,60,189,67,216,108,187,
  179,94,87,189,236,67,177,189,72,89,141,189,
  193,157,79,189,180,200,53,61,175,69,210,59,
  185,195,66,189,220,235,131,61,30,41,195,60,
  50,54,100,61,95,240,82,61,23,22,41,189,
  181,53,190,189,13,107,151,60,77,45,14,61,
  218,17,38,189,220,69,215,187,3,3,39,61,
  63,37,144,188,174,15,235,189,121,123,233,188,
  104,150,100,61,173,164,45,61,60,71,192,188,
  86,180,172,60,7,188,242,58,237,145,130,188,
  206,82,36,60,115,150,35,61,73,237,96,61,
  206,0,183,189,25,193,200,189,252,93,223,60,
  254,26,91,189,141,170,199,189,30,148,127,61,
  173,156,127,189,172,140,150,61,117,237,53,189,
  243,44,98,61,167,70,61,60,42,234,177,188,
  197,82,33,61,154,129,125,61,2,32,17,61,
  225,149,207,189,23,235,42,189,200,55,83,189,
  253,174,255,186,89,140,39,61,55,174,71,61,
  64,39,27,188,103,201,165,189,6,210,152,61,
  131,92,199,188,216,33,181,189,60,58,193,189,
  113,178,194,189,203,134,52,60,58,110,76,61,
  213,44,157,189,66,214,177,189,23,254,55,189,
  128,141,218,188,251,44,150,61,143,242,76,61,
  17,223,131,189,179,106,105,61,87,90,100,189,
  226,160,100,188,128,176,178,189,121,47,82,189,
  178,170,117,61,117,156,195,60,125,152,93,61,
  158,85,2,61,10,10,131,61,65,35,176,60,
  230,57,142,61,9,108,130,61,246,226,149,189,
  123,182,53,189,137,225,122,189,80,97,166,189,
  49,229,209,59,106,6,155,189,246,119,173,61,
  81,157,170,61,109,202,155,189,5,20,185,189,
  47,242,129,61,129,158,119,189,30,105,144,61,
  172,200,8,189,183,90,150,61,119,34,13,61,
  220,8,4,189,238,207,138,61,52,174,221,188,
  120,110,118,189,162,119,129,61,147,255,167,61,
  164,26,9,187,78,226,189,189,19,147,40,186,
  119,144,139,189,0,2,224,188,111,43,99,189,
  166,158,70,189,131,40,133,189,64,170,147,60,
  12,197,24,189,206,122,8,189,110,248,148,61,
  163,205,27,61,226,250,200,189,166,47,72,189,
  177,254,205,189,7,138,177,189,176,27,131,61,
  154,235,132,189,7,119,111,189,253,182,169,61,
  183,65,214,60,22,17,212,187,110,71,85,189,
  90,45,99,61,226,227,175,59,22,197,33,60,
  23,58,90,189,134,189,177,189,213,128,102,188,
  240,115,74,61,49,249,70,188,112,223,41,60,
  216,223,198,189,109,224,31,189,213,118,36,61,
  175,252,153,61,73,249,173,60,116,48,6,188,
  174,17,30,189,253,147,165,189,152,29,214,189,
  44,64,95,189,109,32,198,59,122,169,139,61,
  207,115,25,61,19,116,38,189,6,134,59,189,
  145,208,191,60,133,89,91,189,214,223,40,189,
  135,173,29,187,91,67,58,189,35,179,132,61,
  110,247,130,189,173,110,198,61,153,158,1,188,
  78,93,149,61,72,157,33,61,186,187,136,61,
  243,214,22,61,231,219,193,61,53,120,3,189,
  216,201,173,189,228,237,65,189,206,143,190,189,
  199,61,233,188,102,139,217,188,145,30,204,189,
  29,108,171,189,71,32,88,61,81,67,227,60,
  195,222,132,189,13,202,22,61,255,50,9,188,
  58,31,243,59,222,216,156,189,245,151,139,188,
  217,127,166,61,31,226,152,189,170,232,135,61,
  242,19,99,188,196,106,177,188,215,91,114,189,
  120,180,79,189,29,190,195,61,185,170,60,189,
  243,227,249,187,195,255,137,61,100,253,228,188,
  171,31,172,189,242,35,71,189,62,162,221,189,
  48,213,172,61,219,174,177,189,236,100,183,61,
  112,227,218,187,143,158,147,61,26,35,25,61,
  218,186,4,189,106,141,116,61,32,1,184,188,
  78,236,36,188,4,171,162,189,90,171,102,189,
  68,22,159,61,178,146,130,189,64,80,203,188,
  25,108,181,60,132,203,205,60,130,236,153,189,
  72,80,181,61,138,126,9,61,75,120,174,189,
  134,12,112,61,20,126,136,60,44,37,181,188,
  119,229,98,61,185,245,203,60,150,195,31,187,
  233,21,217,188,136,15,115,60,251,251,181,189,
  124,88,77,189,39,27,192,61,159,137,99,189,
  131,196,69,188,219,23,108,189,4,57,139,189,
  48,156,76,61,186,66,239,58,61,145,232,61,
  179,207,54,60,138,149,105,189,190,96,25,189,
  150,118,184,61,34,143,7,189,195,238,177,61,
  191,88,194,188,229,159,204,61,122,125,164,61,
  244,38,149,60,15,151,144,59,229,205,202,188,
  201,77,30,185,139,241,134,189,11,193,144,61,
  139,5,180,60,228,40,90,61,113,34,13,61,
  240,11,149,188,88,38,186,188,105,51,235,188,
  218,89,167,61,109,117,63,61,48,84,149,61,
  203,219,7,189,231,60,158,61,17,0,214,59,
  234,170,108,61,250,72,106,189,224,33,62,61,
  172,13,96,60,231,199,201,188,49,110,216,60,
  207,183,171,61,155,74,125,189,235,44,223,61,
  102,62,22,61,87,14,12,188,128,158,170,188,
  213,115,40,189,192,221,67,189,116,164,102,189,
  4,167,205,189,95,3,9,61,1,198,141,60,
  40,151,65,189,54,155,58,189,7,58,105,59,
  241,52,143,188,160,59,41,60,249,76,230,60,
  105,102,13,187,57,24,58,189,40,18,53,61,
  27,33,140,61,16,1,133,187,75,118,103,61,
  176,122,56,189,209,55,185,189,204,204,216,60,
  64,29,243,60,25,225,108,59,159,13,157,189,
  244,137,187,189,239,50,130,189,156,164,87,189,
  48,50,233,189,229,142,115,189,215,191,166,189,
  29,104,252,188,27,195,148,61,107,174,19,61,
  46,94,139,61,142,236,2,189,44,136,152,61,
  99,54,46,189,169,96,36,61,226,72,127,189,
  230,39,112,61,133,41,162,189,26,80,204,60,
  3,49,102,60,65,51,153,189,169,38,162,60,
  39,107,143,61,215,160,84,189,8,207,227,187,
  20,2,197,189,222,210,181,189,200,170,76,61,
  228,199,164,61,231,149,183,60,62,225,198,61,
  211,148,83,61,11,91,176,186,52,45,150,189,
  53,180,106,61,128,4,77,60,169,135,28,61,
  96,250,194,187,124,176,107,189,220,148,148,61,
  114,163,10,61,147,174,17,61,187,17,128,61,
  138,203,109,189,41,109,168,61,28,185,142,61,
  223,82,207,61,50,178,101,61,210,194,151,189,
  36,69,202,189,76,224,65,61,47,62,110,188,
  122,138,140,61,2,251,117,61,62,177,135,189,
  96,174,63,189,9,133,97,189,107,184,60,61,
  146,205,171,188,124,40,185,189,60,188,60,189,
  219,143,159,60,198,90,180,61,19,2,153,189,
  146,69,128,189,222,216,82,61,81,217,146,61,
  116,233,121,189,111,104,249,60,159,16,31,61,
  169,179,28,189,238,163,112,61,173,27,89,61,
  245,225,184,61,29,26,136,61,2,97,252,59,
  157,166,47,189,42,166,123,189,15,40,115,189,
  117,49,135,188,58,185,151,61,35,189,173,61,
  151,45,3,189,78,191,230,59,36,184,124,60,
  225,63,147,61,252,20,36,189,136,100,90,60,
  154,22,172,188,100,125,6,189,12,102,65,61,
  143,192,212,186,209,92,26,60,113,42,15,61,
  119,8,132,189,214,250,170,189,148,72,150,61,
  210,110,98,188,114,94,39,189,206,111,204,61,
  146,3,158,188,96,31,165,187,38,114,87,189,
  243,72,246,188,118,44,170,61,212,94,130,61,
  94,194,141,189,224,244,136,186,44,129,170,188,
  21,60,187,61,132,143,61,188,66,108,150,61,
  138,104,209,59,215,202,148,189,206,110,148,61,
  79,67,216,60,140,176,128,189,9,70,140,188,
  69,118,174,189,100,197,45,61,223,234,174,188,
  109,111,212,61,147,191,76,187,74,14,212,61,
  30,144,78,61,105,97,240,187,113,127,134,61,
  170,138,178,61,173,37,226,188,172,228,169,61,
  166,217,176,189,18,145,96,188,176,104,165,188,
  90,144,229,188,113,231,169,61,155,80,47,189,
  21,167,201,61,244,40,37,60,101,149,229,59,
  49,144,149,189,44,194,215,188,218,59,220,60,
  65,94,156,61,237,17,168,187,231,237,22,60,
  107,167,189,59,12,124,190,188,129,176,157,188,
  202,190,130,189,87,59,48,188,104,33,211,61,
  28,222,79,60,5,66,28,60,238,48,206,59,
  220,174,239,61,221,254,73,188,202,139,173,61,
  152,160,220,188,140,214,6,61,117,89,3,61,
  124,214,223,61,121,118,54,61,90,118,220,59,
  203,148,161,59,79,229,183,189,32,152,40,188,
  58,92,142,61,91,41,159,59,180,241,96,61,
  21,41,185,61,161,24,147,189,181,121,194,61,
  48,48,199,61,213,157,39,61,165,47,193,61,
  204,252,93,61,242,183,223,188,115,62,165,189,
  89,140,137,189,208,252,133,61,15,38,182,188,
  96,105,107,61,35,207,71,189,57,94,7,61,
  95,254,171,188,19,46,106,61,229,36,92,60,
  239,229,197,61,221,191,132,189,220,119,6,189,
  127,162,120,188,183,125,179,189,2,48,236,58,
  98,169,208,61,53,165,137,61,21,183,161,61,
  49,225,145,61,49,164,36,61,169,94,38,189,
  252,182,194,59,17,20,101,189,137,72,112,61,
  1,109,180,61,88,53,131,59,161,180,101,189,
  8,0,168,61,69,32,80,189,217,17,110,60,
  217,74,65,61,127,63,189,189,195,153,61,189,
  223,250,133,61,166,185,127,61,162,207,30,59,
  205,12,220,61,123,69,200,189,123,214,105,61,
  219,129,206,60,71,145,156,189,221,152,11,189,
  67,94,140,61,49,138,135,61,230,62,130,59,
  234,227,218,60,20,83,189,60,181,224,105,61,
  254,197,235,188,0,165,137,60,94,51,15,189,
  251,38,44,60,19,236,46,61,119,141,82,189,
  42,9,42,187,166,10,153,61,163,178,95,60,
  130,142,209,189,95,185,78,189,216,227,116,189,
  87,109,64,189,118,171,88,60,190,93,69,187,
  71,59,167,188,219,231,148,61,247,212,13,61,
  145,181,220,61,132,10,13,189,198,89,76,189,
  89,105,101,60,140,7,72,188,51,215,86,61,
  75,70,240,60,250,61,106,189,37,120,149,187,
  173,70,120,61,20,221,164,189,23,87,10,188,
  41,7,48,61,209,215,106,61,151,112,112,61,
  175,82,179,189,72,72,160,61,224,53,177,189,
  32,221,134,61,203,3,197,189,182,16,16,61,
  201,39,125,61,219,43,170,61,169,204,130,189,
  54,253,98,61,201,137,231,188,64,89,108,188,
  168,187,20,61,177,186,101,189,56,78,212,188,
  237,92,169,189,180,247,171,189,48,237,42,189,
  139,170,48,59,63,68,109,61,16,198,172,188,
  92,154,188,61,191,216,231,188,117,223,85,61,
  192,24,149,189,55,199,129,60,22,84,245,57,
  169,146,41,61,190,129,104,61,202,248,85,61,
  172,85,171,189,104,97,198,189,128,18,112,61,
  239,234,139,188,248,140,251,60,42,203,214,187,
  139,157,140,187,209,195,198,189,81,90,131,189,
  61,161,132,189,110,47,196,60,249,200,225,188,
  150,103,230,188,192,166,88,189,150,234,25,189,
  243,201,48,189,158,54,90,187,181,226,130,189,
  185,32,107,187,62,187,249,60,203,198,167,61,
  80,151,103,188,125,122,211,60,103,167,175,61,
  74,38,126,61,106,20,161,188,239,98,71,60,
  45,145,115,61,148,49,143,60,110,89,255,188,
  70,67,40,189,109,48,102,189,8,248,5,60,
  39,206,178,189,103,174,185,61,202,154,221,60,
  36,95,9,189,215,196,150,61,121,80,167,61,
  61,190,176,189,184,43,38,189,141,156,155,189,
  209,153,191,189,81,200,187,189,28,41,114,189,
  110,14,203,60,190,53,140,61,4,187,241,60,
  18,101,112,189,179,10,8,60,38,48,110,189,
  199,141,102,188,31,182,57,189,54,110,61,59,
  236,21,119,61,105,181,146,61,7,11,72,189,
  109,21,33,189,133,7,208,61,143,55,114,189,
  239,60,205,189,1,4,154,60,173,31,133,61,
  148,87,158,189,166,215,194,61,15,144,110,189,
  215,0,156,189,98,70,52,60,146,84,53,61,
  124,108,156,61,157,66,89,189,246,30,24,188,
  198,194,155,61,78,44,177,189,194,18,178,61,
  80,126,153,189,133,64,164,188,89,94,153,61,
  73,57,200,188,159,184,169,61,137,239,160,189,
  229,73,116,61,59,112,116,60,210,106,50,189,
  222,149,127,189,126,6,174,189,102,229,132,189,
  215,243,85,61,178,137,157,61,133,204,109,189,
  33,41,55,189,253,11,156,61,188,226,18,61,
  112,142,68,61,56,166,47,61,225,49,159,189,
  85,116,69,188,209,79,52,59,168,68,239,188,
  194,93,198,189,217,16,168,61,114,43,83,61,
  228,128,146,189,156,88,203,189,255,155,63,189,
  92,49,39,60,221,156,88,188,7,180,108,61,
  125,107,48,59,66,2,97,61,194,24,184,189,
  221,143,145,188,194,201,167,61,146,126,17,61,
  181,189,44,61,13,157,115,189,119,226,100,189,
  61,113,157,60,25,169,58,61,12,10,192,59,
  170,28,121,188,112,215,190,189,190,29,120,61,
  185,19,133,189,14,229,140,189,89,179,218,189,
  56,172,138,189,161,92,89,61,29,205,192,188,
  104,177,155,60,230,73,35,189,202,22,208,188,
  219,167,14,61,179,180,170,61,242,174,19,188,
  67,131,161,60,117,110,135,61,7,71,128,61,
  165,140,60,61,5,229,107,189,187,112,54,189,
  225,154,167,61,129,250,171,61,221,67,29,60,
  65,52,162,189,130,8,4,189,173,138,0,189,
  111,17,197,188,52,228,121,61,105,220,231,188,
  63,4,43,61,81,207,169,61,67,67,66,60,
  242,186,190,189,219,101,161,61,208,151,106,60,
  235,59,30,189,121,176,114,61,64,131,233,59,
  143,156,111,60,157,221,49,189,147,247,116,59,
  220,142,202,189,243,108,209,57,170,156,188,187,
  241,246,84,187,136,143,18,189,50,215,128,189,
  130,222,108,61,221,90,214,60,134,79,174,61,
  125,123,178,189,127,210,197,61,127,53,159,61,
  198,177,77,61,163,145,47,189,139,147,55,189,
  79,92,33,59,45,125,47,61,21,95,150,61,
  219,59,183,189,46,61,89,189,188,42,104,61,
  126,35,233,188,157,87,74,61,222,36,252,60,
  218,96,168,61,109,230,247,188,183,75,114,189,
  222,91,20,59,40,98,22,189,251,251,61,189,
  5,59,252,60,162,45,27,189,140,142,28,188,
  86,134,133,186,85,66,116,61,117,163,188,60,
  138,179,154,189,144,78,138,61,229,194,204,60,
  111,82,215,189,155,94,151,189,142,167,33,61,
  27,82,78,189,149,54,33,189,75,238,162,61,
  5,193,206,60,28,118,76,189,221,223,55,189,
  238,60,114,189,217,122,140,60,229,101,131,189,
  48,235,180,59,183,231,158,187,133,145,10,61,
  76,28,113,61,149,168,11,189,125,244,113,61,
  86,96,211,189,240,161,172,187,108,26,131,61,
  81,167,6,187,249,136,208,188,115,192,237,188,
  196,105,180,60,77,9,158,189,138,87,130,60,
  96,98,26,189,226,255,194,189,195,95,219,61,
  231,39,162,189,29,183,159,189,19,158,183,189,
  16,71,174,189,255,244,109,61,198,150,78,60,
  17,248,117,188,55,201,177,60,154,189,220,60,
  148,115,165,189,160,41,46,61,162,232,185,188,
  22,188,157,189,17,214,178,61,9,196,131,189,
  197,135,16,189,82,189,171,61,143,28,78,61,
  59,17,177,188,10,223,50,188,247,37,85,61,
  150,251,21,188,31,253,56,61,14,127,198,61,
  65,27,176,189,209,26,89,187,122,96,185,189,
  123,105,153,60,37,235,104,61,130,59,92,189,
  220,19,89,61,245,27,253,60,164,226,98,188,
  186,29,133,61,194,68,44,61,208,145,197,61,
  88,216,150,189,227,241,42,60,68,230,201,189,
  88,182,158,189,197,254,254,60,98,133,30,61,
  124,241,238,59,241,51,107,61,245,160,202,189,
  82,4,128,61,231,227,165,189,24,226,222,61,
  166,109,155,61,42,129,100,189,200,236,189,189,
  97,77,175,186,7,90,16,61,119,217,185,188,
  140,194,189,184,144,22,6,188,234,88,69,61,
  82,193,162,189,129,225,147,189,122,116,229,61,
  250,25,150,60,81,243,42,189,131,0,144,189,
  50,169,107,61,113,71,26,61,85,209,102,61,
  92,115,232,60,18,192,222,188,171,40,216,59,
  237,198,89,189,253,191,43,189,169,4,44,60,
  27,46,113,61,168,116,11,189,182,187,188,189,
  236,107,238,59,88,95,176,61,170,150,116,61,
  150,36,127,187,91,253,74,189,127,186,106,189,
  64,154,90,189,10,118,119,60,99,54,209,61,
  68,231,184,189,244,33,202,188,55,180,145,61,
  183,108,19,61,174,89,55,61,127,16,129,189,
  69,236,86,189,166,99,144,189,21,98,246,188,
  175,39,74,61,31,241,183,189,179,134,104,189,
  82,178,45,188,222,236,47,187,150,207,170,60,
  175,255,9,61,18,116,139,189,165,19,235,59,
  56,51,211,60,229,40,148,60,144,44,230,60,
  45,98,131,61,107,133,65,61,83,16,49,58,
  246,32,188,188,108,56,99,189,173,246,159,189,
  222,40,102,189,34,67,142,61,251,150,245,60,
  244,197,182,59,220,169,26,60,33,34,209,188,
  27,245,105,61,155,31,163,188,86,66,228,60,
  186,122,67,188,139,236,147,61,237,210,97,60,
  226,213,49,60,174,73,129,58,250,91,132,189,
  140,91,5,189,121,92,63,189,30,69,179,189,
  229,168,208,61,193,82,67,188,170,49,214,60,
  175,109,58,189,170,1,59,61,128,231,47,61,
  217,124,242,59,83,122,132,189,204,0,163,61,
  203,110,155,61,192,1,52,189,56,194,121,60,
  247,76,226,60,231,166,52,189,114,196,219,61,
  119,0,234,58,131,87,172,189,251,29,143,189,
  249,60,71,61,137,123,6,189,4,242,181,189,
  139,243,16,189,222,161,88,61,176,165,56,189,
  146,46,28,189,110,233,158,189,128,29,100,189,
  144,229,134,188,16,5,158,61,164,9,134,61,
  56,40,172,187,43,173,82,188,122,192,63,189,
  160,76,187,189,226,127,16,61,206,169,76,188,
  79,111,121,61,75,162,136,61,14,154,84,60,
  123,242,160,61,118,207,132,61,180,238,122,189,
  68,100,88,189,120,251,112,60,253,144,187,188,
  122,242,164,189,216,167,204,188,91,177,223,61,
  193,150,174,60,198,204,166,189,131,90,153,189,
  23,135,145,61,231,223,45,61,154,226,20,189,
  118,38,172,189,198,198,162,187,6,130,107,187,
  24,208,104,58,99,110,167,189,182,234,144,189,
  154,57,178,189,181,50,81,61,88,125,233,60,
  89,94,162,61,78,162,147,61,105,247,194,60,
  230,228,137,61,107,21,209,189,114,38,127,187,
  109,190,205,189,253,57,151,189,56,60,178,61,
  29,135,107,61,170,164,220,189,86,9,23,188,
  37,95,132,61,240,3,230,60,168,158,84,186,
  120,62,224,188,72,45,130,189,175,28,8,61,
  159,64,216,189,179,221,159,189,132,231,246,188,
  223,160,218,189,33,94,216,189,241,83,175,60,
  116,248,62,189,240,146,101,61,184,133,129,189,
  10,103,224,187,179,47,57,189,3,141,164,189,
  118,238,133,61,84,192,64,61,44,200,136,60,
  39,254,227,188,58,120,167,60,94,4,143,61,
  181,192,115,188,31,185,134,61,111,87,109,60,
  163,22,157,61,67,51,2,61,215,225,26,60,
  202,74,40,59,192,171,171,61,79,79,182,188,
  78,120,28,189,158,94,172,60,166,204,183,187,
  228,126,246,60,234,251,7,189,91,217,70,61,
  206,209,1,189,10,190,175,189,59,206,131,60,
  175,164,190,189,50,61,151,61,20,241,166,189,
  125,0,21,189,200,10,156,60,94,252,211,189,
  155,61,55,61,106,228,152,61,163,185,70,61,
  97,162,23,61,109,85,4,189,198,183,185,189,
  227,48,206,188,22,33,181,188,149,207,52,61,
  118,172,164,189,208,187,125,61,158,232,173,189,
  67,88,158,60,141,73,228,60,248,85,126,61,
  127,216,240,188,37,50,107,61,11,210,102,189,
  218,18,203,188,159,116,179,60,84,189,170,188,
  20,224,130,61,45,29,68,189,129,123,102,188,
  172,225,175,189,174,99,128,61,86,88,161,188,
  178,192,24,189,104,154,34,61,65,46,198,61,
  79,205,166,189,180,54,189,189,211,139,69,189,
  132,230,193,189,152,87,128,61,116,154,171,61,
  68,149,194,189,19,234,131,189,175,203,86,61,
  103,23,93,189,129,131,100,61,184,60,131,189,
  31,168,96,185,145,66,193,189,99,202,112,61,
  215,206,5,60,119,38,216,188,177,167,210,61,
  158,222,172,189,78,105,11,188,43,204,211,187,
  191,29,185,189,47,111,139,61,196,27,20,59,
  108,211,158,187,199,62,197,61,47,12,121,60,
  126,207,156,60,104,94,38,188,89,83,180,58,
  159,221,14,189,72,235,122,189,55,191,153,189,
  10,20,85,60,250,125,172,60,26,165,168,189,
  38,187,107,60,253,80,27,61,187,13,26,61,
  185,201,105,189,226,128,193,188,91,60,203,60,
  47,116,13,189,221,44,189,187,238,4,50,61,
  100,96,3,61,24,85,121,189,52,177,191,61,
  215,143,172,188,23,108,122,189,69,191,66,61,
  184,42,8,61,220,59,210,61,50,168,203,60,
  176,10,146,61,243,249,156,189,210,134,116,188,
  30,17,192,61,237,148,51,61,212,209,217,61,
  237,180,48,188,182,253,164,189,99,18,156,188,
  112,100,226,58,164,90,159,189,31,150,25,61,
  0,216,141,189,228,100,12,61,226,102,190,189,
  215,101,142,189,183,147,148,61,138,12,71,189,
  148,94,99,60,152,206,180,188,183,157,159,61,
  70,134,234,188,210,205,220,61,79,252,16,187,
  55,0,87,189,138,169,13,187,36,125,86,60,
  167,17,143,61,245,154,152,61,209,14,143,59,
  10,34,208,189,165,26,13,189,231,214,151,61,
  61,222,132,189,63,145,220,60,148,186,234,188,
  42,117,219,189,107,241,249,187,56,47,80,189,
  253,116,131,59,15,170,57,61,149,188,90,187,
  170,175,232,189,144,113,39,189,105,88,160,189,
  254,92,16,188,174,128,10,61,109,84,9,189,
  160,210,91,188,176,151,195,61,236,147,193,189,
  33,240,87,60,125,123,252,60,162,171,232,60,
  196,87,229,60,11,219,33,61,138,133,204,189,
  19,19,25,189,65,71,93,61,7,217,137,188,
  107,43,59,61,20,142,155,189,107,205,159,189,
  25,72,65,189,124,27,90,189,170,221,157,61,
  112,30,21,189,25,124,125,61,111,14,172,189,
  174,25,76,189,185,142,101,188,14,247,173,60,
  232,70,159,61,170,130,125,189,56,49,194,188,
  220,192,141,188,252,6,41,189,10,106,144,61,
  78,200,33,189,56,185,102,186,229,164,166,61,
  130,186,229,60,33,113,167,187,143,81,9,61,
  198,21,136,61,136,54,8,60,157,51,155,188,
  58,138,155,189,227,34,44,61,173,131,81,189,
  0,57,140,189,178,130,192,189,149,162,105,61,
  218,126,219,59,33,104,84,61,39,70,159,189,
  0,99,24,61,177,235,27,60,15,31,141,61,
  4,27,131,188,13,74,57,189,170,244,184,60,
  50,8,27,189,137,32,179,189,4,57,45,61,
  7,131,137,189,2,12,34,61,196,57,110,61,
  228,106,110,61,88,145,48,60,91,44,255,188,
  255,102,142,61,91,228,138,60,211,121,33,61,
  57,108,173,59,162,56,230,187,11,124,64,189,
  233,209,103,61,1,64,238,61,192,113,244,188,
  90,126,182,61,25,207,147,189,105,182,19,189,
  239,121,194,59,48,126,65,187,162,111,179,188,
  159,126,254,60,162,32,158,59,130,130,79,189,
  61,231,178,61,131,32,162,59,72,248,160,189,
  55,187,58,188,132,240,143,189,176,74,64,188,
  20,183,89,60,6,65,163,61,184,132,112,187,
  117,40,169,61,40,127,156,60,15,39,209,61,
  104,42,77,61,104,49,145,187,5,25,238,188,
  179,245,84,189,238,24,144,189,250,57,47,189,
  191,136,26,189,22,233,171,61,68,57,76,61,
  218,82,219,61,139,69,95,189,151,136,137,61,
  219,111,77,61,83,255,34,61,100,44,209,61,
  229,255,43,61,209,3,168,189,255,112,112,189,
  196,139,49,189,221,209,30,189,179,145,160,189,
  70,204,92,189,252,5,77,60,172,238,65,61,
  61,207,125,60,198,85,142,60,24,188,163,188,
  178,208,117,188,46,139,164,61,15,49,179,61,
  78,150,140,61,41,149,152,189,107,50,136,61,
  208,187,89,189,7,71,132,61,89,10,117,60,
  57,143,145,189,91,118,36,188,180,194,82,189,
  213,34,141,188,200,235,119,189,22,46,161,188,
  227,223,221,189,68,23,118,188,222,234,6,61,
  201,167,76,187,200,145,158,189,215,162,15,188,
  228,61,203,189,143,192,190,61,138,71,210,60,
  48,22,60,189,53,19,50,61,6,4,45,189,
  128,250,111,61,234,193,116,188,138,246,155,60,
  94,121,143,186,62,51,198,189,30,52,36,189,
  251,94,240,188,48,119,185,61,243,68,191,61,
  131,249,134,189,60,167,160,189,85,132,139,189,
  40,230,134,61,64,225,16,60,205,6,167,61,
  136,67,139,61,91,137,6,189,253,105,118,189,
  30,30,82,61,165,77,91,189,13,139,169,61,
  136,184,156,61,204,215,189,189,68,19,26,189,
  134,63,92,189,60,44,166,189,59,26,31,60,
  237,58,51,61,254,58,117,189,152,87,191,61,
  96,37,13,61,34,163,87,61,171,3,103,188,
  147,172,102,187,105,203,162,60,42,244,80,188,
  60,0,173,189,238,236,174,58,56,36,60,189,
  80,212,146,189,182,228,32,61,102,22,18,61,
  12,15,146,189,198,201,159,189,31,229,132,188,
  255,157,137,61,238,94,39,189,209,164,171,61,
  157,193,193,188,204,129,74,60,125,253,179,188,
  181,254,33,60,3,246,167,189,73,232,119,61,
  90,152,157,185,147,158,148,189,200,176,166,60,
  36,197,66,189,32,65,95,61,164,15,208,61,
  81,195,182,189,187,69,172,189,169,123,98,188,
  27,144,222,60,28,35,149,189,89,151,10,189,
  222,87,150,61,50,246,11,189,12,215,143,61,
  91,207,143,188,157,122,103,188,234,27,18,61,
  47,251,203,189,15,232,9,189,133,249,8,189,
  72,38,52,188,77,232,0,189,129,86,91,61,
  69,179,200,189,68,123,141,61,91,234,225,60,
  39,70,38,61,221,212,39,61,67,148,89,189,
  221,209,76,61,241,161,219,58,250,50,116,187,
  163,199,55,188,58,66,41,61,8,171,4,60,
  230,153,165,61,199,66,106,189,219,71,39,61,
  129,161,249,188,134,1,49,189,122,243,158,189,
  191,248,88,59,147,183,42,61,9,172,76,189,
  191,182,130,189,145,19,223,188,236,198,204,61,
  143,229,112,60,131,200,215,60,224,75,76,61,
  177,60,135,61,133,114,113,189,132,197,99,189,
  235,5,121,189,175,72,125,188,239,147,60,60,
  67,49,180,60,202,92,176,60,25,208,255,59,
  234,79,182,189,197,218,119,61,40,193,106,189,
  11,82,169,189,77,37,244,59,249,112,152,61,
  144,102,24,61,212,238,169,189,120,38,142,189,
  144,87,244,59,161,162,172,60,174,140,88,61,
  29,82,147,189,86,236,147,188,46,246,25,188,
  38,173,121,61,126,246,194,188,51,190,56,189,
  12,31,241,60,94,132,165,189,19,209,178,189,
  227,251,133,189,55,149,98,189,24,100,22,189,
  179,66,135,188,83,36,89,61,210,58,90,61,
  220,184,158,188,233,24,212,59,177,194,149,189,
  252,129,165,189,13,131,12,61,229,244,26,189,
  192,94,170,61,21,213,106,61,56,226,192,189,
  234,7,119,61,79,114,134,189,9,129,150,59,
  131,24,198,61,155,151,109,61,200,255,66,188,
  135,61,165,189,218,104,94,61,64,13,201,60,
  2,105,215,187,68,195,137,61,50,147,79,60,
  233,246,107,189,133,101,137,188,2,94,240,60,
  50,75,205,188,160,178,231,61,103,13,165,185,
  102,134,41,60,228,224,56,189,89,137,202,188,
  120,89,112,189,3,167,46,61,0,130,76,189,
  84,115,202,61,190,12,68,61,230,65,223,59,
  127,167,58,188,25,158,125,187,101,123,249,60,
  119,81,71,61,31,55,175,59,49,102,59,57,
  156,250,53,60,134,85,202,61,16,129,175,61,
  219,219,149,60,28,216,69,189,88,179,5,61,
  237,123,159,189,118,210,89,188,194,206,216,188,
  52,91,55,61,10,54,149,61,33,140,108,61,
  223,231,184,61,82,172,200,59,109,216,179,60,
  22,128,25,61,45,167,37,189,251,124,255,188,
  183,90,174,189,229,137,153,189,6,175,18,189,
  180,237,74,61,167,138,137,188,113,254,185,61,
  195,182,171,189,56,103,169,189,196,211,89,189,
  10,224,193,61,23,0,144,61,69,231,228,61,
  110,109,239,185,43,250,118,61,235,22,143,189,
  89,238,185,189,244,231,31,60,199,221,158,61,
  229,62,85,189,101,94,210,189,78,221,7,61,
  124,201,187,189,6,151,68,60,199,191,168,188,
  28,172,158,60,239,8,129,189,13,185,217,61,
  130,46,236,189,37,167,159,61,122,176,180,60,
  219,223,4,189,57,10,195,189,158,21,181,58,
  113,254,182,60,227,25,157,59,191,168,156,188,
  176,135,149,189,99,65,168,61,45,127,185,61,
  167,27,108,61,20,252,15,188,82,73,91,60,
  82,112,33,189,248,113,101,189,112,210,166,189,
  3,244,143,189,232,46,158,189,125,128,29,61,
  50,254,24,61,208,243,27,189,236,247,169,58,
  69,167,252,188,62,235,244,60,63,76,140,188,
  201,184,154,61,171,155,122,189,112,77,55,189,
  141,60,212,187,45,111,24,59,7,171,37,189,
  8,155,92,189,6,115,204,188,75,3,149,188,
  216,244,52,60,164,225,181,61,150,65,137,61,
  77,217,142,61,0,13,66,189,254,23,143,61,
  53,176,150,189,142,6,38,60,63,87,128,189,
  139,209,75,186,214,71,111,61,184,119,18,189,
  144,220,203,189,213,29,34,61,71,255,206,188,
  157,204,36,61,122,250,202,60,73,59,64,61,
  125,40,82,61,221,50,215,60,64,9,160,61,
  121,203,184,189,188,253,164,61,180,17,152,61,
  195,197,149,61,163,130,131,186,186,93,218,189,
  37,103,136,61,198,36,116,188,65,165,139,189,
  74,101,8,60,76,223,240,60,115,126,12,189,
  223,156,134,61,193,14,129,189,119,252,196,189,
  65,121,216,60,73,46,35,189,110,129,162,61,
  183,41,191,188,93,23,217,61,5,105,23,189,
  85,96,226,60,213,19,28,189,118,107,131,60,
  114,132,20,188,41,149,22,188,245,118,247,188,
  31,39,38,188,162,155,137,188,22,88,171,61,
  88,241,193,60,159,64,141,61,75,255,17,189,
  103,87,55,61,122,98,115,61,137,234,137,61,
  138,232,183,189,163,150,218,188,99,36,28,61,
  254,26,32,189,59,212,4,189,87,100,147,61,
  114,40,139,189,126,82,14,189,60,208,130,61,
  255,78,28,189,194,151,218,59,189,129,148,188,
  95,142,14,189,98,99,255,188,89,111,164,189,
  164,152,62,189,211,13,175,189,76,100,88,189,
  142,130,191,60,170,51,77,189,249,103,187,187,
  170,6,234,188,57,129,84,188,144,215,74,189,
  181,220,129,189,69,35,132,61,108,32,35,188,
  173,165,86,61,163,140,89,187,158,212,145,189,
  190,177,45,189,22,208,187,188,76,208,87,189,
  116,18,199,188,233,174,138,189,19,235,17,61,
  192,81,215,189,169,75,161,61,114,3,130,61,
  61,70,155,189,198,151,94,189,186,0,158,61,
  84,83,177,60,229,220,28,61,131,10,19,61,
  2,221,129,57,15,28,150,187,128,234,168,188,
  21,3,54,61,218,52,49,189,218,15,5,60,
  90,44,110,61,213,73,155,188,46,9,118,188,
  162,13,201,60,88,89,174,61,143,233,75,188,
  78,52,143,60,83,26,175,188,48,156,151,61,
  157,176,191,189,24,36,59,189,244,185,22,61,
  9,168,237,60,39,170,243,59,194,186,55,188,
  48,210,17,189,234,36,251,188,246,139,46,189,
  53,219,164,189,128,166,160,189,248,61,128,61,
  155,84,168,61,70,92,135,189,72,187,182,189,
  228,147,131,187,161,161,109,188,204,181,138,61,
  49,15,10,189,46,231,244,60,224,152,238,59,
  3,222,179,189,177,251,168,61,138,225,87,61,
  123,205,192,60,253,248,126,61,141,167,31,61,
  2,66,161,189,4,16,145,60,204,179,4,61,
  241,107,109,189,99,63,182,60,119,171,151,189,
  147,55,47,188,73,34,196,61,96,115,53,59,
  243,138,66,61,191,59,168,189,21,71,33,189,
  171,26,167,189,12,158,234,61,213,68,145,188,
  22,82,97,61,122,16,166,61,95,151,18,189,
  26,24,6,188,228,134,117,61,128,1,148,61,
  121,122,107,61,76,74,182,61,253,18,197,60,
  155,58,141,189,200,99,194,61,66,93,1,61,
  155,88,39,187,233,187,155,189,181,53,170,60,
  217,38,72,61,245,250,138,189,215,100,133,60,
  244,181,203,189,62,170,133,61,169,190,128,189,
  152,83,54,189,143,38,33,61,146,191,200,60,
  79,109,148,189,241,135,23,61,162,125,156,61,
  183,243,162,61,43,237,106,61,41,197,202,188,
  206,119,149,188,127,184,242,59,97,146,12,61,
  243,94,173,188,226,228,141,189,192,106,133,186,
  148,173,248,188,230,152,18,61,134,97,37,61,
  205,246,70,61,220,204,219,61,244,65,203,187,
  33,133,94,61,106,41,67,61,220,217,69,188,
  109,115,131,59,221,103,75,61,201,9,175,186,
  53,123,34,189,142,1,177,60,126,215,40,61,
  64,18,161,189,55,99,231,61,207,178,132,61,
  52,101,220,60,167,108,154,188,67,110,155,189,
  147,181,231,186,73,127,9,187,143,128,171,187,
  126,79,25,61,183,28,194,60,171,89,78,189,
  103,68,114,61,39,199,216,60,81,211,189,189,
  220,0,142,61,21,2,139,61,248,13,151,61,
  27,17,162,61,41,106,47,61,223,11,178,188,
  98,185,16,189,83,192,56,61,193,169,101,60,
  32,6,116,189,240,61,67,189,244,84,20,61,
  127,81,190,60,78,188,219,189,4,37,171,61,
  27,5,79,61,236,228,177,58,183,65,5,189,
  224,124,106,61,64,145,99,188,12,107,181,61,
  214,60,69,60,111,1,196,61,129,128,135,189,
  37,216,55,189,164,85,56,189,24,117,74,61,
  0,121,180,189,40,133,240,61,214,241,158,189,
  238,208,128,61,230,245,146,61,194,115,224,188,
  40,29,35,189,230,173,241,61,145,239,183,61,
  102,169,133,61,163,203,242,187,42,69,219,61,
  23,76,70,61,151,109,74,188,189,53,80,188,
  207,67,57,61,42,36,63,61,169,103,93,60,
  53,10,127,61,90,206,120,189,118,226,37,60,
  75,160,244,60,60,15,0,188,56,159,112,60,
  158,73,218,60,205,95,250,59,36,23,137,61,
  109,99,27,61,142,71,45,189,134,148,143,188,
  34,143,57,188,123,255,159,61,253,88,144,61,
  68,219,62,60,115,16,136,61,177,90,60,61,
  102,13,56,188,232,117,54,189,159,49,103,189,
  168,8,133,188,40,25,185,189,226,197,55,189,
  149,130,155,189,58,254,147,61,207,22,118,189,
  88,47,149,61,0,77,178,188,223,111,195,188,
  189,152,128,61,107,11,230,61,35,177,200,61,
  26,125,186,61,19,180,165,61,253,213,57,60,
  173,163,241,58,221,233,173,60,42,51,140,186,
  106,51,162,188,55,166,15,61,243,233,50,60,
  15,39,207,189,208,186,119,189,92,129,60,59,
  160,231,173,61,68,167,176,61,133,24,148,61,
  234,11,220,189,166,230,41,189,187,84,110,61,
  32,54,19,189,132,66,7,189,119,7,33,61,
  68,131,199,59,231,166,101,60,187,114,203,61,
  211,189,86,189,49,102,120,189,84,229,185,58,
  246,139,36,189,84,28,224,61,31,146,187,189,
  126,243,46,188,149,149,149,61,164,56,91,61,
  136,22,229,189,223,29,121,60,155,79,39,61,
  219,125,177,59,169,138,96,189,57,176,144,61,
  31,177,22,189,223,198,213,61,219,168,189,189,
  73,57,170,61,28,56,121,189,37,93,34,61,
  68,43,86,189,139,174,164,61,254,157,80,61,
  169,76,79,189,108,160,78,61,239,50,146,60,
  235,200,102,189,110,233,137,187,237,161,143,61,
  24,105,19,60,62,69,25,189,141,224,142,189,
  198,8,189,189,186,80,219,61,14,224,140,189,
  142,108,224,61,99,163,128,189,79,71,220,188,
  202,194,138,61,207,33,221,61,137,119,137,189,
  12,173,165,61,31,158,29,61,157,231,191,61,
  153,210,14,189,219,210,217,60,43,164,218,188,
  26,35,177,189,136,178,158,60,144,225,70,61,
  167,184,229,60,147,246,148,189,240,71,50,189,
  229,82,129,189,174,51,117,189,82,230,93,189,
  120,184,61,187,69,187,110,58,53,75,167,61,
  185,150,90,60,12,251,43,189,105,211,81,189,
  35,208,134,188,18,123,190,188,92,40,108,61,
  68,14,161,61,138,155,220,60,92,16,149,188,
  83,100,83,61,14,20,246,188,200,77,157,186,
  204,136,170,61,161,11,110,61,119,102,2,189,
  230,49,103,189,96,159,251,60,160,131,97,189,
  15,152,144,60,85,117,31,60,139,100,170,61,
  218,143,235,188,205,188,64,189,24,126,124,61,
  193,161,107,189,249,95,167,61,206,41,173,189,
  33,12,164,188,141,142,211,188,45,126,96,61,
  5,48,168,61,114,39,150,60,62,195,147,61,
  242,113,47,189,249,54,179,189,113,47,26,61,
  160,93,169,189,70,205,44,189,214,40,73,61,
  26,54,145,61,152,160,192,61,183,86,188,59,
  246,8,132,189,157,212,103,61,86,193,228,187,
  183,161,195,188,161,37,5,189,169,211,18,189,
  66,148,37,61,40,17,76,189,158,51,202,61,
  225,145,141,189,254,69,46,60,57,197,84,61,
  189,53,231,60,209,193,122,189,254,250,5,61,
  8,171,204,189,168,55,91,189,179,170,78,189,
  125,49,1,61,205,245,124,60,110,22,124,189,
  24,145,29,61,253,91,101,61,1,76,74,188,
  217,215,111,61,198,53,102,189,65,186,195,61,
  208,140,94,189,57,220,163,61,195,74,189,60,
  224,254,172,61,245,198,191,187,47,113,165,188,
  239,135,184,188,227,34,180,189,13,75,68,189,
  96,236,148,189,13,68,32,189,114,126,29,61,
  97,214,118,61,207,251,32,189,205,117,7,61,
  145,249,117,61,137,191,218,61,17,133,163,59,
  9,2,238,188,119,100,155,189,242,34,191,189,
  195,144,214,61,236,242,136,59,229,80,109,61,
  196,26,142,187,129,236,133,189,95,30,13,59,
  103,233,30,61,116,188,129,61,64,255,156,60,
  214,37,107,187,218,169,185,189,199,186,187,61,
  190,147,112,188,71,228,133,189,121,232,251,60,
  206,23,148,61,182,252,55,188,72,17,252,188,
  9,236,75,188,92,217,131,189,161,122,88,187,
  42,4,111,61,54,46,178,189,93,23,143,61,
  249,219,135,188,63,182,227,61,103,60,229,60,
  58,35,224,188,25,211,147,61,140,206,195,188,
  235,140,188,60,12,173,73,189,18,196,120,188,
  157,83,241,60,211,115,144,61,167,109,185,60,
  242,56,6,189,107,181,140,189,137,88,132,61,
  83,176,153,60,87,24,168,61,216,148,164,61,
  217,154,105,189,95,30,207,60,2,81,155,60,
  66,75,83,189,209,9,122,189,167,232,54,61,
  210,130,32,189,97,144,126,60,245,81,146,61,
  171,109,249,60,137,179,164,188,99,14,136,60,
  200,245,7,187,10,26,94,188,183,130,182,189,
  242,61,82,189,124,166,87,61,195,55,70,188,
  192,30,177,61,3,216,248,188,54,143,102,60,
  18,82,184,60,206,172,150,189,138,66,22,189,
  70,133,126,61,58,166,159,61,2,126,125,189,
  237,23,51,61,105,198,252,188,27,43,86,61,
  13,201,231,188,57,243,239,189,105,130,126,61,
  40,23,105,61,2,174,162,61,173,152,121,61,
  92,242,147,61,97,55,15,189,87,199,180,189,
  77,218,19,188,209,227,27,61,146,127,1,61,
  172,210,56,189,22,112,34,60,130,110,85,188,
  65,84,174,61,81,42,174,60,177,249,1,62,
  182,115,133,61,209,214,54,189,147,46,136,189,
  28,232,158,61,0,94,220,188,17,250,183,186,
  236,46,75,61,224,128,78,61,233,220,169,188,
  88,12,29,189,84,87,96,60,242,87,243,61,
  60,95,150,187,122,158,197,60,211,73,136,189,
  127,50,157,189,188,176,72,60,29,70,166,61,
  56,247,135,189,87,233,124,61,202,125,193,61,
  24,171,148,189,204,73,244,59,12,67,61,188,
  63,145,135,61,161,68,67,61,6,195,60,61,
  193,148,195,189,69,26,218,188,122,82,179,60,
  99,72,203,189,32,57,108,189,113,207,28,61,
  144,85,89,189,42,3,242,188,64,37,217,61,
  202,49,83,189,215,36,248,188,164,133,59,189,
  137,143,173,61,67,250,196,60,199,232,86,61,
  100,216,169,61,138,114,20,61,8,100,93,189,
  77,49,3,189,173,41,144,189,198,60,27,61,
  183,183,147,59,203,16,145,189,160,236,12,189,
  132,103,139,61,78,93,67,189,46,92,96,61,
  154,31,90,189,61,232,88,189,79,60,50,61,
  22,208,178,61,157,144,34,189,158,8,55,189,
  239,177,20,61,61,149,122,189,83,3,157,189,
  149,42,41,189,103,79,156,189,183,225,218,61,
  244,146,239,60,135,82,154,189,184,148,147,189,
  237,46,115,61,10,117,235,60,20,84,110,189,
  251,196,243,59,76,76,180,189,248,59,87,188,
  161,244,218,188,223,55,151,61,137,75,89,60,
  245,65,185,61,246,170,196,188,224,23,181,189,
  102,9,181,61,173,70,157,61,188,21,40,189,
  105,154,125,189,77,143,8,61,150,200,156,61,
  200,196,173,61,236,100,60,189,82,116,129,61,
  205,219,160,61,133,166,230,189,167,15,246,188,
  156,239,205,186,86,120,138,189,196,190,141,61,
  24,121,22,188,20,78,227,189,157,137,26,189,
  44,108,192,61,241,202,169,188,229,43,225,61,
  202,161,89,61,150,50,174,61,23,77,153,61,
  49,75,140,59,91,182,162,189,109,255,127,59,
  238,90,176,188,103,13,145,189,214,219,28,61,
  204,198,198,61,104,206,48,189,43,60,29,189,
  188,147,185,61,197,236,47,61,238,183,71,189,
  160,115,83,188,217,174,159,61,161,213,6,189,
  217,121,106,189,8,71,38,189,87,220,6,61,
  223,76,238,188,226,204,9,189,172,93,70,189,
  44,125,204,187,85,99,54,61,72,252,168,188,
  20,90,22,188,16,97,83,186,91,239,178,189,
  115,25,151,189,196,21,67,189,123,87,3,59,
  178,155,29,188,174,7,47,61,137,177,119,61,
  17,212,199,187,221,69,149,189,175,89,74,188,
  232,124,66,189,102,250,194,188,230,252,133,189,
  24,5,65,189,12,249,148,188,155,32,205,61,
  45,87,236,60,185,70,179,189,47,46,0,61,
  153,10,40,61,182,106,182,188,0,47,152,61,
  79,219,221,60,231,171,137,61,96,97,140,188,
  88,173,194,60,129,119,0,189,10,94,69,61,
  43,231,194,189,3,143,153,189,166,77,144,61,
  233,110,20,61,247,158,229,186,34,15,151,189,
  190,90,96,61,89,4,145,61,138,119,46,61,
  110,204,241,61,48,55,132,189,50,94,222,61,
  140,96,206,189,53,138,176,189,228,9,19,189,
  107,196,21,189,194,234,154,61,57,240,183,61,
  47,131,0,61,22,191,136,61,28,177,109,188,
  38,240,82,61,147,3,140,188,65,248,150,61,
  235,14,164,188,121,71,138,61,129,147,141,189,
  116,191,65,189,213,116,118,189,203,145,97,189,
  102,207,156,189,134,178,160,189,175,215,120,61,
  197,65,145,189,100,243,164,61,187,55,24,61,
  36,4,21,189,92,13,166,59,185,13,179,189,
  136,50,185,61,208,57,204,187,7,206,134,188,
  171,212,175,189,198,30,186,60,28,203,177,189,
  101,43,180,61,188,227,30,189,121,87,149,61,
  247,233,107,60,189,122,131,188,174,74,51,61,
  171,187,78,189,22,26,206,189,233,103,189,61,
  161,12,142,61,166,36,93,61,136,197,233,188,
  199,195,155,189,48,44,184,189,155,138,219,60,
  230,92,72,189,116,72,163,61,18,166,91,186,
  197,114,105,61,146,68,155,188,123,122,170,61,
  235,246,252,60,12,220,187,189,223,51,73,189,
  70,111,92,61,186,39,223,189,78,155,132,189,
  35,13,245,187,159,42,158,60,140,160,211,187,
  224,151,164,189,138,54,35,61,9,231,144,189,
  3,114,44,61,237,161,174,61,139,104,89,189,
  88,200,241,61,236,91,153,188,132,34,124,187,
  90,200,86,61,7,231,68,189,14,103,240,188,
  4,179,57,188,40,93,161,188,12,5,181,60,
  212,135,23,61,202,183,67,61,117,16,126,189,
  226,85,90,188,214,39,5,61,159,117,173,61,
  13,247,162,189,122,2,144,60,65,67,166,188,
  244,156,202,60,114,135,186,189,197,112,88,61,
  65,195,229,188,19,13,8,185,38,50,177,188,
  92,255,136,188,157,62,58,60,150,124,84,61,
  96,199,33,61,152,223,172,189,40,107,156,61,
  172,252,83,60,37,129,33,189,59,20,213,60,
  159,184,133,61,157,145,168,61,168,138,176,61,
  14,171,77,189,197,160,212,60,164,20,2,61,
  192,128,169,61,92,136,131,189,15,201,55,61,
  107,70,175,61,199,232,97,189,122,38,22,189,
  248,255,212,59,114,206,50,189,137,31,227,60,
  246,205,61,189,18,81,131,189,208,198,121,188,
  211,228,180,188,138,249,160,61,118,86,117,189,
  31,221,14,189,103,206,84,61,111,130,253,188,
  126,137,146,189,38,218,152,189,164,71,134,189,
  151,140,38,189,28,76,183,61,150,60,38,61,
  40,111,60,189,243,8,195,189,240,170,177,189,
  142,30,129,189,19,206,200,61,144,120,190,60,
  164,144,207,188,72,41,47,189,127,145,186,189,
  132,5,82,61,214,222,137,61,9,92,140,188,
  169,56,54,189,192,40,169,61,200,125,141,61,
  49,44,145,58,140,240,149,189,111,148,126,189,
  3,160,233,60,114,39,205,59,129,153,160,61,
  20,224,218,189,142,214,180,61,226,138,60,61,
  232,185,232,188,125,194,193,188,88,129,191,189,
  11,6,187,189,8,107,146,189,145,46,96,189,
  18,174,153,188,203,155,30,61,164,214,194,60,
  168,153,20,61,211,78,128,61,166,51,136,188,
  200,210,0,61,83,56,123,188,241,235,237,188,
  30,132,37,184,101,184,182,189,69,226,94,61,
  185,17,236,189,253,62,115,61,192,209,42,59,
  11,196,220,189,186,1,190,61,157,121,146,189,
  165,104,152,189,19,57,151,189,7,113,212,188,
  221,91,11,61,31,143,86,58,80,8,172,188,
