// Automatically generated from ./model/model_quant.tflite
const unsigned char model[] = {
  28,0,0,0,84,70,76,51,20,0,32,0,
  28,0,24,0,20,0,16,0,12,0,0,0,
  8,0,4,0,20,0,0,0,28,0,0,0,
  152,0,0,0,24,1,0,0,104,95,2,0,
  120,95,2,0,8,114,2,0,3,0,0,0,
  1,0,0,0,16,0,0,0,0,0,10,0,
  16,0,12,0,8,0,4,0,10,0,0,0,
  12,0,0,0,28,0,0,0,60,0,0,0,
  15,0,0,0,115,101,114,118,105,110,103,95,
  100,101,102,97,117,108,116,0,1,0,0,0,
  4,0,0,0,104,255,255,255,9,0,0,0,
  4,0,0,0,8,0,0,0,111,117,116,112,
  117,116,95,48,0,0,0,0,1,0,0,0,
  4,0,0,0,142,160,253,255,4,0,0,0,
  12,0,0,0,107,101,114,97,115,95,116,101,
  110,115,111,114,0,0,0,0,3,0,0,0,
  92,0,0,0,44,0,0,0,4,0,0,0,
  184,255,255,255,13,0,0,0,4,0,0,0,
  19,0,0,0,67,79,78,86,69,82,83,73,
  79,78,95,77,69,84,65,68,65,84,65,0,
  220,255,255,255,12,0,0,0,4,0,0,0,
  19,0,0,0,109,105,110,95,114,117,110,116,
  105,109,101,95,118,101,114,115,105,111,110,0,
  8,0,12,0,8,0,4,0,8,0,0,0,
  11,0,0,0,4,0,0,0,19,0,0,0,
  109,105,110,95,114,117,110,116,105,109,101,95,
  118,101,114,115,105,111,110,0,14,0,0,0,
  76,94,2,0,68,94,2,0,44,94,2,0,
  4,94,2,0,244,90,2,0,228,88,2,0,
  212,0,0,0,204,0,0,0,196,0,0,0,
  188,0,0,0,180,0,0,0,148,0,0,0,
  116,0,0,0,4,0,0,0,106,161,253,255,
  4,0,0,0,96,0,0,0,12,0,0,0,
  8,0,14,0,8,0,4,0,8,0,0,0,
  16,0,0,0,40,0,0,0,0,0,6,0,
  8,0,4,0,6,0,0,0,4,0,0,0,
  1,0,0,0,235,3,0,0,12,0,24,0,
  20,0,16,0,12,0,4,0,12,0,0,0,
  98,215,135,129,100,5,145,223,2,0,0,0,
  2,0,0,0,4,0,0,0,6,0,0,0,
  50,46,49,57,46,48,0,0,214,161,253,255,
  4,0,0,0,16,0,0,0,0,0,0,0,
  0,0,0,0,0,0,0,0,0,0,0,0,
  242,161,253,255,4,0,0,0,16,0,0,0,
  49,46,49,52,46,48,0,0,0,0,0,0,
  0,0,0,0,176,144,253,255,180,144,253,255,
  184,144,253,255,188,144,253,255,30,162,253,255,
  4,0,0,0,0,88,2,0,63,104,55,175,
  191,47,75,206,232,242,12,38,7,238,184,3,
  245,57,241,201,242,229,186,224,213,170,170,62,
  210,90,151,69,253,39,184,26,223,197,63,61,
  217,78,219,241,183,57,104,31,22,2,1,215,
  59,8,95,215,43,242,51,68,142,245,161,37,
  37,219,56,24,36,35,44,36,195,80,219,182,
  201,226,69,138,22,223,29,7,41,237,219,75,
  188,171,3,198,215,71,50,17,196,192,52,133,
  206,29,255,236,248,242,29,239,169,84,85,36,
  203,232,50,24,13,39,74,66,76,202,46,177,
  193,228,179,169,2,163,254,89,8,7,191,156,
  73,90,15,199,99,40,196,235,67,200,199,221,
  188,244,101,56,32,77,117,190,56,175,1,83,
  67,232,15,41,101,66,80,22,80,254,68,210,
  80,180,47,244,60,95,29,17,1,245,86,99,
  194,255,237,9,88,43,71,104,183,27,162,188,
  76,51,31,204,70,174,228,20,172,196,219,158,
  11,113,67,87,176,44,205,96,87,203,96,89,
  168,18,97,106,185,67,18,105,55,85,242,100,
  28,127,176,45,13,253,6,106,80,101,14,205,
  86,21,237,204,13,101,69,206,209,69,21,56,
  247,41,249,192,39,75,251,180,180,72,234,249,
  221,58,90,208,16,160,214,79,181,78,147,46,
  231,2,32,73,240,72,144,117,49,190,75,82,
  25,239,156,79,252,87,1,224,173,198,149,231,
  173,187,254,158,224,213,92,8,11,189,3,78,
  33,69,189,44,43,160,209,196,180,25,73,213,
  144,50,27,4,181,76,157,95,223,35,240,84,
  38,62,28,227,213,52,88,103,212,56,63,100,
  101,236,24,11,70,72,86,182,156,6,206,170,
  253,87,215,172,226,210,93,76,176,92,9,102,
  38,50,225,215,197,84,14,87,25,68,72,45,
  178,98,3,190,69,73,37,59,179,149,11,201,
  61,254,155,214,59,193,252,31,75,232,146,69,
  185,101,255,82,105,29,92,248,195,4,36,1,
  173,52,45,240,61,225,11,43,164,241,173,191,
  244,215,82,144,1,18,5,216,157,56,191,153,
  232,242,66,202,16,15,19,224,222,84,10,157,
  56,42,0,23,46,164,225,228,36,72,157,173,
  229,29,193,76,201,202,8,221,100,223,251,82,
  7,108,244,12,207,77,106,171,7,39,5,162,
  38,15,172,52,89,232,231,51,232,10,233,70,
  232,8,232,206,112,254,73,43,162,207,83,231,
  3,165,63,8,55,16,215,42,143,25,230,140,
  180,174,211,45,173,210,85,188,89,230,118,235,
  107,67,72,36,178,155,229,255,231,180,224,213,
  184,75,42,186,18,162,247,179,64,89,10,198,
  252,242,224,238,62,240,11,240,174,220,178,78,
  76,204,85,232,10,197,175,44,87,106,244,240,
  54,20,109,177,199,239,103,46,228,13,75,39,
  222,24,168,60,200,43,48,165,90,106,52,49,
  178,239,53,205,156,90,109,186,175,216,186,204,
  184,53,184,237,161,16,87,219,48,192,158,217,
  229,201,15,16,228,1,28,53,241,45,212,93,
  47,209,154,228,204,49,63,90,24,60,248,189,
  99,144,176,84,189,69,51,55,239,67,240,29,
  230,231,76,76,180,45,185,16,47,19,26,162,
  219,4,179,236,228,220,216,22,146,222,203,94,
  32,179,51,228,192,30,253,214,72,66,49,148,
  222,87,87,27,79,66,83,173,216,241,205,9,
  169,72,82,221,19,193,22,239,254,255,253,66,
  221,252,148,240,223,164,110,176,1,35,226,10,
  171,146,68,93,171,160,69,41,78,171,201,82,
  91,74,186,164,57,27,29,43,7,224,171,78,
  27,0,203,69,28,84,28,42,211,191,148,65,
  166,91,206,71,158,176,185,165,171,207,223,73,
  99,154,242,173,65,226,182,82,177,229,88,217,
  206,246,94,15,37,146,43,255,244,255,55,161,
  182,224,199,170,98,201,167,12,181,162,72,14,
  254,159,207,213,155,37,214,152,38,204,173,182,
  201,146,71,223,76,185,177,228,201,190,28,232,
  7,171,227,86,218,57,50,45,191,232,210,91,
  219,186,71,233,59,238,109,209,40,26,160,171,
  8,200,243,215,223,168,54,209,44,85,231,73,
  187,152,182,162,234,151,172,62,15,63,60,39,
  225,67,254,46,196,91,192,9,208,33,82,219,
  94,64,198,92,78,89,91,210,170,240,200,32,
  242,61,214,207,68,35,64,159,214,14,63,235,
  74,253,255,168,21,88,246,53,58,100,88,202,
  100,242,62,204,153,143,28,186,235,13,247,150,
  175,226,58,58,87,242,192,88,253,199,250,236,
  163,231,194,170,18,194,62,215,54,63,159,0,
  75,146,48,91,191,211,182,208,181,233,8,234,
  13,240,47,48,161,50,30,53,13,235,234,180,
  204,164,63,58,50,50,9,206,2,83,186,30,
  80,222,85,190,149,249,253,4,11,250,17,10,
  22,199,192,59,163,95,239,214,18,70,94,78,
  3,84,145,203,93,76,207,219,227,31,231,221,
  177,217,193,21,80,250,220,179,52,27,21,240,
  238,242,25,168,172,9,36,242,228,75,88,96,
  71,143,255,104,244,34,244,46,250,168,225,169,
  168,209,249,15,183,85,164,21,0,42,205,70,
  109,24,166,95,155,5,104,198,178,30,145,77,
  236,253,90,247,95,250,91,249,92,216,48,41,
  248,230,66,16,214,6,96,10,249,230,199,186,
  188,62,76,186,237,62,181,62,245,231,253,229,
  180,45,62,95,175,12,223,151,180,219,83,233,
  112,185,245,112,91,48,3,241,198,100,179,38,
  32,183,229,237,40,212,242,20,206,98,83,168,
  68,55,251,1,155,228,39,227,48,174,170,203,
  46,75,241,78,76,251,210,10,192,71,66,204,
  175,81,202,77,13,186,170,230,226,51,154,24,
  61,200,241,198,98,186,42,239,68,97,27,81,
  200,43,30,5,228,104,208,161,94,94,228,251,
  215,250,188,105,197,124,159,200,2,95,23,103,
  85,223,212,115,59,255,187,75,31,228,231,181,
  44,201,191,0,99,226,184,63,168,194,113,238,
  171,76,46,222,237,67,186,184,78,180,90,240,
  5,169,164,234,20,22,85,10,35,138,6,237,
  100,9,74,135,62,223,223,204,181,211,13,170,
  55,47,5,233,118,84,249,147,187,191,95,98,
  191,249,72,21,92,13,207,204,77,211,249,206,
  163,173,46,251,100,2,224,61,203,169,50,228,
  189,190,83,228,38,211,162,40,22,207,165,73,
  156,70,14,227,180,16,141,227,105,52,17,62,
  81,198,241,173,38,198,145,23,100,236,45,71,
  65,227,193,78,49,185,81,252,23,30,28,62,
  1,180,245,45,214,218,24,213,164,138,246,57,
  213,28,163,18,73,4,75,150,99,180,237,15,
  242,24,170,233,62,84,79,83,59,254,16,90,
  211,130,53,96,163,234,129,16,250,197,213,193,
  167,4,203,164,250,255,242,69,108,214,152,48,
  250,13,255,91,236,57,247,33,100,89,59,36,
  142,59,160,205,149,54,47,156,182,54,173,165,
  211,184,164,57,28,234,211,75,32,31,12,231,
  17,172,251,1,95,220,226,5,65,193,78,59,
  226,71,163,221,223,30,143,133,224,229,172,94,
  30,196,202,240,227,175,48,130,163,150,238,202,
  210,72,9,64,29,246,7,132,6,62,115,0,
  138,64,19,58,167,2,168,213,43,52,192,25,
  177,76,241,43,33,162,43,0,178,64,21,177,
  240,181,54,75,162,64,22,177,50,238,73,34,
  147,225,176,88,108,21,21,184,221,250,74,86,
  181,237,148,42,231,83,8,221,205,68,111,228,
  86,206,101,238,223,33,36,193,216,31,74,36,
  142,162,26,190,10,149,160,217,26,110,10,247,
  49,231,164,255,208,206,171,62,238,61,94,67,
  143,219,229,7,214,6,232,221,93,179,158,165,
  39,253,64,224,95,21,147,13,195,221,35,243,
  82,197,209,80,15,223,175,190,190,34,171,227,
  161,12,38,164,235,157,67,136,144,119,166,60,
  201,183,79,119,72,29,72,203,162,189,254,63,
  94,54,248,203,239,14,48,166,84,19,155,177,
  76,217,5,176,250,179,197,136,245,208,215,83,
  4,6,234,183,74,3,231,201,51,25,16,41,
  160,28,140,211,66,240,150,157,147,90,87,226,
  72,227,138,92,25,82,27,72,234,195,212,165,
  210,129,150,253,34,218,89,69,199,22,36,101,
  237,75,29,215,73,199,15,132,199,184,255,190,
  136,197,1,116,67,198,79,138,219,26,8,9,
  28,82,47,21,67,188,46,108,51,10,58,120,
  213,6,235,133,104,238,189,220,230,9,77,226,
  208,175,24,226,42,52,135,15,203,1,233,194,
  197,127,28,237,60,70,132,100,177,224,250,40,
  178,52,44,135,234,247,237,207,195,131,53,19,
  238,176,238,231,247,193,7,120,74,60,81,238,
  12,182,92,170,43,66,171,51,223,12,34,177,
  46,36,198,43,198,124,208,25,122,163,53,124,
  193,232,236,245,213,97,66,176,208,221,27,188,
  134,110,117,131,87,43,81,31,10,12,182,6,
  84,254,24,40,16,215,31,125,62,248,242,232,
  84,120,71,179,188,101,27,203,253,197,63,254,
  251,45,32,218,188,119,135,28,221,173,18,38,
  233,201,53,145,61,234,25,107,195,84,57,126,
  189,37,48,194,82,30,244,69,56,149,1,80,
  57,234,20,216,33,71,240,86,7,145,54,181,
  138,180,72,201,15,122,195,223,231,243,112,34,
  23,174,79,58,61,15,143,237,194,52,229,225,
  252,248,103,167,120,91,241,20,219,156,236,240,
  184,98,35,196,69,177,226,97,10,228,245,197,
  212,39,70,244,182,114,241,54,206,36,222,52,
  179,54,96,164,183,102,213,220,198,80,214,15,
  7,242,15,131,71,216,49,106,236,60,105,32,
  138,52,95,246,40,92,240,95,124,144,192,73,
  180,27,25,184,210,199,148,245,254,190,118,198,
  234,57,4,191,244,223,190,224,115,152,77,91,
  214,51,72,51,237,209,45,203,122,31,179,65,
  145,99,115,198,185,50,18,231,219,12,233,6,
  64,34,41,182,100,194,72,249,112,40,203,47,
  71,223,56,78,204,221,232,197,71,142,239,65,
  232,9,17,131,73,173,133,235,112,164,186,225,
  253,3,54,167,124,92,187,106,6,187,71,231,
  195,237,3,152,112,88,29,27,207,235,190,249,
  237,92,59,230,4,26,132,48,125,34,183,81,
  53,30,77,21,90,173,252,178,32,234,79,105,
  63,77,243,167,210,66,131,122,47,2,4,198,
  183,45,53,217,211,56,244,6,103,35,201,1,
  248,55,24,165,9,175,58,203,2,244,235,233,
  8,227,233,63,186,83,188,108,62,169,240,205,
  138,87,236,143,94,6,227,3,111,0,237,190,
  201,78,15,215,242,237,14,98,201,185,70,187,
  204,176,67,177,85,195,83,29,188,252,45,27,
  152,198,229,188,99,208,214,27,190,226,116,24,
  203,213,65,73,247,254,180,122,73,20,196,10,
  152,74,89,64,49,215,138,201,174,136,186,82,
  150,214,195,244,215,113,225,91,239,32,187,16,
  208,194,58,189,241,238,83,112,116,77,233,231,
  211,216,193,37,97,180,162,234,211,155,25,6,
  69,12,232,12,6,254,187,121,193,11,77,20,
  220,186,40,204,90,201,12,56,189,14,23,81,
  42,199,253,73,13,144,150,80,87,213,85,81,
  209,143,199,9,110,215,145,251,232,184,113,214,
  61,85,103,255,222,223,218,107,85,24,227,245,
  237,227,250,167,206,228,5,191,5,190,192,40,
  160,225,2,85,134,83,205,218,109,234,213,29,
  214,77,149,52,27,35,11,52,75,237,236,67,
  41,177,201,203,152,117,196,107,239,13,66,99,
  12,58,82,139,145,12,160,238,74,16,96,195,
  115,38,251,66,34,216,23,158,45,3,6,23,
  57,51,104,126,58,117,105,53,195,231,163,3,
  63,42,182,92,37,217,1,169,6,114,174,88,
  122,246,229,67,3,65,205,94,187,172,96,226,
  75,71,213,239,80,217,4,76,100,224,243,23,
  240,47,174,43,49,41,76,249,193,93,27,24,
  123,38,93,162,163,72,173,222,191,63,254,210,
  21,121,7,55,80,51,80,205,59,163,36,60,
  13,126,103,58,226,221,109,245,85,176,115,232,
  23,213,151,240,177,250,122,6,189,247,76,1,
  49,76,168,0,76,145,114,65,242,207,64,190,
  217,160,130,186,127,202,11,33,132,199,33,48,
  152,13,54,132,159,216,15,67,253,150,255,6,
  192,222,96,78,4,11,194,26,71,59,112,178,
  166,167,197,157,108,244,112,104,205,108,255,8,
  187,18,46,126,47,10,63,164,205,163,246,138,
  166,91,208,92,170,170,162,184,148,100,184,5,
  161,13,77,6,152,25,7,26,151,131,236,131,
  56,65,251,68,63,208,125,154,167,27,201,207,
  66,114,160,78,200,161,113,29,34,186,199,48,
  28,242,106,223,222,252,66,207,192,111,151,159,
  165,150,72,81,43,114,162,187,79,180,252,194,
  185,254,252,213,219,66,69,43,217,152,195,45,
  244,198,30,212,251,38,40,73,196,25,78,170,
  60,206,198,64,215,2,158,201,140,194,63,3,
  192,199,245,84,146,174,198,20,192,64,11,179,
  26,179,34,38,55,187,3,106,75,158,7,187,
  25,47,232,248,22,192,248,207,153,63,236,50,
  251,222,54,81,200,167,66,146,20,155,72,35,
  66,169,42,148,13,40,57,10,161,100,145,70,
  114,86,29,0,212,48,43,58,91,168,241,70,
  207,144,115,38,44,41,57,117,97,84,74,103,
  210,248,184,18,16,26,232,159,2,224,96,215,
  96,244,162,174,50,179,240,14,206,183,48,112,
  59,222,97,63,76,26,10,117,229,192,69,91,
  82,97,206,250,183,139,149,94,12,35,154,217,
  104,248,17,213,162,183,14,171,65,41,60,191,
  15,220,164,176,195,14,9,111,86,84,227,76,
  173,21,108,10,207,233,38,48,244,42,10,176,
  188,174,152,255,226,14,194,19,33,16,140,96,
  12,190,36,189,158,87,89,182,248,8,12,71,
  173,45,209,4,146,170,19,18,223,197,47,201,
  65,93,186,207,204,249,27,67,114,58,30,99,
  101,168,141,108,79,108,78,153,65,194,97,0,
  42,57,24,200,50,63,37,197,174,20,68,51,
  93,177,47,48,153,149,30,231,51,91,111,113,
  9,65,10,176,202,29,13,100,52,207,195,175,
  225,112,246,246,13,192,60,250,154,28,213,110,
  229,73,107,239,37,164,117,230,18,151,144,154,
  122,239,206,176,28,177,172,240,38,47,97,83,
  162,82,136,23,144,40,108,94,84,48,180,135,
  60,191,84,64,200,240,176,180,44,37,253,249,
  46,174,148,50,6,152,52,135,146,176,211,213,
  31,10,161,179,20,101,1,147,64,68,7,157,
  243,239,235,85,178,57,147,95,67,157,51,180,
  22,57,142,109,156,42,8,179,190,142,22,113,
  2,229,202,43,254,229,11,99,37,31,182,83,
  117,45,187,182,104,155,151,161,251,32,36,48,
  153,239,93,150,64,171,83,51,163,87,47,143,
  242,223,21,153,81,229,46,147,60,217,43,215,
  55,27,111,50,159,92,47,228,44,249,141,136,
  206,72,53,164,252,23,64,152,51,201,243,221,
  219,183,34,45,11,8,105,34,236,81,138,12,
  63,42,242,98,30,66,154,32,167,14,159,61,
  255,181,247,72,189,68,229,236,74,244,225,134,
  198,250,78,172,159,156,169,49,82,51,2,232,
  9,151,158,187,175,70,69,252,27,79,73,196,
  98,204,1,171,138,76,235,51,170,74,237,138,
  18,72,90,213,233,186,167,147,74,255,91,138,
  150,187,4,143,250,53,87,4,65,153,162,236,
  246,41,47,167,185,147,228,99,48,167,174,103,
  85,177,233,82,231,186,25,248,176,185,60,146,
  152,232,71,117,56,20,9,134,17,251,30,41,
  64,40,226,202,182,91,97,110,221,53,196,97,
  60,182,73,77,86,203,235,76,19,201,64,180,
  209,180,177,202,155,210,195,36,61,76,220,113,
  107,40,184,188,101,195,15,55,8,147,75,149,
  231,84,183,119,157,162,178,183,55,33,238,67,
  62,146,37,142,23,39,36,48,158,167,179,38,
  61,9,194,151,97,225,21,81,85,169,134,34,
  0,136,55,186,103,85,53,219,213,8,178,166,
  224,165,202,32,207,112,206,154,144,28,96,41,
  149,140,14,236,220,29,220,86,147,114,168,92,
  235,25,98,95,140,49,66,61,59,174,173,20,
  41,97,221,209,183,33,16,109,143,94,245,181,
  73,82,60,81,84,59,15,225,204,195,169,251,
  175,112,212,160,29,148,28,80,74,146,31,172,
  58,159,79,195,158,11,23,165,27,60,96,66,
  245,231,171,59,149,167,7,172,89,31,40,163,
  12,243,87,101,3,72,255,205,159,83,250,1,
  223,171,65,173,235,105,27,0,72,87,44,16,
  67,151,214,186,182,216,6,215,41,40,171,12,
  7,244,174,76,61,4,249,22,69,224,164,208,
  88,219,186,168,100,29,54,18,19,196,40,175,
  183,93,167,247,158,250,228,66,11,27,79,206,
  30,159,10,197,161,232,48,223,67,30,222,217,
  184,231,207,146,34,111,247,234,230,229,90,202,
  87,62,191,175,190,212,247,215,46,86,6,209,
  84,80,246,66,199,43,179,99,164,47,180,2,
  98,250,63,6,47,234,204,44,90,171,175,51,
  74,43,250,54,64,25,238,44,238,173,245,21,
  9,22,90,221,22,200,157,73,80,8,44,229,
  141,163,218,198,16,2,72,239,109,190,225,200,
  129,36,222,82,172,26,199,23,92,38,178,246,
  17,1,104,36,182,179,173,241,218,92,214,231,
  4,182,34,184,32,210,233,190,96,42,51,86,
  221,16,241,85,56,25,41,187,56,50,111,58,
  199,51,216,157,102,178,1,28,60,203,204,206,
  32,53,17,68,92,213,221,207,197,153,195,199,
  190,195,167,190,252,237,39,80,67,59,121,181,
  216,109,216,143,64,9,62,25,174,152,83,35,
  205,25,227,51,172,156,178,197,183,209,64,147,
  1,222,252,213,52,247,160,47,69,214,9,183,
  13,226,228,15,79,139,75,166,37,255,35,169,
  219,74,102,250,203,162,154,77,102,201,226,70,
  3,62,52,217,163,19,29,53,11,192,82,235,
  252,241,58,78,10,17,87,171,203,166,188,231,
  5,44,5,146,151,38,228,76,200,32,24,59,
  86,1,162,1,36,168,250,217,32,94,195,255,
  235,230,53,44,231,61,84,72,188,242,66,238,
  196,31,178,93,136,155,200,251,13,51,228,25,
  92,29,205,241,1,79,215,34,149,164,144,84,
  184,246,20,196,48,212,56,171,143,83,209,18,
  195,242,73,255,178,246,248,161,157,25,31,245,
  165,239,232,166,170,3,36,252,45,0,44,53,
  91,5,226,160,72,57,1,180,66,209,46,234,
  241,25,232,185,143,0,74,72,21,211,164,248,
  78,183,72,235,41,234,173,106,70,143,67,100,
  4,246,191,58,160,238,86,90,72,44,249,170,
  252,239,50,177,205,14,60,217,202,220,222,202,
  233,88,75,99,87,251,39,14,85,234,19,219,
  35,87,46,81,178,219,45,228,90,174,82,188,
  16,214,244,155,242,109,226,222,230,112,133,42,
  66,147,17,78,139,86,73,227,157,189,206,53,
  204,190,232,21,231,240,25,98,90,186,23,36,
  99,197,208,104,175,18,181,172,99,175,172,60,
  27,109,35,207,211,1,255,170,146,204,34,98,
  185,98,62,79,131,176,224,189,240,25,61,57,
  209,70,166,103,66,145,221,3,64,236,164,159,
  192,209,31,19,244,253,83,213,41,180,235,209,
  198,23,100,40,159,22,196,167,227,232,182,194,
  241,248,178,214,231,53,241,74,96,193,79,101,
  12,65,104,211,242,253,4,34,41,95,163,51,
  2,173,90,179,103,2,22,251,12,226,41,47,
  96,73,93,49,90,42,219,63,97,206,22,159,
  186,38,193,102,177,50,240,73,62,57,214,167,
  216,235,245,53,88,41,157,52,20,157,11,3,
  27,208,72,180,197,182,156,44,59,234,88,10,
  239,16,44,180,14,151,169,89,42,40,3,164,
  32,23,234,42,228,249,104,236,98,200,197,216,
  253,82,165,239,16,27,250,56,36,29,158,76,
  204,152,238,214,103,57,39,83,207,60,216,223,
  9,97,230,17,203,204,52,203,36,169,48,157,
  43,220,53,97,90,251,198,237,186,101,70,222,
  37,244,166,106,3,185,103,94,170,187,235,230,
  236,88,25,159,189,94,91,168,46,169,35,79,
  255,157,89,101,13,211,84,148,77,88,20,65,
  160,95,84,49,18,2,51,16,73,34,176,48,
  23,64,57,252,97,56,197,63,29,236,95,95,
  73,202,20,166,185,185,244,154,226,26,76,25,
  7,189,202,84,17,102,35,6,220,158,153,102,
  36,181,225,46,52,61,75,149,35,252,61,158,
  16,242,4,228,42,47,233,156,186,34,17,247,
  214,25,243,9,63,191,182,27,173,2,156,237,
  234,218,248,182,91,203,72,166,247,96,218,161,
  184,9,86,47,219,246,50,203,82,191,23,235,
  235,160,65,110,241,201,191,211,152,251,0,202,
  192,160,14,85,198,232,72,251,194,160,58,50,
  26,203,182,223,31,38,60,8,160,219,179,1,
  179,215,174,231,3,17,237,84,156,14,174,99,
  191,86,57,86,95,88,13,78,71,6,67,205,
  7,27,255,6,62,215,198,228,170,7,216,96,
  58,32,216,109,163,50,40,237,170,26,59,2,
  73,23,176,171,30,35,84,211,8,57,3,50,
  36,24,99,75,78,179,233,247,69,100,195,159,
  0,191,79,73,23,182,77,230,194,209,20,48,
  52,227,53,238,18,16,55,65,215,91,180,59,
  43,0,236,3,212,240,98,238,40,0,206,242,
  221,1,52,108,157,61,167,95,190,74,162,184,
  225,165,93,94,7,38,93,85,34,171,93,217,
  37,230,33,17,220,149,230,148,42,204,67,183,
  210,25,212,195,66,8,72,254,153,193,31,227,
  21,94,180,85,183,171,12,225,215,72,199,211,
  110,88,74,54,241,150,47,31,85,180,157,33,
  10,5,251,41,34,75,87,81,1,1,175,220,
  20,179,152,200,70,170,197,202,209,78,40,84,
  86,21,42,189,77,146,185,94,242,176,152,192,
  78,57,9,213,82,21,213,242,24,165,219,34,
  32,255,86,26,61,200,199,216,152,30,175,100,
  253,104,149,1,62,64,222,86,57,110,62,25,
  106,16,62,101,29,161,227,35,70,222,66,222,
  175,197,27,14,155,193,188,101,72,220,174,229,
  47,4,235,27,10,140,65,220,13,72,23,174,
  229,240,221,166,63,217,190,33,67,60,234,219,
  2,60,25,197,151,90,167,145,61,177,242,159,
  182,46,71,24,62,35,24,90,65,99,35,4,
  88,132,164,70,4,139,59,134,166,33,167,69,
  61,74,164,146,103,229,12,79,241,80,159,21,
  253,24,32,2,37,94,168,209,179,33,157,9,
  235,30,72,27,77,45,255,227,213,103,84,83,
  214,234,179,255,41,231,189,201,91,184,166,61,
  9,170,255,117,25,63,157,155,114,226,232,96,
  37,156,252,38,112,225,35,86,37,15,250,224,
  166,174,192,33,176,168,144,173,16,238,148,151,
  218,187,32,198,176,131,196,66,230,110,63,235,
  17,194,56,232,40,204,212,39,92,193,10,187,
  98,247,174,52,15,196,46,18,32,227,209,198,
  173,2,6,36,69,236,221,181,245,38,99,202,
  72,240,253,200,160,175,59,117,51,86,78,252,
  48,117,238,23,230,24,229,121,115,87,89,237,
  31,77,71,127,67,60,104,89,235,234,66,57,
  69,215,7,193,218,54,217,102,224,230,4,159,
  77,221,32,174,58,183,4,48,87,230,7,72,
  27,32,252,232,188,202,163,64,150,179,24,178,
  11,218,98,50,165,60,43,202,211,26,193,25,
  26,224,191,178,157,176,191,230,67,98,242,101,
  69,196,223,200,22,99,80,56,150,13,203,209,
  190,189,231,5,12,107,235,200,172,89,158,84,
  65,227,188,145,6,99,61,253,1,87,161,225,
  22,69,171,225,99,45,67,60,67,55,210,70,
  102,107,54,179,162,168,164,4,225,4,67,112,
  24,116,165,69,224,85,214,19,151,173,41,43,
  194,245,141,85,191,202,24,229,81,197,4,90,
  48,85,76,6,27,7,134,70,206,148,169,43,
  71,81,249,91,2,6,91,231,39,150,221,170,
  145,59,3,175,155,151,166,218,202,16,84,154,
  255,53,251,155,252,13,102,168,12,129,184,95,
  173,39,233,89,158,104,169,89,135,147,67,47,
  89,140,67,224,46,167,0,177,240,153,181,234,
  49,228,61,45,75,6,136,10,174,222,2,206,
  211,34,170,66,110,45,26,37,212,211,212,73,
  65,165,249,249,10,43,18,89,181,164,36,170,
  94,255,33,246,162,189,73,9,213,193,3,209,
  219,135,162,180,96,147,18,255,33,37,241,163,
  89,225,166,84,68,76,250,39,69,249,57,151,
  122,177,101,161,18,181,116,216,78,215,206,193,
  244,244,65,194,64,38,224,205,55,24,17,36,
  248,48,40,178,236,56,87,231,35,217,201,210,
  173,92,119,29,78,201,102,140,179,184,98,247,
  214,145,36,181,234,25,28,148,83,8,195,79,
  4,69,66,147,226,8,29,238,243,42,6,221,
  171,222,72,3,250,9,16,157,48,10,18,83,
  89,45,74,6,32,2,8,25,234,10,88,85,
  240,52,245,41,55,49,200,78,95,60,68,192,
  161,251,244,104,176,8,45,196,244,185,246,96,
  2,69,17,21,230,225,50,92,2,183,202,194,
  93,46,173,156,47,87,62,213,249,69,166,107,
  188,5,105,252,154,82,22,192,15,30,208,17,
  141,92,36,250,153,62,93,107,39,13,217,32,
  69,176,213,85,221,220,237,216,101,53,255,164,
  250,8,237,44,4,103,78,90,255,155,204,237,
  173,58,173,96,219,187,227,219,215,212,30,171,
  226,71,246,199,51,44,21,52,244,6,239,25,
  229,197,27,91,42,110,245,248,157,20,57,25,
  93,189,182,251,69,242,187,248,252,30,169,157,
  165,64,194,164,30,216,174,47,88,154,154,210,
  195,36,59,191,155,240,100,53,98,70,59,208,
  99,231,188,202,233,233,37,96,95,255,168,253,
  15,208,211,157,247,197,210,188,198,210,243,64,
  25,96,67,150,223,170,255,11,243,224,97,88,
  204,246,81,157,30,5,154,44,233,35,71,243,
  254,242,184,88,116,189,7,238,161,83,6,206,
  32,176,198,216,60,179,89,214,23,251,237,49,
  57,165,204,30,45,174,68,61,210,59,52,215,
  10,227,37,39,223,240,255,108,91,155,79,20,
  11,111,254,43,227,94,32,154,43,81,182,221,
  252,190,68,27,184,156,103,69,70,22,80,24,
  168,48,248,148,231,179,154,205,97,98,88,166,
  223,235,247,54,51,156,220,88,164,181,11,240,
  91,229,176,43,45,197,168,159,233,26,63,177,
  56,155,172,69,230,164,10,225,64,71,160,105,
  188,31,0,157,158,7,211,198,59,203,227,11,
  68,25,27,241,13,99,225,236,52,187,81,180,
  24,164,48,75,105,44,216,253,69,39,73,91,
  57,72,109,99,60,228,174,62,88,56,46,244,
  72,30,84,74,33,37,91,200,27,226,61,29,
  241,91,4,12,189,8,247,179,68,245,24,33,
  159,153,157,179,234,63,31,224,222,152,113,102,
  84,207,193,38,202,175,88,247,173,43,240,238,
  203,161,165,16,243,238,56,229,96,32,114,238,
  254,58,188,40,194,46,86,164,108,206,241,112,
  17,50,22,8,65,180,45,197,5,143,50,101,
  81,13,180,162,95,187,38,243,50,96,207,57,
  70,29,59,22,31,48,1,240,227,200,179,208,
  60,44,67,180,0,19,80,181,217,177,167,196,
  86,180,179,15,100,174,92,190,231,196,183,15,
  190,174,246,210,110,220,85,236,35,13,15,208,
  204,107,219,27,254,187,196,163,210,195,169,59,
  59,191,52,67,40,171,15,103,51,24,91,13,
  216,161,40,33,57,12,165,182,234,87,154,230,
  243,46,96,216,46,210,202,190,49,51,166,11,
  187,114,50,37,79,84,245,12,254,108,238,218,
  108,59,82,11,187,32,236,244,224,6,171,7,
  209,33,99,44,48,212,203,200,52,22,70,137,
  108,158,220,29,163,30,231,240,30,22,61,151,
  97,238,98,165,143,201,24,197,226,3,226,206,
  42,80,41,202,239,175,42,171,53,133,188,226,
  193,46,42,134,210,60,255,65,35,247,44,214,
  246,255,71,160,250,19,24,195,254,205,179,0,
  114,62,102,174,246,239,243,236,63,143,13,31,
  211,53,72,232,34,50,39,91,75,5,85,4,
  222,67,121,215,16,167,86,198,181,36,232,1,
  246,179,64,1,111,110,60,44,213,102,40,226,
  59,197,34,20,193,68,231,155,63,223,205,211,
  231,237,10,127,187,79,104,90,201,109,45,70,
  90,225,8,12,196,44,35,100,105,10,180,228,
  233,255,2,54,18,207,210,58,45,201,11,221,
  186,161,36,99,107,246,195,232,212,9,222,235,
  230,209,191,14,197,247,192,174,23,87,24,210,
  72,208,65,182,76,19,191,239,30,207,68,145,
  229,11,105,103,112,211,38,177,4,36,43,151,
  30,10,103,50,111,3,8,210,212,161,100,75,
  198,73,100,166,237,27,204,73,46,161,169,75,
  20,59,199,177,244,166,159,14,41,35,178,3,
  226,195,230,55,36,240,154,48,56,96,203,89,
  194,211,229,60,29,247,42,50,223,97,240,220,
  87,170,170,184,203,248,254,5,0,48,212,203,
  221,208,215,52,70,207,31,76,60,170,14,210,
  164,223,200,180,83,196,17,83,1,80,204,94,
  228,80,251,211,170,163,252,102,20,235,215,7,
  9,250,143,173,4,237,178,65,224,173,158,227,
  54,13,199,101,42,165,175,52,178,199,179,75,
  54,184,212,203,252,113,24,231,153,159,230,210,
  176,3,214,80,250,36,14,67,76,217,191,12,
  16,1,56,146,38,29,69,207,220,187,29,212,
  14,35,197,80,202,159,241,99,78,248,57,180,
  24,233,10,164,20,15,50,26,242,147,192,19,
  64,241,36,55,162,46,247,233,63,8,169,51,
  14,80,244,196,29,223,36,58,144,57,74,155,
  225,240,47,197,177,85,99,205,204,139,164,178,
  243,65,28,51,152,17,170,99,77,179,129,55,
  193,176,182,197,138,13,112,254,218,170,192,56,
  105,90,144,38,47,77,88,154,4,163,66,161,
  5,247,184,165,57,149,106,72,50,31,7,46,
  41,224,46,226,56,236,117,161,233,251,58,179,
  52,149,57,73,1,5,249,180,35,255,69,43,
  93,72,187,161,170,1,7,54,142,230,81,183,
  123,196,213,36,188,173,27,5,238,243,163,250,
  186,246,12,79,95,57,228,50,174,212,104,204,
  13,31,212,43,35,170,81,67,2,213,93,150,
  4,8,108,241,199,22,224,62,160,105,70,8,
  183,52,189,156,17,44,11,189,228,44,98,73,
  102,26,34,74,253,235,168,91,76,162,169,246,
  191,250,70,53,198,27,100,11,27,216,198,173,
  42,15,76,224,70,170,87,235,176,162,161,21,
  242,174,111,202,11,191,101,200,8,175,173,48,
  242,252,48,170,38,166,20,197,73,176,188,41,
  35,178,63,64,193,192,231,100,111,55,82,183,
  233,95,110,90,176,65,12,78,59,177,245,106,
  218,5,56,147,40,237,147,179,210,152,70,183,
  55,78,208,97,21,95,222,27,28,165,243,220,
  41,77,208,194,52,93,173,241,173,148,14,227,
  245,198,43,77,250,20,161,71,17,194,93,200,
  19,75,186,41,166,197,1,9,48,221,153,0,
  89,8,102,154,65,73,198,172,96,98,209,251,
  253,7,237,235,32,11,230,69,152,23,156,238,
  40,250,208,47,198,67,77,221,174,255,159,34,
  13,77,244,159,244,159,169,205,188,0,100,202,
  154,32,234,244,234,251,181,172,76,198,229,216,
  15,49,99,25,155,17,21,200,89,15,44,64,
  204,90,189,29,167,50,225,173,190,193,94,187,
  87,75,225,169,222,224,170,156,3,249,67,204,
  251,72,202,147,170,178,150,186,25,63,172,157,
  153,5,192,249,243,0,243,221,171,103,206,217,
  70,247,33,155,89,208,246,246,105,195,196,230,
  197,54,196,54,201,92,204,176,77,7,187,164,
  27,204,77,215,224,251,60,232,201,253,22,72,
  245,27,8,81,170,223,45,103,70,44,40,153,
  97,240,244,182,184,22,145,53,193,77,41,225,
  173,33,5,246,40,27,31,172,156,15,102,164,
  47,20,255,222,71,23,154,227,247,167,199,246,
  2,253,175,170,34,195,21,3,65,212,175,76,
  194,56,221,254,64,57,93,62,28,207,169,38,
  27,36,84,187,218,224,239,203,165,68,171,14,
  79,95,9,205,80,237,230,255,181,244,81,62,
  27,110,62,35,10,243,6,222,102,92,42,209,
  38,180,21,77,36,3,167,76,209,9,30,170,
  152,87,218,234,220,158,152,78,15,251,93,170,
  82,170,159,66,5,37,243,227,110,221,103,9,
  30,58,173,156,57,66,156,207,110,179,196,29,
  15,225,179,44,220,45,7,178,80,171,212,205,
  193,72,86,243,4,193,9,68,8,160,218,166,
  149,2,249,178,11,220,149,159,228,190,69,62,
  45,232,25,99,220,42,157,55,21,44,155,226,
  97,82,23,52,84,184,180,225,64,35,189,185,
  45,167,152,31,81,8,191,156,38,104,38,226,
  197,33,95,66,81,230,213,14,73,159,89,156,
  249,213,222,171,48,213,198,88,246,49,176,247,
  42,225,56,249,95,88,166,55,39,187,250,182,
  177,220,69,178,216,85,20,198,34,8,228,161,
  66,61,64,11,72,214,163,95,65,83,214,51,
  206,109,186,20,32,62,196,35,175,2,57,214,
  59,53,237,33,52,237,83,83,204,52,240,78,
  165,199,159,35,136,158,38,24,189,164,8,104,
  117,151,195,204,222,240,18,12,248,4,213,79,
  246,206,143,65,51,25,110,6,40,205,168,114,
  120,213,231,7,214,18,53,71,86,70,85,187,
  212,69,89,141,10,255,42,29,198,144,31,79,
  245,27,59,26,70,33,192,69,82,205,77,68,
  70,12,227,238,249,229,79,142,196,40,154,244,
  1,213,212,221,27,30,199,229,88,205,77,22,
  4,176,71,35,221,157,230,223,254,180,45,88,
  53,252,2,86,197,1,211,29,94,232,127,7,
  93,187,48,226,238,2,92,97,233,71,175,253,
  222,231,35,188,9,185,6,218,102,236,35,4,
  239,190,41,84,3,33,9,33,177,47,75,189,
  221,154,204,81,250,209,75,36,225,204,192,109,
  74,50,21,80,19,53,205,161,205,194,217,222,
  216,250,127,154,57,165,28,93,193,254,69,214,
  38,173,180,41,175,6,81,59,183,78,231,173,
  34,35,10,68,104,167,92,95,112,102,119,182,
  188,45,59,34,196,182,15,215,208,97,26,187,
  159,222,127,88,232,237,213,51,108,231,28,136,
  232,6,106,59,58,243,143,40,170,100,39,245,
  163,166,55,42,237,25,9,218,43,220,233,236,
  42,232,55,190,68,86,144,50,72,96,101,51,
  135,226,179,111,244,64,188,9,219,13,89,172,
  201,154,242,238,227,248,204,79,184,19,228,255,
  40,198,243,200,7,160,225,64,246,171,194,40,
  188,67,69,27,30,79,202,199,10,7,79,51,
  78,9,158,247,155,80,1,1,166,106,31,94,
  184,35,215,178,174,157,11,103,26,91,226,227,
  58,42,194,22,25,89,194,71,40,226,143,39,
  220,40,0,186,12,3,51,40,231,47,25,11,
  202,236,143,8,23,63,98,224,202,20,228,179,
  118,165,46,147,239,10,161,215,52,226,224,202,
  9,149,0,86,249,246,101,60,157,215,82,205,
  34,38,147,65,69,51,58,21,64,240,199,205,
  90,207,75,198,237,244,186,71,30,31,153,87,
  84,13,174,84,1,60,255,98,8,254,191,38,
  4,23,176,217,82,65,72,249,21,15,248,226,
  104,253,36,6,151,231,120,170,40,253,43,192,
  33,35,208,148,53,8,170,234,15,83,192,205,
  41,152,81,6,9,64,19,56,87,173,34,60,
  79,236,16,254,236,250,2,64,238,187,154,96,
  74,189,44,86,1,201,252,195,7,188,56,93,
  35,248,42,86,215,27,77,170,134,207,95,16,
  228,172,251,136,174,74,46,183,42,243,100,181,
  205,207,137,151,19,49,253,156,134,248,18,243,
  84,2,182,6,96,254,94,26,183,68,70,214,
  244,81,211,182,98,52,82,73,47,84,172,46,
  101,18,131,180,44,156,172,66,78,30,106,76,
  27,138,165,81,171,164,74,57,41,74,240,30,
  143,185,68,78,251,221,151,27,193,11,241,92,
  98,205,224,18,92,15,163,84,185,209,211,178,
  100,1,174,42,105,6,250,89,230,96,209,22,
  245,101,16,243,200,84,161,213,25,144,75,169,
  37,202,23,149,209,157,55,69,0,100,26,97,
  236,40,112,190,190,211,10,104,14,1,205,25,
  228,222,199,83,232,235,57,230,210,79,234,85,
  225,215,182,251,9,22,91,218,225,159,238,45,
  26,49,180,196,64,208,103,70,47,209,247,243,
  28,18,67,89,83,113,93,231,23,6,27,230,
  40,218,64,241,32,184,200,77,40,25,185,175,
  241,51,110,22,189,107,93,185,207,43,22,198,
  95,31,10,147,51,102,236,3,215,49,104,218,
  194,15,245,59,16,208,52,168,31,68,91,153,
  230,188,183,194,195,215,198,41,210,84,54,188,
  238,178,106,231,28,55,194,9,97,20,195,81,
  201,32,70,212,49,245,227,162,219,249,73,177,
  144,166,197,162,87,207,86,41,230,232,186,74,
  9,107,13,162,241,237,92,175,104,35,62,254,
  45,11,33,155,234,40,206,160,242,100,4,201,
  189,49,207,1,88,11,75,239,77,243,77,174,
  176,244,195,232,245,34,39,85,214,163,108,37,
  33,9,20,6,255,87,45,251,35,163,111,196,
  79,203,17,165,11,110,214,67,68,174,95,191,
  232,164,229,27,241,97,37,194,98,97,179,226,
  165,247,228,154,227,187,13,236,207,26,182,69,
  195,63,218,90,71,30,158,161,41,74,51,108,
  226,47,157,211,90,111,45,27,233,73,0,208,
  232,94,210,76,91,77,182,168,5,66,111,74,
  222,64,183,184,28,178,219,59,176,65,234,29,
  144,47,214,0,248,255,16,91,13,58,39,17,
  26,15,36,97,199,108,169,212,41,179,55,89,
  200,52,242,204,239,174,173,207,233,239,254,33,
  100,48,87,211,185,78,212,112,62,10,81,86,
  197,29,185,13,195,163,61,13,13,207,80,113,
  153,78,243,94,2,72,102,159,248,41,210,100,
  38,164,34,33,162,214,151,215,89,25,107,83,
  211,53,168,28,64,198,182,177,16,194,181,85,
  55,168,185,197,1,100,74,107,4,234,38,199,
  50,95,44,154,180,242,161,239,1,35,99,4,
  236,37,80,183,189,111,157,228,108,202,178,195,
  31,224,113,187,13,44,164,110,1,215,108,212,
  210,55,180,222,240,48,72,15,202,98,98,208,
  56,240,179,83,218,168,254,177,97,181,205,218,
  31,199,179,38,185,8,57,105,70,6,180,194,
  50,202,161,82,72,19,85,75,172,226,30,69,
  176,214,33,97,248,188,72,68,17,208,246,93,
  156,27,179,195,2,244,44,194,66,21,56,167,
  246,209,36,91,108,67,155,245,32,203,181,199,
  139,237,219,254,250,234,141,0,249,216,219,42,
  236,189,157,184,35,173,3,158,194,255,62,167,
  81,165,25,24,254,229,187,197,91,169,46,171,
  57,0,69,54,47,166,8,84,203,103,166,166,
  147,53,209,223,15,64,96,76,73,90,89,27,
  224,252,108,197,178,206,44,249,88,119,255,226,
  80,199,166,191,54,146,152,247,85,63,81,31,
  94,243,61,115,34,151,78,94,49,96,7,52,
  144,37,22,61,202,156,234,97,132,84,97,39,
  253,179,23,243,20,80,216,174,162,50,218,83,
  240,27,218,86,147,85,210,83,21,224,156,16,
  4,84,14,201,70,59,73,57,30,159,152,206,
  205,55,217,30,246,45,192,248,221,63,160,32,
  15,180,136,39,56,209,38,40,130,66,85,0,
  200,196,145,18,247,66,111,250,57,61,12,121,
  67,208,144,7,243,30,174,183,249,8,213,183,
  94,44,134,12,248,179,223,78,180,164,171,76,
  106,247,240,204,179,202,197,73,141,242,67,195,
  203,35,239,58,39,201,80,80,54,146,55,112,
  173,230,159,103,142,108,181,168,214,217,150,226,
  7,84,4,70,188,72,241,82,86,20,150,54,
  74,144,195,173,10,241,100,225,144,214,142,51,
  82,216,68,42,10,111,50,184,39,2,69,127,
  241,232,5,177,77,20,206,232,242,45,210,223,
  207,174,174,216,198,118,182,251,21,223,108,192,
  79,160,235,114,115,39,165,78,178,48,50,16,
  214,149,80,7,40,248,203,149,41,183,247,119,
  75,197,103,236,117,249,1,174,38,211,125,110,
  162,207,186,168,84,91,194,215,219,156,113,13,
  35,39,78,50,181,85,64,194,169,86,176,60,
  228,183,28,143,64,188,55,181,16,175,46,16,
  62,35,117,27,90,248,169,33,245,207,102,213,
  109,27,25,33,255,204,183,175,217,216,205,240,
  205,165,202,251,211,172,80,62,65,55,248,106,
  17,162,88,83,108,114,175,34,100,202,206,79,
  165,33,192,79,246,6,85,221,71,64,57,172,
  236,87,242,244,223,225,47,139,222,156,208,235,
  160,53,210,192,62,183,75,186,243,205,213,177,
  86,232,24,6,174,108,95,39,250,52,42,76,
  198,205,186,207,8,197,254,92,61,146,191,50,
  179,3,242,26,190,196,250,227,103,212,88,56,
  111,82,72,154,31,36,70,79,238,249,227,157,
  220,148,250,167,111,43,205,71,183,247,184,200,
  76,231,177,212,248,70,243,57,24,31,177,225,
  14,89,0,218,91,50,71,74,213,198,35,24,
  81,13,195,104,253,1,21,95,16,6,96,70,
  45,250,104,113,104,93,171,146,205,62,26,207,
  12,44,60,211,40,101,248,147,93,54,78,173,
  156,39,229,72,64,168,230,168,40,144,29,183,
  247,43,4,238,97,74,15,246,34,53,201,33,
  49,235,193,225,220,43,217,5,205,238,87,252,
  220,193,252,84,229,179,176,44,9,245,35,9,
  35,9,96,50,163,30,76,60,251,188,172,45,
  219,17,188,228,31,244,236,113,191,232,111,4,
  63,10,52,49,88,206,242,36,71,66,92,5,
  58,36,230,74,43,205,165,36,74,14,10,192,
  86,65,185,46,208,87,228,116,187,47,74,2,
  55,195,80,15,206,69,247,226,48,60,105,239,
  51,57,84,20,188,6,241,170,228,184,239,92,
  230,61,178,6,20,215,176,34,52,193,171,48,
  205,57,217,223,84,197,79,247,218,33,216,183,
  201,240,225,178,248,52,154,69,191,54,211,44,
  234,180,196,205,242,93,175,43,93,76,30,166,
  171,196,240,9,202,174,40,208,84,242,253,191,
  159,113,118,70,85,240,203,185,105,46,254,27,
  203,6,50,145,72,95,30,38,176,228,190,46,
  210,5,169,21,7,214,183,8,210,24,3,85,
  242,109,213,79,232,239,22,76,58,190,203,87,
  220,165,244,76,41,238,224,171,31,17,163,95,
  159,2,27,139,227,114,92,65,175,162,97,111,
  176,54,26,57,22,45,28,185,97,227,234,233,
  48,94,18,11,233,55,38,15,213,92,191,163,
  237,20,88,170,56,206,39,225,93,15,249,194,
  227,80,203,210,216,19,169,253,94,147,67,42,
  203,108,110,237,242,10,74,220,77,140,22,183,
  42,61,1,251,9,239,34,53,113,204,64,51,
  195,119,222,232,13,22,77,174,42,89,205,88,
  89,50,163,17,110,29,80,165,32,236,226,49,
  196,237,4,147,6,51,62,176,37,5,85,240,
  219,187,114,91,206,72,250,25,50,206,90,86,
  10,87,65,246,24,53,33,48,65,138,233,248,
  91,14,170,139,25,2,93,74,250,54,196,184,
  52,234,250,179,114,51,141,174,72,175,67,229,
  223,230,249,85,97,177,19,107,10,190,177,86,
  90,4,111,38,115,231,160,99,211,226,60,33,
  221,224,205,50,107,176,214,172,199,33,9,2,
  223,11,37,72,184,7,65,241,173,189,62,62,
  198,193,87,82,24,90,191,68,72,0,85,76,
  162,13,27,169,56,42,38,96,12,209,214,118,
  238,55,163,184,241,83,145,253,234,141,203,53,
  236,23,24,255,112,68,30,102,247,160,25,77,
  35,163,166,9,96,238,231,54,175,186,250,11,
  239,76,108,41,246,245,219,210,219,234,219,111,
  189,223,45,208,255,10,26,101,88,83,204,211,
  145,191,3,187,204,92,165,106,17,154,70,197,
  249,102,177,208,56,92,219,233,41,11,80,238,
  223,216,225,47,8,20,86,11,237,78,175,240,
  6,90,182,12,204,39,201,68,39,196,81,108,
  37,231,65,28,98,174,236,86,72,202,252,183,
  244,88,43,141,107,206,239,71,154,78,81,189,
  164,155,251,173,18,202,151,1,208,211,168,190,
  49,178,202,99,208,47,185,181,69,85,40,80,
  163,249,48,28,201,143,15,62,114,184,27,233,
  248,22,229,1,42,0,179,214,127,105,46,141,
  247,22,8,160,176,211,193,32,51,241,11,148,
  196,66,122,92,242,204,18,55,170,48,164,199,
  14,71,172,250,52,18,0,177,250,192,169,8,
  184,40,190,225,226,235,180,6,61,221,251,36,
  255,87,87,187,234,53,223,61,17,49,78,241,
  53,238,88,166,91,71,55,51,65,160,41,225,
  247,207,1,47,47,84,175,170,159,226,34,103,
  235,36,56,19,192,17,190,197,71,65,249,201,
  228,225,159,76,138,44,219,170,84,193,68,44,
  27,215,56,142,197,107,148,4,213,12,51,49,
  75,144,205,173,181,15,66,173,50,42,26,58,
  49,61,202,237,37,191,255,28,173,181,192,94,
  16,32,23,168,64,71,188,254,251,236,244,96,
  20,30,195,79,162,224,48,217,53,164,155,19,
  185,47,232,106,8,42,22,177,20,180,240,62,
  188,69,43,193,29,214,135,228,200,74,169,240,
  197,193,213,231,248,45,19,52,172,9,54,107,
  30,44,170,59,11,21,153,189,205,232,242,96,
  135,63,214,246,68,13,204,71,69,188,179,242,
  25,145,125,26,85,47,182,22,84,64,192,29,
  217,32,102,101,246,49,193,196,198,186,212,40,
  169,5,95,229,104,99,248,75,178,78,0,245,
  64,213,233,184,30,77,214,223,117,180,250,115,
  55,57,183,195,191,45,52,193,17,93,28,12,
  244,204,252,60,64,60,174,21,192,226,183,17,
  200,44,44,23,68,22,192,213,72,38,195,68,
  72,2,19,199,41,10,37,57,20,56,177,165,
  78,50,37,251,78,232,43,143,91,47,247,24,
  59,78,27,184,230,28,18,5,73,207,96,179,
  131,201,22,189,169,242,216,185,222,1,93,200,
  185,210,237,67,88,152,17,38,147,155,8,198,
  76,234,200,47,233,160,181,26,224,180,3,16,
  135,229,156,87,156,5,216,150,156,163,101,81,
  162,214,63,51,208,207,79,230,65,185,49,30,
  149,90,181,58,6,33,137,76,202,152,187,56,
  189,246,198,71,166,135,169,194,197,89,188,1,
  214,7,3,248,226,249,133,218,225,72,213,75,
  21,13,151,156,144,53,52,208,171,86,184,240,
  193,157,62,205,71,176,196,29,71,157,245,255,
  10,222,250,236,36,61,47,159,59,51,231,35,
  250,31,240,9,202,20,230,253,3,203,34,40,
  168,252,38,44,205,12,14,166,196,63,205,200,
  55,87,251,3,151,93,226,156,182,243,208,250,
  201,63,204,217,82,80,24,225,6,93,12,48,
  15,76,80,62,78,95,168,197,102,171,170,41,
  157,69,99,70,55,104,201,11,171,139,21,2,
  163,118,236,49,217,176,178,187,61,152,230,62,
  55,54,36,65,205,216,191,50,26,153,51,17,
  168,176,170,86,40,187,31,18,49,224,96,54,
  158,156,106,64,200,212,220,181,56,57,35,255,
  20,250,66,68,70,40,72,45,74,54,240,177,
  242,197,82,225,44,255,72,82,187,172,240,165,
  239,45,100,80,64,59,172,223,38,247,105,251,
  21,241,194,42,37,186,143,48,82,87,69,173,
  200,108,252,159,45,181,10,60,67,88,0,13,
  254,25,244,28,23,106,49,26,50,201,173,58,
  229,0,95,53,15,188,227,96,38,1,201,240,
  174,91,87,40,1,50,42,220,249,35,89,195,
  58,201,183,40,69,72,152,213,227,38,172,104,
  41,106,209,153,203,107,176,179,196,163,104,108,
  203,86,83,145,201,229,195,162,46,144,189,178,
  24,188,207,95,22,206,48,222,247,254,4,37,
  180,98,3,243,163,19,48,42,195,39,65,26,
  255,4,193,78,171,91,95,54,56,14,229,79,
  244,43,194,7,192,42,228,100,183,88,228,69,
  250,61,2,200,207,169,20,57,210,249,252,210,
  82,71,171,235,168,9,205,57,175,153,157,86,
  68,255,40,67,220,78,81,91,202,163,216,201,
  94,184,95,48,186,8,76,51,222,94,49,199,
  82,212,201,96,83,110,55,200,234,176,54,222,
  20,201,164,16,248,24,223,91,47,220,33,160,
  255,2,29,156,192,4,230,180,196,149,232,101,
  165,193,74,94,40,234,29,186,164,88,211,223,
  240,102,231,52,73,44,45,38,108,165,95,179,
  77,77,231,218,65,228,19,16,191,195,52,86,
  1,165,94,92,157,175,217,252,188,73,44,161,
  44,230,230,243,70,215,209,224,13,213,228,61,
  83,171,207,67,18,38,97,222,56,171,73,59,
  211,10,213,190,73,38,208,216,188,50,184,190,
  93,214,179,91,191,85,11,92,46,239,56,59,
  12,0,3,26,174,76,255,110,38,97,253,44,
  48,3,164,178,89,47,244,37,109,254,102,252,
  54,32,158,44,97,86,90,98,255,145,105,110,
  205,38,59,41,216,51,163,185,98,220,42,92,
  22,217,186,167,255,222,144,57,77,50,48,5,
  47,56,195,156,84,9,255,53,237,163,87,38,
  5,59,43,228,167,233,163,192,214,80,107,4,
  206,98,169,160,175,56,76,204,167,50,110,64,
  170,41,232,9,254,215,0,182,45,168,88,158,
  1,26,214,73,174,215,193,103,54,45,100,37,
  172,247,37,72,68,175,79,15,222,198,71,214,
  54,61,184,251,229,15,196,37,191,199,39,245,
  55,102,198,244,17,45,56,69,86,83,246,86,
  31,93,246,69,36,0,203,2,1,254,239,233,
  59,242,220,61,10,13,154,253,79,81,217,75,
  191,33,244,206,78,208,214,79,227,250,203,153,
  244,30,46,0,48,228,182,2,25,4,183,173,
  202,217,224,16,208,163,229,40,220,43,177,58,
  180,40,61,140,162,80,42,180,90,31,227,18,
  166,184,111,132,251,130,249,73,74,180,245,208,
  61,32,185,14,232,186,174,28,8,209,208,38,
  1,151,103,194,153,152,87,169,161,49,47,69,
  155,253,91,32,173,176,173,243,86,231,245,182,
  16,32,218,26,6,44,167,41,7,68,215,26,
  32,76,88,4,226,177,84,16,203,47,205,177,
  32,236,5,83,194,192,136,31,145,31,199,197,
  22,210,244,84,215,174,136,13,218,34,251,219,
  10,157,29,47,82,5,52,1,229,30,173,160,
  177,41,235,9,153,15,13,28,156,107,37,246,
  37,231,93,66,188,2,144,45,211,31,248,253,
  56,5,215,87,77,118,59,253,169,225,240,111,
  101,195,57,65,71,200,170,244,204,193,212,72,
  75,180,18,100,73,213,91,186,55,254,146,235,
  227,24,214,21,36,121,149,96,219,251,32,247,
  99,94,201,27,191,12,250,175,37,185,5,22,
  244,203,224,188,189,53,224,16,227,44,129,27,
  204,200,22,31,154,232,235,111,189,212,40,61,
  77,105,190,158,46,238,17,239,78,88,75,59,
  207,213,100,247,221,109,149,161,220,223,30,212,
  15,210,230,70,91,32,240,58,56,35,198,62,
  94,76,159,177,89,243,71,157,17,155,174,10,
  214,241,12,68,248,172,2,228,83,214,246,249,
  244,79,239,79,24,207,224,98,86,15,111,65,
  189,40,32,74,221,8,222,252,75,41,52,167,
  167,238,253,87,224,95,67,184,198,136,92,47,
  104,172,81,17,64,236,52,181,244,219,90,230,
  75,35,92,48,199,86,26,24,240,170,252,111,
  96,35,166,83,203,25,33,15,83,174,119,107,
  187,76,241,156,86,62,22,41,56,255,114,100,
  46,60,221,8,24,66,58,36,21,171,9,239,
  93,206,14,83,213,76,151,184,73,219,102,52,
  205,176,8,5,112,13,10,91,112,68,237,171,
  154,88,5,22,183,187,252,225,162,168,13,162,
  48,252,241,216,9,88,95,230,247,47,56,219,
  198,53,10,26,60,35,9,242,0,205,229,214,
  152,22,49,69,104,40,151,69,92,230,122,42,
  246,220,35,33,105,224,62,60,220,24,189,49,
  181,10,240,80,21,222,19,91,200,203,183,89,
  36,32,176,45,7,156,249,81,218,194,200,33,
  42,244,50,209,214,177,89,194,143,71,92,152,
  88,157,178,186,40,82,96,152,4,16,198,34,
  178,248,175,208,121,214,205,85,137,221,93,223,
  55,2,227,236,184,182,222,93,81,31,111,98,
  254,216,5,239,87,209,30,152,228,22,226,144,
  99,48,175,181,110,178,47,25,145,162,210,153,
  20,42,221,161,71,216,153,182,213,204,242,252,
  37,192,217,242,173,202,193,168,35,23,43,49,
  207,26,88,212,104,84,188,172,207,70,150,175,
  24,82,255,84,235,74,165,151,96,203,7,17,
  20,197,35,156,238,174,68,183,6,203,75,41,
  174,193,245,230,203,230,50,195,28,221,54,182,
  60,206,183,49,172,89,85,205,70,30,159,199,
  87,216,15,22,30,243,161,236,15,69,180,193,
  68,197,252,159,217,28,89,82,75,10,174,104,
  195,33,189,41,193,80,255,98,234,229,96,94,
  159,153,99,184,48,49,14,89,171,173,62,192,
  239,231,156,5,211,206,247,231,48,196,21,194,
  211,148,213,109,237,238,204,183,148,196,101,85,
  220,43,52,220,76,198,104,72,214,157,185,94,
  82,192,235,177,202,244,237,90,71,45,67,213,
  32,156,189,172,32,198,65,215,241,62,173,26,
  98,83,213,7,231,214,174,50,235,240,253,160,
  250,69,14,63,71,161,48,10,33,63,215,191,
  68,181,5,48,161,54,153,24,43,69,206,213,
  37,32,39,186,213,204,77,95,179,46,211,217,
  249,9,85,51,93,60,36,163,12,189,221,18,
  252,233,22,25,235,25,22,101,233,53,167,103,
  214,4,11,219,222,151,153,197,47,193,210,6,
  50,54,1,69,9,1,208,6,154,200,173,6,
  71,235,46,244,219,18,154,250,174,44,152,21,
  172,228,239,73,60,26,248,214,169,252,9,211,
  49,80,25,184,5,77,67,19,65,73,5,35,
  103,78,40,166,10,95,100,240,233,206,164,231,
  183,217,42,75,169,89,67,84,83,222,249,103,
  166,25,160,62,56,255,4,192,192,18,94,73,
  202,221,190,170,197,31,52,192,154,213,25,66,
  211,161,39,199,104,77,174,173,237,169,98,80,
  9,44,13,167,250,16,52,101,237,44,247,57,
  213,97,35,193,80,87,87,243,198,54,74,84,
  15,254,75,239,25,42,231,27,164,41,26,229,
  22,17,240,35,244,207,209,165,197,97,35,242,
  214,248,154,79,238,167,221,148,253,231,14,25,
  180,83,173,195,210,19,53,63,82,3,55,197,
  167,249,253,8,202,250,5,7,170,22,155,47,
  226,96,104,59,240,20,249,101,60,189,179,223,
  20,99,75,13,44,99,76,19,254,224,48,208,
  226,182,252,186,41,57,215,205,41,177,101,5,
  206,84,204,187,25,54,208,100,95,159,53,155,
  49,245,219,204,67,172,72,155,93,218,97,54,
  205,253,236,77,45,23,8,154,223,3,181,252,
  179,233,182,62,12,210,165,43,157,106,7,216,
  22,27,5,168,163,152,1,224,151,153,240,233,
  193,93,53,81,250,163,248,101,246,221,195,192,
  42,206,3,12,156,239,163,220,197,160,86,17,
  82,168,213,171,0,76,19,182,3,244,98,245,
  108,45,191,10,196,66,188,239,247,87,48,100,
  59,17,179,35,69,177,234,202,77,240,227,25,
  195,92,187,95,191,114,48,7,248,231,85,204,
  138,52,42,59,30,222,205,250,208,88,38,123,
  35,6,2,16,5,0,146,112,199,14,218,194,
  88,113,149,37,227,221,252,34,9,11,68,89,
  15,1,159,106,220,224,242,245,23,52,164,207,
  60,120,161,106,195,8,252,35,83,79,40,218,
  228,34,89,65,72,152,53,224,16,206,224,238,
  12,202,84,51,219,67,53,208,181,60,16,65,
  1,36,213,171,193,189,187,41,50,74,254,194,
  154,126,179,178,30,164,145,241,65,213,10,157,
  17,254,252,33,27,214,90,124,63,217,49,246,
  235,85,4,84,97,112,94,179,193,191,160,176,
  165,240,48,83,178,20,163,17,60,163,203,56,
  81,124,27,76,75,68,200,89,211,32,170,50,
  209,72,80,134,207,94,97,39,94,165,168,211,
  193,253,139,237,177,94,207,239,159,150,241,52,
  244,80,162,166,191,203,33,120,71,145,224,43,
  49,105,88,50,137,98,226,253,52,92,168,184,
  209,199,85,188,173,99,205,8,139,177,34,73,
  5,11,156,70,8,217,53,238,249,238,92,23,
  180,246,155,253,240,77,39,64,32,210,198,243,
  13,227,232,71,15,18,12,162,81,185,150,151,
  63,3,204,2,155,156,222,184,52,243,37,161,
  211,94,45,1,39,178,211,105,76,34,101,253,
  169,184,74,95,28,57,175,95,115,26,245,91,
  217,182,170,65,229,201,105,96,208,178,237,199,
  217,159,73,191,13,243,114,5,184,67,188,112,
  226,193,191,189,44,20,234,70,79,173,118,255,
  44,18,109,159,163,167,175,226,45,148,220,97,
  61,44,35,73,21,251,171,14,8,239,181,40,
  52,220,40,122,196,32,5,117,45,166,29,181,
  159,255,96,107,83,61,250,231,57,174,221,43,
  154,94,87,188,191,209,31,71,246,36,255,11,
  145,104,60,182,89,168,237,246,9,82,150,171,
  162,111,215,192,108,136,39,108,1,118,178,226,
  240,55,55,209,210,191,88,43,71,172,202,247,
  78,228,97,178,12,208,59,29,202,238,164,25,
  70,124,177,204,57,12,76,98,5,225,77,178,
  6,28,42,103,154,218,81,49,118,87,145,161,
  48,104,202,193,226,211,235,29,179,193,208,203,
  187,49,206,78,169,245,187,226,219,237,164,210,
  142,61,105,234,182,90,254,233,235,7,81,4,
  201,104,224,213,40,8,1,118,113,26,198,211,
  79,109,246,81,174,76,191,70,166,45,100,194,
  37,171,228,174,49,188,81,10,120,198,80,217,
  26,164,109,28,41,160,86,222,30,165,192,42,
  156,8,208,191,80,15,20,83,69,62,31,43,
  201,242,18,53,236,69,39,112,177,193,168,33,
  13,121,116,221,222,228,185,32,228,61,146,172,
  220,117,8,110,188,241,40,79,11,115,33,28,
  11,4,182,54,232,212,219,52,216,217,65,64,
  75,45,18,255,160,159,167,215,137,239,138,76,
  23,171,129,7,255,251,63,210,172,126,140,218,
  124,62,82,162,169,203,171,190,228,32,145,249,
  77,71,137,198,191,84,163,32,207,1,1,27,
  245,11,231,167,51,2,117,39,170,193,213,152,
  214,241,136,116,92,73,19,5,176,210,245,218,
  186,23,248,168,140,14,122,22,248,185,154,91,
  185,176,49,124,235,135,217,230,212,173,91,24,
  230,222,186,117,240,66,56,188,73,181,231,209,
  204,235,215,80,78,182,177,212,142,226,254,235,
  178,196,50,218,137,47,90,165,243,104,45,242,
  94,12,39,111,213,81,68,142,12,64,241,143,
  210,174,142,53,236,222,40,10,30,230,159,195,
  46,167,207,93,62,191,4,69,171,16,29,156,
  195,151,2,230,78,195,216,249,155,102,71,66,
  216,88,228,242,80,223,215,134,153,205,250,154,
  21,210,171,206,21,66,42,133,175,247,55,231,
  73,14,18,102,201,149,37,157,246,171,206,139,
  205,233,226,9,160,180,207,134,88,84,62,203,
  175,210,149,215,182,211,53,20,94,244,40,150,
  225,74,248,231,55,58,44,159,87,186,199,20,
  75,13,243,78,142,86,98,228,186,84,141,202,
  167,77,130,49,167,31,99,180,79,199,48,68,
  173,226,233,253,223,157,169,64,190,67,59,171,
  30,237,232,110,66,160,232,204,19,203,132,132,
  249,253,162,203,136,90,191,6,90,62,69,17,
  233,174,185,9,42,66,219,2,197,230,156,205,
  96,174,156,64,189,44,71,177,212,21,237,170,
  235,216,8,222,13,19,242,212,236,118,48,215,
  248,185,154,123,189,41,228,155,220,175,23,237,
  74,10,32,17,242,0,94,51,198,250,253,254,
  35,197,254,251,216,7,94,229,30,102,227,168,
  249,220,62,209,247,229,89,86,225,45,17,249,
  22,52,67,191,233,71,71,157,93,34,245,131,
  78,150,60,251,57,248,77,205,8,85,222,218,
  35,201,46,54,194,214,48,79,198,209,180,56,
  3,185,168,217,4,176,113,171,182,175,90,197,
  216,189,147,4,205,187,66,154,38,198,207,145,
  101,80,132,109,163,158,70,83,90,43,92,196,
  71,247,6,27,42,251,236,161,73,180,22,204,
  74,219,137,28,3,233,216,198,91,116,7,180,
  240,26,226,70,3,85,176,148,71,4,165,145,
  107,69,144,112,245,227,1,186,252,221,243,63,
  253,131,44,174,87,246,70,39,153,168,79,82,
  113,7,179,217,212,11,120,91,173,171,203,240,
  64,248,42,107,5,237,165,185,168,177,232,68,
  192,198,243,83,10,129,69,253,215,221,164,133,
  113,159,32,251,19,86,76,78,49,93,221,83,
  234,60,99,42,161,197,233,58,29,60,187,94,
  58,210,42,73,65,90,209,48,246,245,159,198,
  228,49,72,226,239,193,161,8,89,224,19,201,
  60,33,71,154,191,97,141,39,231,12,7,58,
  255,81,245,171,212,233,230,17,123,212,89,236,
  138,30,214,103,1,248,207,254,175,238,172,71,
  252,88,23,230,90,21,20,204,65,247,215,54,
  46,199,80,239,93,255,53,205,90,176,99,209,
  160,225,24,27,116,110,75,163,211,69,4,49,
  139,173,226,155,42,11,228,225,63,138,114,242,
  249,85,78,91,52,235,142,205,203,53,105,99,
  27,254,38,203,25,201,74,186,203,194,74,185,
  5,241,66,64,54,83,254,62,218,26,78,10,
  65,174,203,204,237,15,232,59,203,233,241,252,
  13,222,6,33,42,250,2,236,147,56,210,252,
  250,53,88,180,205,190,174,174,178,11,165,250,
  12,183,63,176,227,214,99,201,7,166,18,20,
  30,150,197,204,231,164,188,175,243,195,251,202,
  180,215,15,65,2,171,56,155,81,251,218,34,
  88,255,246,208,221,234,197,179,221,89,210,171,
  84,159,253,61,50,179,250,93,70,161,108,207,
  127,241,159,51,8,167,35,37,72,17,97,137,
  91,225,206,178,254,206,18,237,58,180,210,73,
  103,5,229,198,177,185,197,39,243,225,198,188,
  180,0,175,19,67,62,118,163,34,1,191,236,
  223,200,61,175,238,182,187,251,193,32,30,67,
  3,187,74,21,44,196,33,241,255,91,15,218,
  211,253,219,179,214,152,70,246,104,200,201,80,
  233,226,40,207,166,213,248,199,194,244,3,64,
  32,208,150,229,175,43,161,154,233,220,83,189,
  254,15,209,43,252,93,37,176,202,249,170,47,
  102,219,240,96,201,192,30,4,244,224,94,62,
  15,23,76,117,19,167,154,19,16,53,28,67,
  170,215,195,56,15,186,11,5,103,41,24,182,
  184,87,238,199,61,206,55,23,206,73,42,19,
  4,164,244,194,165,210,13,178,185,32,39,73,
  251,46,90,28,29,249,57,17,222,220,74,106,
  39,174,73,6,142,181,181,74,189,117,72,95,
  9,24,205,70,217,67,226,213,207,25,196,244,
  34,154,20,167,200,94,7,3,18,166,89,30,
  229,171,25,190,147,96,91,90,152,176,92,39,
  151,240,39,225,8,203,143,95,197,99,134,95,
  153,21,245,202,216,82,243,7,11,63,8,219,
  29,86,98,37,88,49,177,185,177,75,66,54,
  176,59,7,20,231,30,182,94,181,4,66,41,
  68,184,74,197,147,83,78,172,81,70,47,228,
  201,155,94,239,255,88,70,247,239,112,225,43,
  240,177,53,104,246,56,17,246,99,90,197,162,
  86,173,171,217,194,104,201,159,238,248,142,9,
  33,248,139,195,167,78,14,43,53,209,251,5,
  1,87,207,189,238,78,53,51,67,82,241,83,
  200,19,87,96,184,221,180,20,239,88,74,26,
  19,20,61,31,181,72,32,15,104,19,20,211,
  46,13,107,35,34,72,238,20,20,39,192,34,
  86,172,80,173,225,46,95,231,17,230,39,23,
  80,50,248,172,190,3,30,236,58,201,94,237,
  92,43,10,183,166,21,100,46,242,231,223,228,
  163,217,110,30,1,228,3,160,252,34,159,29,
  191,32,167,14,102,24,207,21,68,251,157,2,
  66,70,247,157,191,237,187,34,107,152,75,255,
  95,227,69,152,101,159,59,105,40,213,75,71,
  150,74,25,203,199,96,195,173,42,198,8,50,
  99,165,51,237,20,93,198,22,200,226,101,92,
  50,4,205,243,72,200,149,172,173,208,162,202,
  85,198,35,160,251,70,251,218,197,254,0,245,
  228,164,173,245,12,30,176,159,26,19,169,0,
  65,242,27,74,90,238,184,174,73,65,101,103,
  188,71,37,241,89,228,191,179,163,98,201,174,
  233,50,77,167,0,76,189,209,88,10,54,160,
  23,61,198,194,104,80,63,235,63,236,228,29,
  58,171,52,27,27,167,21,67,36,152,185,18,
  237,245,208,86,95,211,34,196,64,74,14,250,
  154,28,100,61,191,220,200,176,20,234,29,79,
  146,69,216,49,168,215,74,213,73,88,220,72,
  242,105,76,47,42,166,228,7,29,173,221,79,
  208,52,217,231,243,245,85,5,93,239,182,241,
  155,238,76,28,54,84,42,240,192,19,54,241,
  86,14,158,208,191,71,197,85,20,155,74,244,
  229,168,241,53,40,248,160,193,252,53,53,254,
  50,226,226,193,16,97,52,203,67,186,177,103,
  247,51,170,32,166,29,69,204,16,92,12,13,
  194,196,20,178,191,94,160,20,95,95,76,179,
  197,182,199,237,64,72,3,10,164,248,36,17,
  150,94,85,197,236,237,237,190,246,15,208,43,
  62,23,94,232,77,255,189,20,194,223,32,91,
  148,70,171,54,35,207,196,69,33,155,195,208,
  24,182,180,239,76,201,5,44,248,215,173,91,
  8,99,183,179,210,242,98,191,64,52,165,225,
  74,76,195,38,217,184,241,3,252,242,84,75,
  202,196,42,204,175,88,203,69,61,170,0,62,
  219,161,214,73,64,185,69,77,245,242,242,96,
  85,238,39,213,42,159,227,193,170,212,47,197,
  239,237,161,182,167,249,0,240,158,230,96,254,
  42,83,158,80,61,47,230,183,83,63,54,71,
  254,188,157,147,224,78,161,249,13,208,59,53,
  161,197,185,23,238,192,91,49,48,3,41,220,
  150,20,76,240,230,189,209,12,211,242,162,221,
  54,3,240,198,217,40,32,232,250,233,100,97,
  81,58,61,148,104,198,37,188,87,196,88,235,
  249,236,34,216,180,30,161,96,91,103,147,64,
  193,112,187,233,59,57,72,22,176,161,46,188,
  163,215,217,33,85,190,232,125,13,166,76,142,
  118,5,24,35,57,42,120,225,65,251,46,3,
  213,212,155,149,57,26,186,186,239,202,186,64,
  75,104,160,78,223,10,4,249,144,188,52,4,
  177,250,200,7,184,214,210,32,218,16,25,155,
  60,68,137,200,34,255,63,88,41,8,195,161,
  2,185,241,104,20,100,199,85,73,211,234,253,
  99,180,184,83,217,178,64,40,42,217,195,22,
  192,31,175,173,2,169,31,180,137,51,244,105,
  255,27,61,59,214,187,178,219,66,94,39,201,
  38,121,2,177,185,191,10,111,209,167,55,23,
  225,35,138,116,201,214,204,108,158,11,56,72,
  167,216,71,165,70,102,86,51,200,78,179,160,
  227,243,140,161,251,221,59,191,215,211,92,15,
  91,213,23,199,2,206,188,35,193,220,179,73,
  215,36,30,225,96,76,0,194,66,99,93,76,
  3,37,98,228,195,70,249,185,67,179,229,169,
  14,9,185,38,30,225,41,202,96,208,205,13,
  88,200,55,78,100,178,86,108,87,50,199,251,
  221,119,96,151,53,221,175,192,208,155,202,14,
  214,221,200,53,40,220,8,171,170,26,82,107,
  61,204,192,71,211,141,219,41,16,255,68,47,
  2,57,220,20,199,228,189,163,50,27,21,4,
  92,30,11,244,250,92,24,217,68,17,169,107,
  208,55,12,233,36,238,60,83,80,0,165,167,
  218,33,75,162,196,15,52,178,160,171,106,158,
  211,90,154,183,60,218,43,223,194,47,80,12,
  164,127,254,1,140,39,5,33,49,111,223,102,
  227,244,61,55,78,166,121,220,77,227,101,118,
  43,60,10,29,6,245,164,185,33,254,49,81,
  100,7,162,246,35,41,207,113,228,86,92,230,
  170,9,76,15,48,108,188,211,32,254,6,228,
  167,66,114,140,8,193,75,58,202,142,241,120,
  184,94,17,78,3,181,55,64,203,133,5,14,
  220,161,248,192,151,181,33,86,71,252,146,72,
  26,245,180,208,10,183,255,98,222,255,144,173,
  67,86,14,29,180,252,227,55,167,34,197,201,
  198,59,223,143,56,221,240,29,29,81,178,112,
  210,72,96,9,48,209,236,231,104,96,53,220,
  242,55,227,58,255,60,228,215,19,1,199,251,
  240,108,20,237,218,47,106,235,213,66,237,37,
  88,179,64,179,54,4,43,215,15,52,190,59,
  181,208,232,72,220,44,97,63,25,46,147,70,
  172,169,195,183,228,47,234,107,55,57,20,242,
  103,59,218,134,66,158,0,109,17,95,92,224,
  164,171,73,40,50,36,246,194,253,222,31,22,
  209,187,21,50,91,200,26,194,168,164,87,66,
  16,75,158,96,227,192,90,124,172,73,164,93,
  0,44,93,115,141,51,239,81,207,182,0,150,
  119,34,27,104,176,49,234,156,80,244,179,212,
  77,172,199,86,154,50,253,231,33,54,59,191,
  200,209,205,247,220,20,2,204,0,166,202,55,
  187,228,177,42,46,206,46,225,64,164,235,85,
  122,81,6,220,179,59,220,38,77,114,151,217,
  101,216,165,78,70,150,83,159,150,113,27,58,
  35,246,152,169,151,167,75,27,3,172,78,88,
  71,177,177,209,242,64,118,38,230,4,168,184,
  125,248,35,31,140,9,90,3,144,24,237,231,
  17,192,43,74,149,41,10,138,4,70,187,8,
  93,17,50,211,239,193,38,58,234,163,227,169,
  103,77,82,219,154,166,116,198,217,107,194,81,
  213,137,212,170,56,246,69,130,88,190,76,235,
  66,10,13,90,185,20,230,165,234,197,235,146,
  50,52,84,56,215,183,225,140,13,198,238,91,
  98,231,62,64,221,176,79,55,21,14,199,133,
  227,80,182,92,24,3,95,15,167,33,29,214,
  230,238,34,3,242,8,242,137,193,48,215,154,
  108,47,198,7,236,5,196,17,170,174,54,233,
  78,39,160,207,35,73,255,236,247,14,67,80,
  250,242,41,221,228,28,39,66,179,109,212,40,
  109,89,56,99,176,140,169,70,142,67,201,65,
  197,86,193,193,224,158,77,33,161,105,201,133,
  34,26,185,72,226,235,174,249,18,244,230,200,
  35,37,79,193,193,143,24,3,11,195,86,40,
  42,50,151,254,140,25,235,132,149,11,131,190,
  183,62,157,49,95,140,11,254,53,102,26,193,
  173,196,241,95,180,221,161,91,144,197,182,193,
  77,82,7,50,84,31,55,57,209,28,43,215,
  86,194,240,200,228,219,163,206,70,0,153,4,
  226,177,66,251,133,241,169,9,16,64,64,76,
  250,181,192,36,247,242,111,210,170,9,179,149,
  93,70,233,6,12,18,85,60,33,167,227,189,
  60,92,177,35,244,237,169,254,247,109,85,150,
  250,42,151,87,13,251,49,0,154,214,130,233,
  23,52,19,124,211,206,206,188,9,32,187,207,
  247,159,249,53,2,215,196,139,221,246,138,52,
  75,38,6,18,238,216,93,81,24,165,12,7,
  163,13,181,183,243,153,169,172,58,105,174,232,
  37,143,169,66,253,159,70,236,58,37,181,199,
  212,7,152,244,221,168,82,203,91,73,160,205,
  196,161,169,50,149,151,124,243,238,15,134,144,
  63,36,191,13,180,203,244,10,229,43,176,29,
  194,140,168,124,63,233,196,235,73,215,145,82,
  89,1,173,96,203,231,239,14,232,96,15,225,
  6,3,224,250,222,19,247,214,89,124,187,29,
  184,170,231,46,219,205,173,139,162,59,199,64,
  9,47,37,188,231,81,77,43,209,245,33,58,
  224,233,152,94,217,215,200,55,22,72,6,158,
  63,2,226,192,218,138,238,132,219,201,218,24,
  116,148,12,27,199,155,104,255,215,186,161,241,
  118,86,250,191,251,164,16,193,227,72,147,28,
  179,90,244,99,45,241,228,47,38,204,29,148,
  194,5,172,146,63,25,124,21,15,47,163,34,
  121,160,180,136,201,70,46,19,202,164,22,71,
  50,58,202,142,54,195,74,251,93,58,86,184,
  50,187,186,188,172,196,115,39,177,82,150,225,
  210,169,245,51,39,63,196,255,105,31,197,210,
  46,56,107,234,165,215,90,16,226,60,236,226,
  110,66,45,7,191,166,85,186,98,2,32,254,
  231,193,43,5,67,244,92,231,32,77,219,225,
  11,228,81,64,197,224,108,144,177,34,156,75,
  93,80,198,50,206,195,18,72,205,228,224,92,
  216,89,209,11,7,202,68,159,172,96,25,208,
  84,220,110,31,158,59,216,213,6,245,235,72,
  195,94,201,208,192,20,11,21,177,47,167,27,
  219,161,95,215,219,3,63,159,183,32,49,4,
  57,216,47,253,66,25,172,27,27,27,57,67,
  189,12,59,71,147,28,198,40,77,217,220,19,
  179,14,181,91,181,23,147,174,209,201,165,199,
  0,214,208,172,91,17,68,183,29,58,76,46,
  197,218,241,185,202,224,198,183,187,245,6,232,
  78,223,7,95,47,248,135,229,255,27,10,209,
  211,243,195,222,50,227,215,209,23,193,26,115,
  1,218,253,12,92,224,1,70,229,15,3,168,
  201,51,147,204,240,171,252,1,172,97,78,33,
  222,61,200,156,168,211,195,159,222,207,241,4,
  167,160,191,65,208,235,39,238,234,217,182,252,
  252,166,75,26,142,85,224,217,247,224,232,13,
  56,232,172,243,78,188,209,240,182,245,203,4,
  246,184,144,68,182,49,214,163,57,64,72,198,
  66,84,25,179,42,115,164,1,51,9,238,59,
  161,18,174,148,153,183,175,255,129,65,101,218,
  16,24,215,177,212,238,210,143,168,218,10,235,
  112,14,140,142,3,166,17,15,46,61,186,213,
  221,157,221,207,240,83,207,237,23,237,222,250,
  19,50,181,246,176,91,179,252,209,20,70,201,
  174,206,61,220,99,61,181,1,243,38,179,14,
  224,2,238,169,88,86,166,86,57,226,213,37,
  225,202,235,188,72,0,118,208,190,142,94,178,
  206,39,11,2,179,198,105,235,78,192,59,214,
  71,23,210,169,201,37,48,245,193,248,108,83,
  13,45,187,39,240,208,75,194,147,53,10,214,
  52,54,253,185,95,248,109,48,48,76,46,185,
  169,253,218,187,241,17,51,80,4,177,42,47,
  18,62,80,183,92,39,234,239,208,239,89,159,
  27,36,202,3,177,199,17,177,193,35,100,204,
  99,76,89,19,29,201,240,48,208,213,223,143,
  228,17,64,146,125,157,15,218,157,81,109,224,
  186,249,3,159,94,227,36,246,27,22,84,39,
  235,242,182,190,75,44,47,89,84,173,236,77,
  214,100,1,147,174,103,94,19,100,233,169,221,
  147,59,176,41,244,226,30,109,75,44,105,17,
  63,70,161,218,233,54,197,246,243,149,58,9,
  237,69,248,28,108,27,50,245,45,201,239,48,
  93,66,114,179,199,66,193,88,201,78,226,195,
  72,174,208,43,229,163,202,3,232,28,185,37,
  19,0,213,16,17,29,89,1,100,218,93,46,
  159,81,184,225,179,85,148,111,212,44,39,14,
  23,29,74,196,113,29,61,248,108,208,214,202,
  242,251,213,217,163,110,206,4,88,174,4,204,
  66,37,21,181,111,250,86,161,71,154,86,205,
  240,167,25,246,35,111,155,238,245,239,252,68,
  46,39,232,78,236,19,191,64,74,88,83,224,
  154,11,34,202,222,88,250,85,172,77,106,173,
  0,179,84,80,110,185,194,188,235,15,183,94,
  244,214,0,253,31,202,43,88,249,205,181,86,
  244,196,29,7,77,228,75,161,202,20,251,63,
  255,96,171,68,26,251,153,69,27,52,66,55,
  66,234,109,75,206,93,61,183,83,75,63,21,
  158,31,165,242,25,228,182,185,177,155,29,44,
  199,72,230,11,91,104,230,181,224,210,103,255,
  69,166,173,12,186,9,27,173,163,89,25,226,
  171,34,73,48,216,237,34,17,162,156,45,114,
  55,188,244,243,13,236,91,70,184,236,165,182,
  181,207,77,178,9,87,226,95,63,90,190,162,
  12,232,226,206,13,55,186,186,29,203,73,207,
  253,164,85,83,235,71,85,177,242,214,89,202,
  188,207,164,231,5,36,75,35,202,176,69,49,
  8,236,13,154,239,91,161,21,61,78,25,105,
  161,24,210,33,240,215,235,75,202,188,201,231,
  209,69,90,83,69,45,73,253,114,169,94,41,
  181,212,74,236,112,33,179,82,83,230,99,65,
  249,67,240,47,70,217,239,67,244,61,225,20,
  69,97,87,154,248,225,86,254,76,10,193,169,
  50,12,64,33,190,2,157,3,31,30,87,27,
  34,85,189,57,213,76,66,183,228,224,211,226,
  183,224,167,255,61,106,251,223,238,46,18,179,
  149,198,1,208,215,245,83,48,88,234,174,182,
  28,21,186,60,0,253,17,100,227,215,109,49,
  248,91,166,67,162,41,213,181,224,215,7,62,
  246,195,32,67,55,67,184,252,162,149,56,15,
  167,77,252,160,81,95,155,72,219,231,85,186,
  166,95,37,170,13,207,165,87,106,15,72,247,
  29,203,97,201,48,46,231,87,49,144,78,178,
  4,56,49,175,166,243,230,111,235,153,60,174,
  72,85,72,45,254,166,236,229,114,162,22,6,
  187,217,7,250,39,109,27,8,62,162,112,239,
  83,36,234,216,15,12,90,244,217,80,232,221,
  242,77,234,3,202,194,157,88,243,45,19,167,
  175,208,17,236,59,54,26,234,166,65,96,158,
  243,12,2,155,203,44,246,103,229,212,175,189,
  138,184,12,187,192,200,233,191,64,15,189,114,
  204,181,42,10,223,113,152,250,210,77,14,59,
  166,243,165,232,157,248,168,247,187,20,91,76,
  212,91,169,87,212,204,18,229,150,77,39,105,
  182,27,214,216,5,237,218,171,236,83,240,74,
  196,209,79,94,58,61,170,249,164,224,222,180,
  248,212,1,197,127,164,112,109,176,66,183,234,
  252,76,53,4,214,249,116,248,213,144,216,80,
  47,197,216,0,175,211,102,67,16,1,78,69,
  161,100,217,185,163,186,74,232,71,197,211,175,
  5,252,161,192,178,218,187,219,139,14,241,199,
  94,90,216,187,196,105,194,175,75,180,154,254,
  48,89,255,18,74,207,3,173,143,67,46,70,
  215,115,237,215,26,243,156,20,238,173,80,250,
  169,246,23,66,175,28,57,176,14,25,50,4,
  154,238,250,245,86,37,164,2,190,232,65,67,
  62,232,92,200,101,98,179,61,105,235,26,172,
  14,223,244,251,153,203,186,64,64,247,77,238,
  4,222,213,16,223,160,171,188,206,96,15,182,
  1,209,46,189,79,38,184,243,249,209,253,23,
  4,200,88,251,215,216,6,86,14,155,189,34,
  85,21,214,85,251,220,79,195,23,249,107,9,
  14,180,234,230,176,184,82,4,219,54,82,220,
  146,108,170,37,202,35,58,83,78,62,150,98,
  207,171,92,28,28,231,75,26,215,224,190,181,
  52,116,23,196,9,204,98,0,61,61,177,199,
  210,234,186,198,235,175,250,9,66,212,45,80,
  210,103,176,22,15,80,199,69,23,166,234,62,
  59,215,81,159,181,24,90,166,245,8,173,236,
  222,8,159,13,141,210,188,181,201,254,31,107,
  178,217,146,53,219,101,213,122,23,236,58,50,
  247,163,227,205,250,205,168,182,69,61,194,12,
  65,27,21,232,248,71,98,57,95,174,194,224,
  50,236,96,9,224,190,253,37,173,253,234,117,
  63,85,3,11,95,18,183,126,53,167,45,169,
  238,67,197,251,84,176,175,70,208,101,65,38,
  108,181,28,83,196,26,37,180,154,17,45,11,
  218,82,152,44,185,79,215,87,200,15,253,195,
  12,95,213,27,28,70,186,90,7,223,22,193,
  161,108,67,203,234,44,245,67,241,150,80,80,
  22,37,232,161,253,125,186,31,182,37,233,220,
  198,202,28,51,109,117,241,221,247,212,4,226,
  185,254,220,221,208,8,81,198,43,82,158,164,
  177,194,27,55,103,208,165,16,82,211,180,223,
  204,1,77,247,42,9,7,107,67,17,210,239,
  46,218,101,56,198,106,57,198,82,195,56,229,
  177,0,170,91,176,241,83,43,16,0,112,234,
  152,210,209,142,51,247,223,89,241,50,14,198,
  57,171,170,46,50,133,215,166,40,217,187,53,
  195,3,235,12,138,190,17,175,239,96,219,178,
  220,18,210,255,139,251,193,140,134,244,243,130,
  112,191,202,207,68,217,64,141,253,180,40,183,
  6,190,133,67,240,234,10,27,13,182,207,200,
  77,134,251,175,152,248,208,149,215,246,217,48,
  4,78,200,209,167,210,71,208,1,202,165,160,
  254,187,246,247,191,82,50,169,153,112,54,10,
  18,140,148,46,212,132,21,148,216,243,201,226,
  209,49,12,171,143,8,127,54,1,50,199,242,
  172,217,80,239,250,76,119,61,141,88,51,0,
  105,52,208,79,163,169,5,59,129,57,207,5,
  205,24,174,253,197,184,245,164,194,22,170,193,
  13,189,41,92,36,212,180,236,30,206,242,197,
  193,183,155,48,141,10,22,213,251,233,246,56,
  197,207,76,243,197,233,113,90,83,243,83,17,
  204,181,52,53,86,23,76,3,84,210,58,217,
  8,34,2,95,135,133,50,249,62,190,204,178,
  5,197,14,54,141,9,121,15,24,226,23,226,
  175,82,48,22,40,215,252,154,3,209,58,174,
  243,157,143,6,10,246,85,134,231,92,250,85,
  31,239,10,212,80,132,79,71,185,104,218,199,
  214,46,183,49,240,164,35,35,147,246,235,253,
  210,137,248,233,181,137,40,75,177,26,27,10,
  103,207,88,68,45,19,59,198,167,120,220,35,
  103,64,222,50,9,230,125,132,55,16,247,139,
  212,162,24,235,24,38,27,172,14,115,51,238,
  122,217,65,225,35,247,187,252,140,46,160,85,
  114,206,89,101,235,130,228,230,28,102,219,178,
  248,161,183,187,153,44,199,153,157,36,193,130,
  204,51,46,239,208,166,13,80,252,174,166,23,
  102,64,85,218,8,172,89,238,142,4,14,3,
  114,89,188,169,158,86,115,208,223,35,58,243,
  185,146,89,83,21,213,15,242,160,182,149,33,
  86,141,196,252,230,67,195,77,228,35,248,244,
  102,47,49,220,49,165,183,173,137,84,59,135,
  19,89,184,2,189,90,211,199,210,243,21,156,
  185,18,180,61,211,241,191,20,147,34,30,22,
  104,241,202,116,70,148,42,80,238,188,87,248,
  104,199,180,179,48,63,94,178,168,71,40,170,
  200,228,242,188,69,155,103,13,134,42,16,90,
  16,132,40,25,201,226,181,215,169,21,75,149,
  93,49,23,28,158,66,125,69,26,165,149,60,
  64,153,208,17,158,235,20,211,212,12,239,58,
  65,144,89,79,204,8,244,49,187,252,50,158,
  206,253,165,30,26,211,247,50,23,189,32,80,
  78,232,200,41,197,231,74,67,72,185,38,74,
  0,159,241,194,132,226,38,240,51,116,190,2,
  102,177,169,183,85,245,30,32,243,230,244,229,
  85,186,172,75,212,76,242,153,226,53,224,60,
  170,153,94,139,41,110,166,199,193,228,122,224,
  92,82,23,180,63,149,183,103,122,32,68,11,
  70,108,9,9,212,172,46,75,175,68,113,174,
  211,234,21,233,182,171,171,46,197,96,49,14,
  34,18,11,89,217,11,71,160,96,204,228,169,
  201,252,147,106,67,67,50,179,49,210,245,47,
  23,150,240,118,130,195,86,22,226,207,54,164,
  3,215,142,247,91,32,164,92,198,64,231,241,
  17,90,186,83,164,85,52,166,34,33,41,23,
  19,108,59,233,171,204,148,60,73,154,218,182,
  46,61,238,35,52,56,183,32,8,24,69,140,
  139,201,211,7,218,202,9,81,158,255,221,2,
  190,42,150,83,37,230,86,187,8,85,32,223,
  63,214,236,87,144,92,119,43,140,209,251,82,
  63,92,48,231,41,246,50,65,37,65,207,61,
  159,179,23,71,178,16,19,67,5,33,158,234,
  220,85,154,19,20,178,97,40,250,79,64,21,
  52,39,88,119,237,214,179,20,41,32,188,16,
  60,253,138,254,6,177,37,161,8,173,46,218,
  53,76,12,245,5,165,171,173,111,105,68,79,
  89,158,56,15,149,115,94,105,210,199,174,231,
  249,162,227,30,66,229,65,226,200,168,6,222,
  19,181,85,196,19,188,184,22,21,163,213,240,
  93,178,150,161,228,53,250,27,146,216,71,51,
  238,222,66,155,17,169,200,181,29,186,175,248,
  102,107,188,87,246,72,20,215,158,215,98,108,
  109,32,188,182,31,228,249,159,246,178,165,88,
  50,158,97,151,6,53,210,201,107,243,252,24,
  17,178,187,59,241,10,52,167,195,47,45,187,
  48,63,102,83,110,52,225,28,7,207,112,179,
  211,188,81,42,192,155,213,152,29,78,181,192,
  225,71,58,85,15,33,175,113,57,110,212,208,
  46,254,247,22,81,27,59,207,100,41,49,174,
  52,192,192,180,26,244,54,25,54,55,62,212,
  223,47,252,237,240,175,171,95,116,25,172,10,
  199,72,223,76,108,204,208,248,105,89,55,98,
  149,190,124,108,182,110,156,183,88,80,179,227,
  221,70,244,57,20,18,12,21,245,157,109,19,
  62,103,217,12,209,70,223,175,20,242,188,217,
  185,243,33,189,212,216,255,186,182,205,101,153,
  220,244,194,86,35,226,207,10,29,228,232,156,
  250,210,53,160,16,248,105,231,57,236,24,2,
  80,199,197,93,37,195,85,74,7,227,229,101,
  82,11,94,52,196,210,197,233,61,63,21,250,
  18,171,76,76,1,215,81,96,208,3,224,165,
  250,240,167,164,207,77,222,102,171,157,82,168,
  52,228,58,40,178,70,196,44,20,92,95,109,
  184,1,205,104,14,223,166,92,227,25,17,187,
  228,32,86,29,77,225,169,188,43,163,2,65,
  113,113,78,196,127,116,185,96,17,165,61,188,
  192,217,46,204,68,73,152,202,217,56,21,38,
  235,202,6,20,246,195,175,65,49,192,97,145,
  207,76,199,55,225,163,214,79,81,213,157,59,
  170,207,245,58,156,192,63,39,12,96,220,78,
  76,4,69,160,55,150,163,45,71,58,32,223,
  61,247,42,11,250,179,210,49,36,214,85,65,
  156,193,165,107,183,147,176,27,252,176,60,148,
  182,97,238,242,170,74,9,24,186,15,13,84,
  25,48,209,39,195,243,170,174,240,64,225,29,
  8,102,179,168,197,84,164,79,152,12,47,53,
  205,250,66,222,203,152,55,143,169,208,47,228,
  83,209,56,82,5,156,183,57,104,204,198,152,
  50,149,50,170,10,171,92,156,57,202,54,6,
  47,252,43,68,223,156,241,12,232,226,223,25,
  67,212,217,63,152,31,234,0,162,27,94,242,
  49,217,201,248,194,254,103,168,146,15,214,194,
  181,85,40,31,202,67,203,160,42,26,51,219,
  223,89,60,248,145,145,82,72,94,68,89,2,
  33,75,82,220,27,208,75,176,36,82,191,23,
  63,220,3,235,3,19,45,154,77,179,178,21,
  60,187,253,88,65,34,203,240,225,174,93,28,
  230,101,81,110,204,205,83,187,75,165,52,53,
  149,211,241,87,179,167,41,163,196,100,173,60,
  254,207,146,41,16,97,188,163,82,227,28,165,
  71,174,170,17,76,153,152,74,171,32,75,208,
  169,72,205,17,231,33,101,56,66,42,199,1,
  35,94,170,218,176,166,184,194,103,241,188,105,
  175,234,10,204,228,35,9,166,195,44,146,72,
  237,152,70,217,243,67,250,194,146,228,77,15,
  159,218,237,19,107,49,95,228,41,12,206,191,
  169,148,171,153,54,214,149,163,46,232,30,226,
  152,20,206,59,150,203,76,73,77,160,181,169,
  92,162,93,59,19,215,238,41,13,193,26,190,
  108,51,65,168,153,26,64,81,54,102,89,32,
  222,17,182,13,54,78,227,184,227,38,53,172,
  7,235,80,15,250,169,162,93,80,89,208,169,
  6,7,61,211,38,206,242,147,16,255,249,103,
  17,198,168,202,221,30,208,165,11,9,48,219,
  10,220,9,87,52,248,66,105,70,212,33,91,
  248,17,187,91,210,25,221,89,46,71,172,200,
  202,41,197,222,51,8,95,223,232,193,12,23,
  86,232,77,210,24,229,233,61,195,2,0,221,
  249,144,1,216,224,242,0,242,246,1,243,234,
  22,170,97,95,20,207,231,233,240,38,18,220,
  73,41,41,111,78,233,169,176,4,39,1,249,
  74,144,100,231,99,255,101,64,6,226,43,241,
  242,151,61,240,68,192,32,172,55,245,79,198,
  195,70,3,237,85,2,63,199,168,25,219,210,
  95,40,23,255,18,187,229,77,81,107,22,17,
  173,36,32,157,252,171,90,65,143,215,77,17,
  66,172,49,3,2,35,218,14,185,133,199,210,
  232,21,16,64,99,26,168,247,250,186,97,181,
  28,168,154,10,72,47,218,60,101,80,76,166,
  0,46,200,189,163,58,174,212,60,250,101,248,
  47,195,69,91,242,21,174,73,117,118,155,247,
  167,55,1,187,142,78,50,37,26,220,248,246,
  40,207,197,185,166,165,106,208,76,237,62,47,
  180,19,64,15,84,155,23,251,208,0,187,17,
  55,211,244,204,192,132,249,14,180,51,254,49,
  98,5,75,140,54,6,119,178,180,153,155,214,
  159,65,18,235,13,80,237,7,246,9,162,83,
  51,190,185,247,149,12,33,152,170,235,144,164,
  142,14,40,169,54,219,88,82,87,113,59,232,
  225,90,199,113,50,76,185,215,103,202,195,194,
  31,249,29,42,218,226,27,209,154,23,201,157,
  29,188,221,105,36,165,215,221,238,99,96,207,
  77,19,40,58,36,189,47,143,191,118,90,254,
  179,184,212,35,151,96,169,35,11,7,176,229,
  211,225,187,22,42,76,28,75,190,149,210,62,
  189,51,150,165,165,246,129,156,246,77,30,191,
  222,199,9,249,206,98,248,93,185,173,23,55,
  192,231,65,60,39,74,240,206,167,85,32,54,
  199,83,223,116,185,44,81,175,88,241,5,173,
  7,229,74,8,77,88,191,89,161,170,181,212,
  181,52,252,81,241,19,236,17,159,224,239,19,
  32,60,255,102,228,222,29,74,249,105,240,117,
  202,93,238,239,3,113,23,10,4,228,168,37,
  231,54,71,250,176,250,152,192,217,57,172,119,
  149,84,205,138,1,244,95,215,14,19,230,110,
  209,244,215,17,12,169,178,244,197,9,249,189,
  182,252,71,185,182,225,17,13,43,49,241,8,
  21,9,159,184,39,29,93,182,214,146,84,200,
  175,173,29,161,68,108,157,174,32,168,202,22,
  239,192,240,145,239,167,41,40,16,151,233,185,
  164,179,35,64,207,96,193,165,90,229,94,192,
  84,22,46,160,76,100,72,228,251,226,81,98,
  2,237,107,33,235,219,5,20,254,207,101,48,
  78,155,89,14,63,228,228,90,158,73,38,223,
  249,5,151,62,85,242,5,50,15,47,246,81,
  5,94,109,157,26,31,140,209,241,235,93,218,
  67,197,69,217,107,245,182,181,105,169,164,67,
  138,27,178,149,42,205,253,196,242,210,110,43,
  215,23,238,245,175,240,232,105,3,210,39,29,
  245,9,47,199,95,137,246,72,25,201,111,197,
  195,196,204,56,88,242,74,203,154,234,81,230,
  64,223,178,42,94,9,223,12,35,0,119,12,
  248,100,94,222,35,57,238,178,215,17,193,42,
  254,7,63,21,67,248,97,50,122,46,187,64,
  33,238,42,30,20,174,240,246,80,223,16,40,
  23,98,66,3,81,238,165,65,230,179,85,206,
  141,35,177,201,214,184,50,214,31,190,240,29,
  75,82,40,160,13,235,79,221,211,217,217,197,
  215,6,223,193,156,168,177,211,252,21,62,189,
  19,247,191,254,158,21,73,219,53,49,164,69,
  13,75,192,58,5,177,215,3,84,41,55,230,
  96,78,158,97,11,224,52,68,41,91,17,219,
  53,154,188,20,64,78,157,181,84,249,209,230,
  216,49,3,150,187,87,190,183,220,90,5,247,
  252,207,3,158,187,247,49,175,188,239,219,40,
  18,98,38,206,59,16,164,204,30,4,193,31,
  190,48,191,61,59,178,180,178,9,175,68,174,
  165,53,94,21,39,253,249,207,179,81,68,203,
  231,59,188,242,23,74,80,181,166,155,18,62,
  187,75,190,254,250,227,232,91,8,247,255,189,
  174,8,22,12,69,13,206,56,72,66,160,79,
  79,217,161,33,240,107,245,19,44,189,18,221,
  210,43,179,207,165,159,224,61,69,204,199,96,
  69,212,226,34,158,53,75,31,157,34,35,255,
  26,248,23,93,225,173,154,211,25,70,96,55,
  240,183,240,72,31,164,205,84,206,199,73,180,
  217,29,217,195,91,78,203,103,204,98,63,91,
  193,184,184,6,162,244,53,77,162,14,200,85,
  74,241,231,165,41,27,73,196,158,227,35,180,
  152,244,40,83,64,232,43,244,202,252,27,217,
  207,57,21,206,215,156,38,88,189,168,158,83,
  165,241,170,193,185,57,235,67,36,48,99,178,
  203,39,213,31,30,102,15,2,191,187,219,9,
  255,204,180,55,82,45,77,23,245,95,5,104,
  76,233,100,94,191,228,210,24,154,27,238,30,
  103,168,239,62,93,66,14,102,213,7,172,185,
  182,175,59,190,92,175,72,33,189,46,9,12,
  44,205,247,216,219,181,57,230,15,12,37,252,
  169,195,254,154,41,177,32,22,6,185,6,194,
  38,248,25,84,36,192,195,213,1,163,240,218,
  206,196,41,69,102,78,102,208,98,15,68,252,
  188,33,28,20,107,214,86,91,76,15,52,21,
  30,220,192,198,253,40,170,166,188,156,89,75,
  20,5,248,254,45,242,206,168,212,235,15,41,
  188,36,170,241,213,83,213,97,185,11,38,230,
  12,173,169,213,93,91,174,54,184,159,24,165,
  29,177,9,223,4,181,207,205,196,30,191,226,
  253,65,74,183,94,178,66,79,83,197,7,55,
  180,249,83,201,170,210,80,73,43,194,209,43,
  254,51,28,182,192,186,190,70,40,11,214,11,
  87,189,164,149,8,3,227,104,199,212,178,187,
  96,13,182,31,93,232,195,228,18,159,8,97,
  81,97,43,239,162,78,50,80,62,182,155,80,
  150,62,212,234,219,59,180,207,176,53,11,158,
  217,40,59,150,42,193,244,74,65,157,88,171,
  152,50,83,36,248,252,80,234,239,25,189,62,
  254,83,225,232,120,44,164,15,59,238,174,93,
  59,180,1,44,93,75,25,10,228,196,127,194,
  244,202,219,196,5,230,173,54,65,210,98,55,
  34,60,32,9,252,57,215,232,13,25,2,5,
  159,161,143,87,230,247,56,245,165,233,77,40,
  63,196,173,85,100,230,181,155,252,233,36,76,
  172,242,107,184,219,71,210,39,83,23,175,199,
  197,3,57,31,32,237,230,25,4,172,23,9,
  203,226,14,42,173,111,185,155,172,54,122,106,
  217,200,16,26,251,53,19,252,48,43,86,199,
  16,91,89,85,97,167,228,215,19,30,62,255,
  89,14,11,150,175,166,87,245,123,181,223,92,
  23,203,117,159,53,10,77,157,28,97,207,195,
  8,165,195,177,51,177,189,53,115,236,33,81,
  200,23,95,68,16,52,28,215,206,38,238,180,
  36,156,246,55,107,15,58,68,73,255,210,79,
  201,62,46,207,12,133,196,133,88,76,84,57,
  23,30,236,162,166,248,209,16,194,44,169,160,
  4,227,76,217,26,47,130,141,67,239,74,209,
  68,245,73,136,30,223,153,244,38,203,34,152,
  244,72,213,211,26,185,80,247,45,27,169,252,
  144,160,86,208,196,169,144,86,34,25,254,44,
  222,212,17,192,46,211,30,80,85,245,42,155,
  0,178,49,242,207,201,208,79,243,82,207,200,
  43,50,56,254,88,43,29,203,105,95,178,246,
  72,212,69,247,62,43,1,144,47,40,255,8,
  131,16,48,98,6,230,189,155,14,40,251,227,
  206,146,243,35,190,43,190,155,49,247,93,243,
  197,154,35,63,172,185,240,35,143,30,23,182,
  217,240,174,219,172,6,13,191,147,204,47,247,
  229,153,239,190,195,180,150,43,180,205,231,100,
  20,179,170,13,72,65,26,237,188,92,236,34,
  131,220,227,188,244,97,192,200,167,227,157,13,
  209,193,11,85,176,37,233,234,46,252,191,244,
  168,243,199,47,43,47,3,239,97,70,148,208,
  244,28,186,40,39,32,205,23,199,10,50,229,
  152,91,27,105,55,163,232,161,221,245,228,171,
  173,62,82,38,189,206,48,1,195,82,170,174,
  194,86,56,166,218,248,216,229,13,33,159,196,
  38,215,167,159,44,151,139,163,74,89,187,40,
  147,205,22,76,39,182,143,228,28,27,193,4,
  239,183,239,179,232,251,85,25,40,17,12,107,
  151,7,243,71,203,210,21,154,28,43,3,27,
  51,172,173,18,238,91,166,221,139,82,43,75,
  158,179,0,39,140,23,215,25,208,201,214,174,
  5,15,168,78,39,38,248,31,40,253,53,194,
  189,216,199,76,219,5,168,92,165,238,207,157,
  174,68,197,29,107,25,169,238,226,110,247,196,
  44,69,201,214,196,187,240,135,165,100,49,148,
  210,150,14,4,70,25,198,188,231,8,253,63,
  254,55,200,242,0,194,244,15,52,216,29,180,
  38,19,238,44,15,28,40,98,43,253,187,28,
  37,63,120,67,78,34,46,203,191,194,64,75,
  55,94,39,16,229,114,202,17,31,193,88,209,
  40,226,99,91,104,109,138,12,231,18,49,68,
  229,221,219,158,192,228,18,213,110,147,69,73,
  185,71,249,55,93,252,63,216,173,174,255,54,
  24,185,239,17,211,210,239,84,185,92,107,166,
  160,246,241,170,169,196,222,119,9,53,185,77,
  27,229,175,152,25,250,49,56,179,217,115,73,
  205,244,24,191,222,212,164,251,92,81,85,42,
  225,44,42,198,227,58,252,96,220,12,20,93,
  6,212,200,47,190,250,246,66,231,240,37,222,
  53,206,206,204,199,116,165,229,5,218,231,113,
  78,252,239,184,177,112,154,227,196,175,45,218,
  248,11,165,144,69,169,88,255,33,215,24,5,
  82,243,114,32,17,228,13,73,32,201,6,216,
  231,56,31,57,186,96,14,249,218,49,175,245,
  247,2,99,191,248,233,22,224,233,227,80,184,
  180,16,190,86,194,120,188,1,89,16,79,228,
  37,79,200,188,196,26,55,19,189,70,169,231,
  210,104,35,0,36,10,51,75,115,84,235,20,
  215,40,83,190,36,70,198,223,36,183,243,234,
  179,248,200,79,189,188,141,89,215,39,179,79,
  158,67,249,178,34,110,192,176,241,150,247,233,
  33,33,7,157,72,112,172,224,30,40,27,101,
  29,107,18,221,169,42,220,54,178,176,191,103,
  220,246,227,229,90,254,35,197,75,69,95,192,
  188,53,172,227,204,252,10,0,7,179,253,235,
  22,65,214,159,17,212,227,80,66,20,5,41,
  31,75,91,186,209,233,162,239,194,198,87,21,
  32,15,204,154,53,17,220,50,173,240,214,26,
  135,237,198,26,192,95,76,60,109,244,89,64,
  47,20,215,222,229,61,253,254,182,233,40,214,
  236,238,13,3,2,208,47,210,196,208,107,112,
  39,103,69,219,207,169,48,247,97,29,81,178,
  140,217,99,10,222,238,246,218,198,171,234,107,
  45,167,28,49,184,29,1,170,105,57,165,64,
  250,69,112,208,230,203,76,242,101,58,2,38,
  62,104,25,91,84,97,8,209,101,15,67,0,
  52,191,20,51,121,223,137,80,199,75,205,71,
  55,85,25,5,220,1,175,79,70,242,82,170,
  18,54,39,23,230,255,200,121,13,245,180,12,
  51,33,236,17,104,90,242,84,238,84,35,14,
  25,9,195,197,61,201,220,119,253,21,121,226,
  169,194,35,3,56,46,152,190,90,166,78,255,
  138,194,108,253,181,13,11,10,98,175,203,214,
  5,241,239,178,59,66,31,221,49,8,102,119,
  3,172,85,188,213,8,33,207,14,83,214,213,
  188,233,68,14,101,72,44,88,63,231,97,2,
  179,58,7,223,23,168,3,107,181,38,215,236,
  74,49,5,168,41,141,16,30,226,79,174,248,
  176,108,239,177,36,30,240,52,172,145,31,74,
  19,12,225,6,214,8,12,52,56,69,145,233,
  205,107,40,6,69,140,62,80,245,179,38,240,
  63,13,184,181,236,55,189,229,19,47,10,101,
  167,217,37,25,52,189,218,65,209,19,55,108,
  230,235,199,196,254,50,174,156,148,105,43,206,
  41,9,5,218,251,186,195,23,47,243,242,215,
  15,32,221,195,148,82,161,52,176,27,152,37,
  77,94,52,176,190,208,55,34,45,252,65,17,
  240,170,253,204,86,23,20,170,192,210,246,241,
  24,4,15,70,0,102,184,185,160,148,58,76,
  108,215,67,20,175,71,56,165,0,254,92,165,
  228,190,84,225,59,82,43,74,159,191,15,58,
  42,80,182,198,54,187,219,78,13,251,178,205,
  72,228,72,252,23,214,82,11,255,69,13,148,
  179,172,129,187,234,47,105,225,49,24,177,143,
  237,27,145,72,94,178,36,81,160,3,199,29,
  184,214,175,236,250,142,251,47,251,220,217,160,
  31,237,191,41,92,235,20,229,24,214,81,155,
  70,101,58,207,29,33,1,229,83,18,231,193,
  44,213,47,157,22,142,93,24,190,166,61,150,
  72,23,77,42,203,2,246,163,10,69,29,48,
  35,195,96,25,166,155,13,233,98,17,22,175,
  85,191,190,229,181,15,2,57,225,202,179,68,
  89,14,65,188,249,83,65,5,12,42,63,167,
  79,60,1,173,84,9,223,233,18,84,244,226,
  236,166,86,86,252,13,218,197,83,180,235,209,
  254,106,1,56,152,205,178,182,106,210,230,238,
  173,16,211,0,84,203,96,40,223,180,100,59,
  59,183,7,165,16,9,225,215,71,167,58,193,
  86,51,66,31,98,57,95,1,24,155,48,209,
  85,49,75,177,35,67,173,206,23,184,91,82,
  158,172,86,165,57,187,167,163,250,198,64,109,
  215,91,15,145,21,162,207,238,2,189,57,82,
  163,225,76,218,174,51,173,13,75,3,204,33,
  23,177,156,203,197,173,140,75,215,176,244,240,
  205,192,0,237,11,223,185,77,199,60,220,224,
  72,174,241,48,183,196,77,20,13,25,185,233,
  11,155,233,169,184,155,228,44,65,79,170,171,
  16,3,41,57,208,71,169,93,59,219,231,248,
  232,234,98,0,225,162,229,77,226,48,13,160,
  229,176,70,182,73,49,234,250,51,241,32,61,
  33,54,235,116,7,51,201,234,38,32,222,23,
  4,49,86,253,219,85,231,34,240,244,15,34,
  99,71,250,10,2,244,191,176,13,26,97,25,
  63,183,38,230,61,223,154,82,255,253,12,167,
  2,254,47,44,87,234,215,248,175,236,155,161,
  247,221,103,13,3,218,179,189,52,6,54,242,
  220,218,83,242,11,30,184,215,12,4,185,101,
  9,59,233,87,80,35,223,53,164,80,9,213,
  4,15,14,99,199,83,5,232,169,71,64,54,
  200,77,240,42,250,86,98,193,237,160,244,155,
  29,88,183,58,36,46,67,186,34,2,204,60,
  50,174,254,21,85,58,90,43,243,205,47,40,
  22,78,67,66,89,212,198,94,29,101,55,70,
  246,52,73,251,177,38,255,231,218,161,188,22,
  203,17,209,76,8,52,55,48,73,65,68,41,
  251,157,41,72,193,98,187,229,250,170,193,72,
  158,8,60,214,226,9,178,92,170,24,250,214,
  30,44,196,249,192,20,67,232,189,249,205,173,
  190,100,1,17,48,42,204,165,9,84,172,245,
  247,68,36,98,16,18,169,61,168,47,153,206,
  45,190,234,253,71,252,213,205,30,72,165,24,
  13,173,81,211,46,175,177,237,246,222,164,220,
  169,80,240,91,58,82,31,2,57,70,201,87,
  105,5,180,159,4,154,184,89,163,232,48,60,
  207,216,193,202,68,83,223,245,177,250,68,199,
  15,185,151,193,239,17,2,34,32,14,252,200,
  60,182,249,238,166,63,60,203,160,231,35,38,
  217,82,73,14,236,41,215,193,199,107,55,170,
  216,237,153,219,157,17,231,253,35,223,81,164,
  162,35,59,39,79,231,77,2,214,181,69,69,
  97,157,204,201,178,51,202,13,43,198,220,190,
  58,15,237,248,97,55,171,185,231,168,28,27,
  99,87,32,222,30,172,184,219,59,16,226,225,
  65,21,229,23,98,76,75,171,45,55,47,149,
  218,39,88,95,180,227,19,9,93,230,210,67,
  103,246,83,226,162,20,84,61,173,20,174,48,
  251,53,228,38,219,49,179,149,75,92,78,172,
  184,203,85,23,14,244,237,49,98,89,39,210,
  158,78,82,11,148,171,185,49,245,233,233,210,
  9,100,49,19,56,222,49,42,246,230,26,73,
  212,37,224,7,231,73,215,2,58,226,221,214,
  184,200,32,218,57,254,173,230,75,183,172,195,
  199,151,98,80,230,34,20,65,225,173,62,243,
  100,36,193,19,0,64,198,95,196,228,2,94,
  103,244,86,26,165,13,52,20,191,195,76,240,
  245,195,61,247,166,42,227,196,6,250,212,252,
  246,25,208,255,97,33,20,10,79,62,227,26,
  96,62,168,226,233,67,228,167,86,5,99,67,
  16,237,170,63,189,9,42,38,190,240,20,95,
  250,37,167,227,25,181,239,156,81,101,160,52,
  241,222,92,29,93,240,5,71,35,244,67,231,
  194,200,217,239,222,194,181,73,218,59,166,50,
  244,54,72,38,1,15,162,203,75,237,154,15,
  14,38,77,175,40,66,255,29,11,101,175,95,
  214,226,208,199,10,175,227,211,40,36,212,92,
  233,64,4,211,67,157,38,67,216,170,0,7,
  208,182,242,25,64,71,63,63,12,26,15,184,
  7,94,202,204,155,102,34,90,152,111,191,64,
  57,65,184,38,207,96,24,17,191,234,57,239,
  58,210,136,98,142,102,171,26,155,220,90,118,
  45,186,7,159,221,237,199,230,71,239,121,92,
  95,62,52,193,13,24,78,61,66,46,178,81,
  220,252,10,172,168,103,169,238,152,250,218,80,
  93,164,249,41,26,72,173,195,249,32,166,100,
  116,67,96,99,171,39,29,134,232,60,184,49,
  195,252,178,49,180,195,255,253,223,45,240,169,
  46,72,161,50,127,201,194,26,106,157,210,56,
  34,192,184,164,173,233,11,58,180,158,48,65,
  101,164,18,247,187,184,5,231,240,164,219,75,
  7,226,71,48,204,24,199,166,37,2,35,177,
  27,214,206,172,195,11,122,214,7,92,167,157,
  184,121,242,168,73,169,37,83,184,22,101,93,
  252,8,7,180,42,30,30,228,173,178,194,151,
  174,120,227,52,167,0,110,198,176,22,231,82,
  41,70,187,228,118,29,73,234,221,109,164,27,
  28,231,61,45,22,148,187,22,216,29,71,187,
  213,218,83,89,206,179,40,99,74,165,14,51,
  181,248,13,47,114,206,206,19,82,187,233,43,
  2,100,216,242,81,52,98,19,70,206,56,242,
  72,19,70,226,195,189,229,87,197,207,254,255,
  81,66,13,61,171,247,182,67,252,26,185,252,
  222,176,29,63,103,255,58,107,251,5,59,21,
  34,93,7,52,36,32,53,221,61,24,236,49,
  122,99,139,13,153,75,238,240,226,170,231,65,
  224,176,233,47,98,242,15,98,52,215,53,234,
  53,237,180,162,224,250,31,19,209,161,208,211,
  83,42,156,166,40,76,204,181,158,225,36,40,
  118,253,25,188,174,52,228,47,242,56,91,71,
  94,179,56,38,167,47,110,14,225,188,71,214,
  49,208,184,57,190,182,5,176,172,35,63,66,
  199,166,222,208,5,251,20,53,187,187,253,194,
  12,150,195,59,172,30,19,229,202,88,224,176,
  77,159,29,0,55,45,86,173,13,176,234,17,
  47,60,232,73,14,4,81,160,181,170,205,24,
  56,26,210,174,243,225,43,2,171,241,52,223,
  61,146,6,249,43,25,74,61,208,213,148,33,
  108,223,88,170,44,108,221,153,56,97,168,116,
  219,68,183,15,86,14,101,159,49,237,153,0,
  186,34,201,171,245,5,1,165,110,52,207,38,
  90,4,194,153,72,68,185,59,195,212,171,197,
  95,47,216,32,195,5,63,186,199,68,31,75,
  198,91,195,10,234,105,229,67,221,95,150,111,
  211,57,239,255,41,52,65,236,206,185,14,252,
  90,174,47,194,245,180,61,62,162,98,202,32,
  16,104,61,193,192,85,119,219,36,105,183,39,
  57,235,86,109,254,193,174,21,41,101,85,177,
  18,217,236,221,222,69,242,83,245,44,16,107,
  54,54,76,146,232,79,22,93,190,232,215,12,
  19,212,247,73,242,156,248,44,192,233,235,233,
  10,156,78,210,101,224,241,4,22,205,43,97,
  94,39,87,251,82,201,146,168,202,88,233,197,
  162,215,220,241,238,23,204,7,216,187,226,60,
  210,209,15,210,197,72,2,237,72,18,184,216,
  186,86,224,72,195,9,164,203,36,151,160,250,
  101,188,57,65,54,13,29,226,45,162,192,65,
  153,67,244,51,212,231,206,71,174,240,82,231,
  180,88,178,57,7,159,39,161,83,229,245,252,
  96,1,108,30,195,92,182,174,39,237,51,104,
  240,165,196,148,38,81,253,188,43,214,216,167,
  236,70,51,92,85,42,201,11,205,82,88,156,
  195,26,174,239,182,87,73,220,175,88,193,226,
  49,34,100,33,179,166,237,43,106,20,22,83,
  73,157,42,43,78,221,166,193,205,214,79,29,
  191,198,231,47,66,67,162,83,233,87,93,19,
  207,102,40,83,87,17,12,8,85,81,198,84,
  93,184,190,74,39,3,208,101,28,87,6,100,
  235,15,11,158,1,219,181,60,39,187,176,245,
  183,230,19,163,245,177,168,215,50,31,242,19,
  197,2,56,89,251,245,204,59,241,57,19,185,
  71,198,5,182,216,93,96,211,71,208,176,105,
  204,27,103,152,245,14,98,22,160,54,39,253,
  74,37,39,30,192,97,98,100,165,98,52,246,
  244,24,228,77,47,27,194,48,96,242,30,62,
  173,44,243,87,2,32,100,33,53,93,102,1,
  40,10,96,250,31,29,227,21,93,244,234,206,
  146,32,182,15,68,254,38,252,92,181,65,42,
  70,71,35,183,90,53,78,73,41,27,159,175,
  237,161,177,234,30,58,168,46,69,167,162,6,
  192,29,232,195,78,39,152,109,52,78,9,4,
  69,166,163,93,238,63,173,7,173,51,21,36,
  48,248,59,232,84,199,254,1,234,62,228,4,
  203,2,168,197,109,20,68,173,249,205,87,174,
  207,62,99,234,210,41,72,34,174,222,248,249,
  215,176,244,244,58,200,37,223,42,189,170,94,
  217,79,196,74,201,11,209,16,55,4,55,212,
  162,188,100,46,186,19,14,215,108,235,89,180,
  64,78,50,82,7,76,95,59,9,66,10,64,
  64,55,220,202,228,245,71,51,252,201,108,88,
  241,230,237,249,6,6,255,45,223,28,2,239,
  196,252,85,80,221,0,84,55,229,185,204,180,
  185,71,239,224,198,68,64,88,79,224,251,66,
  190,233,179,220,36,107,249,1,110,31,65,164,
  29,248,44,48,218,175,160,239,105,59,84,67,
  183,23,216,17,66,14,158,64,28,149,194,53,
  10,182,82,192,108,216,30,107,219,159,156,79,
  8,101,74,42,54,210,202,104,86,255,172,210,
  192,205,28,210,203,104,233,155,255,16,143,207,
  36,245,13,34,4,171,15,209,223,134,159,255,
  238,89,151,160,29,6,219,242,215,54,57,178,
  79,43,25,152,41,16,5,235,197,172,5,12,
  244,34,226,144,209,227,208,12,216,201,62,10,
  171,187,210,248,106,56,93,173,190,228,61,245,
  0,8,216,170,168,245,250,23,127,223,163,233,
  248,14,97,247,109,32,72,10,243,209,56,5,
  38,198,201,44,82,118,95,27,100,236,237,93,
  236,196,82,227,8,202,71,13,79,32,66,174,
  225,144,37,52,106,35,116,67,40,183,24,3,
  163,230,87,27,52,37,236,177,91,215,225,61,
  18,43,124,11,225,7,229,149,41,168,235,243,
  53,36,197,175,1,249,74,60,17,12,174,156,
  196,220,17,186,169,242,191,56,34,151,82,57,
  194,221,50,241,1,24,147,64,3,165,50,188,
  195,195,80,68,21,21,240,94,46,183,246,254,
  175,32,239,158,251,180,152,70,241,136,32,201,
  225,14,54,56,55,144,45,62,112,218,217,203,
  72,211,102,187,239,213,3,11,250,252,18,176,
  150,6,22,19,220,74,176,22,227,191,248,239,
  22,200,14,8,159,81,161,222,45,199,166,41,
  156,26,27,213,250,50,57,9,170,208,199,66,
  14,211,90,196,222,167,226,91,190,160,167,224,
  189,16,190,172,202,177,232,62,161,229,190,237,
  137,218,9,96,11,55,56,154,72,11,81,84,
  239,67,172,87,207,154,244,59,11,11,16,45,
  177,192,72,1,253,15,210,53,232,18,236,64,
  238,41,53,52,175,55,28,63,133,241,173,8,
  88,211,19,167,80,190,47,253,205,163,166,154,
  69,217,186,232,229,249,147,155,34,65,41,3,
  157,48,198,227,192,251,54,69,231,60,142,235,
  208,213,188,151,204,86,77,19,26,3,9,78,
  94,175,50,145,237,43,142,169,191,2,30,189,
  158,32,254,230,32,220,199,191,233,58,2,239,
  46,165,212,70,157,93,248,198,246,255,42,73,
  62,203,85,77,233,43,10,251,70,9,91,191,
  191,70,219,249,182,42,185,84,244,204,140,161,
  50,182,15,111,30,70,37,100,230,17,185,152,
  237,94,208,53,10,249,204,191,12,98,142,89,
  212,231,249,34,82,171,57,193,136,183,148,76,
  165,30,182,58,243,19,158,89,21,227,188,251,
  211,242,144,14,175,110,254,224,141,242,76,228,
  40,9,54,159,144,236,107,30,200,80,45,1,
  178,197,78,56,105,218,253,48,185,244,182,185,
  27,35,246,28,170,3,64,85,71,85,83,217,
  92,83,182,66,78,189,76,197,203,144,4,248,
  58,83,185,213,76,222,175,56,161,54,3,88,
  9,155,166,179,248,22,68,86,144,11,98,190,
  224,226,158,69,41,39,233,84,169,94,174,163,
  100,60,254,165,235,14,26,242,206,185,160,239,
  22,173,219,63,11,10,236,217,212,77,238,75,
  12,244,197,32,38,235,81,17,69,173,83,199,
  65,226,232,165,77,185,242,254,83,222,68,94,
  151,173,24,196,25,201,20,16,78,164,167,251,
  210,18,98,212,65,158,199,229,4,170,79,32,
  59,235,160,62,22,84,198,106,213,206,70,0,
  186,88,255,167,186,39,147,80,167,203,238,210,
  99,64,226,56,25,36,175,106,206,49,251,209,
  252,102,237,26,64,206,69,24,169,148,235,196,
  255,95,173,100,161,86,58,196,202,100,28,254,
  1,75,102,62,176,180,24,79,11,58,201,108,
  27,171,211,36,220,20,244,204,59,205,91,64,
  70,196,97,49,218,195,49,99,49,236,36,210,
  46,159,74,191,3,19,169,17,175,13,157,9,
  250,40,155,250,46,24,178,68,170,4,200,92,
  93,107,42,212,38,221,200,227,240,42,207,44,
  199,163,201,8,163,220,209,12,166,163,106,34,
  166,228,186,9,241,82,27,38,155,222,216,166,
  250,196,209,93,95,203,190,203,36,82,239,231,
  237,234,156,203,18,28,75,100,24,231,181,104,
  45,4,7,71,236,194,244,59,48,22,48,199,
  8,164,185,173,15,41,219,189,88,0,241,28,
  5,170,164,72,221,104,42,51,39,183,101,53,
  147,108,63,243,109,51,233,172,226,215,240,5,
  169,192,69,100,64,159,29,235,165,242,220,208,
  63,238,209,62,37,207,220,193,214,36,28,51,
  227,246,63,83,231,210,30,50,166,247,237,59,
  96,221,201,58,26,223,42,41,74,204,104,29,
  59,104,54,213,215,55,5,36,7,80,202,253,
  81,57,2,29,54,191,254,239,108,215,243,108,
  214,32,6,40,37,38,223,83,255,225,226,155,
  85,184,109,36,66,228,155,217,109,100,11,188,
  244,96,90,11,228,177,82,194,187,53,57,247,
  97,219,59,152,196,175,202,191,171,150,189,156,
  46,193,40,43,44,241,248,196,9,235,197,43,
  232,185,41,51,72,201,74,193,59,82,43,43,
  3,228,23,55,29,86,218,67,40,42,107,188,
  210,65,3,61,34,93,175,237,64,203,205,174,
  253,161,91,13,197,174,155,232,103,215,211,41,
  36,13,244,30,220,11,189,6,109,186,108,7,
  246,56,1,234,44,233,192,90,64,252,158,42,
  45,184,218,182,66,108,78,94,48,10,7,214,
  250,27,249,51,156,80,68,82,11,243,86,23,
  68,96,81,213,204,183,88,219,214,191,65,105,
  156,204,109,74,36,28,216,218,183,22,168,64,
  207,178,252,147,109,252,217,88,8,36,24,201,
  252,177,48,94,160,181,213,229,252,165,245,238,
  91,187,178,154,217,174,191,175,237,187,175,247,
  196,197,32,82,57,206,210,201,100,26,23,254,
  33,226,156,83,224,21,38,190,196,46,44,161,
  94,33,70,180,236,32,28,171,22,242,243,202,
  192,115,227,164,64,43,124,187,177,19,208,81,
  185,123,159,247,88,184,1,111,72,147,175,25,
  28,229,99,85,85,200,176,172,29,81,180,52,
  240,244,165,226,190,49,14,255,77,136,201,23,
  111,201,182,250,38,66,43,25,60,68,67,187,
  40,93,240,234,14,189,87,174,38,6,87,167,
  57,161,100,39,21,77,64,49,192,64,26,141,
  4,222,208,108,60,144,116,82,56,125,25,52,
  179,247,233,34,174,191,242,58,151,216,196,185,
  216,16,44,240,92,163,26,209,52,33,78,236,
  245,246,3,7,70,237,233,217,50,121,74,246,
  113,23,224,186,211,27,170,112,96,29,14,114,
  226,52,60,78,239,74,27,121,201,112,230,45,
  233,172,241,193,206,213,207,232,117,233,249,75,
  177,177,202,36,159,232,247,179,226,61,204,52,
  225,224,230,9,191,225,253,201,164,253,103,219,
  30,115,108,51,34,92,108,177,60,216,6,79,
  173,10,34,198,19,101,200,0,223,86,211,167,
  192,25,93,191,56,189,250,216,3,107,253,166,
  87,104,212,61,54,53,68,201,30,152,62,212,
  158,15,232,65,246,57,235,172,71,184,210,237,
  255,86,120,219,1,17,12,198,84,176,204,90,
  221,166,180,219,82,197,94,79,155,25,22,93,
  75,201,44,170,205,182,71,103,86,208,248,30,
  0,222,83,26,228,204,91,248,240,75,154,170,
  27,7,38,73,60,170,183,40,29,161,151,28,
  63,245,56,52,51,175,22,237,60,10,224,127,
  186,199,246,50,223,1,188,239,76,62,94,175,
  198,105,235,57,87,68,36,27,13,150,166,49,
  78,224,89,46,116,16,111,75,157,30,166,67,
  169,38,228,151,40,211,25,19,4,240,186,228,
  21,110,82,145,79,121,7,24,66,251,236,175,
  190,75,234,224,210,207,79,165,221,6,98,152,
  63,70,99,195,230,141,196,68,29,138,76,173,
  210,78,200,166,19,20,181,65,181,17,230,41,
  35,43,1,90,89,86,177,224,25,189,247,106,
  12,31,48,194,41,210,117,115,237,145,93,63,
  30,10,21,210,188,4,212,48,65,166,74,7,
  18,182,149,111,238,60,191,218,70,53,80,165,
  62,84,49,250,6,50,92,3,64,50,29,233,
  38,251,4,17,194,12,61,244,241,168,211,104,
  117,120,79,174,172,215,20,47,51,163,242,192,
  27,212,56,158,55,30,196,192,217,219,59,230,
  40,179,177,26,80,197,89,246,228,13,106,157,
  20,186,72,194,251,217,17,26,195,192,223,24,
  57,210,161,254,216,142,21,210,233,141,63,62,
  171,167,36,71,197,230,209,3,81,90,98,161,
  242,39,82,140,63,242,38,124,141,57,106,219,
  112,241,132,207,28,78,10,151,93,67,73,61,
  178,10,196,80,12,132,103,163,64,166,1,235,
  109,165,90,237,43,93,175,82,79,31,224,44,
  33,234,49,32,34,37,171,75,87,110,41,214,
  61,50,20,221,63,88,203,4,169,86,28,242,
  48,218,81,11,21,174,86,164,21,209,93,15,
  165,225,51,169,194,19,67,147,81,200,241,37,
  249,140,199,123,137,55,220,38,67,86,137,21,
  80,179,136,192,191,68,183,226,3,251,76,73,
  51,33,58,93,135,51,29,177,91,224,207,27,
  171,211,0,195,140,92,73,38,211,211,238,216,
  14,171,167,88,229,0,108,5,92,83,138,52,
  56,163,166,194,227,11,120,144,193,95,17,86,
  36,178,183,91,25,219,110,142,159,105,51,54,
  237,15,148,58,143,59,33,70,153,86,176,237,
  225,21,9,20,54,217,246,85,39,34,90,87,
  100,154,88,53,17,75,78,68,217,177,249,163,
  232,40,212,61,176,88,125,240,152,229,72,217,
  95,30,139,168,136,238,173,225,23,179,136,187,
  175,251,224,208,64,4,250,159,190,223,43,139,
  116,240,44,223,184,223,96,166,25,45,51,137,
  241,31,147,41,43,165,252,176,162,44,233,69,
  219,212,151,85,18,241,55,49,34,94,156,56,
  230,137,86,34,52,184,36,143,73,46,204,87,
  253,140,163,23,180,30,49,4,234,169,213,187,
  15,211,68,193,29,55,45,46,67,94,32,29,
  28,51,4,170,77,14,201,33,16,193,16,143,
  242,18,53,120,230,83,239,87,68,231,178,159,
  90,200,50,175,157,221,169,143,33,1,133,32,
  96,27,66,169,134,206,74,173,238,93,22,195,
  123,193,4,199,42,22,234,47,7,65,12,40,
  2,143,133,51,90,185,190,73,23,34,66,55,
  238,31,168,19,173,48,70,43,71,2,251,238,
