// Automatically generated from ./model/model_quant.tflite
const unsigned char model[] = {
  28,0,0,0,84,70,76,51,20,0,32,0,
  28,0,24,0,20,0,16,0,12,0,0,0,
  8,0,4,0,20,0,0,0,28,0,0,0,
  152,0,0,0,24,1,0,0,96,94,2,0,
  112,94,2,0,208,112,2,0,3,0,0,0,
  1,0,0,0,16,0,0,0,0,0,10,0,
  16,0,12,0,8,0,4,0,10,0,0,0,
  12,0,0,0,28,0,0,0,60,0,0,0,
  15,0,0,0,115,101,114,118,105,110,103,95,
  100,101,102,97,117,108,116,0,1,0,0,0,
  4,0,0,0,104,255,255,255,9,0,0,0,
  4,0,0,0,8,0,0,0,111,117,116,112,
  117,116,95,48,0,0,0,0,1,0,0,0,
  4,0,0,0,150,161,253,255,4,0,0,0,
  12,0,0,0,107,101,114,97,115,95,116,101,
  110,115,111,114,0,0,0,0,3,0,0,0,
  92,0,0,0,44,0,0,0,4,0,0,0,
  184,255,255,255,13,0,0,0,4,0,0,0,
  19,0,0,0,67,79,78,86,69,82,83,73,
  79,78,95,77,69,84,65,68,65,84,65,0,
  220,255,255,255,12,0,0,0,4,0,0,0,
  19,0,0,0,109,105,110,95,114,117,110,116,
  105,109,101,95,118,101,114,115,105,111,110,0,
  8,0,12,0,8,0,4,0,8,0,0,0,
  11,0,0,0,4,0,0,0,19,0,0,0,
  109,105,110,95,114,117,110,116,105,109,101,95,
  118,101,114,115,105,111,110,0,14,0,0,0,
  68,93,2,0,60,93,2,0,36,93,2,0,
  4,93,2,0,244,90,2,0,228,88,2,0,
  212,0,0,0,204,0,0,0,196,0,0,0,
  188,0,0,0,180,0,0,0,148,0,0,0,
  116,0,0,0,4,0,0,0,114,162,253,255,
  4,0,0,0,96,0,0,0,12,0,0,0,
  8,0,14,0,8,0,4,0,8,0,0,0,
  16,0,0,0,40,0,0,0,0,0,6,0,
  8,0,4,0,6,0,0,0,4,0,0,0,
  1,0,0,0,235,3,0,0,12,0,24,0,
  20,0,16,0,12,0,4,0,12,0,0,0,
  248,218,177,9,180,92,34,3,2,0,0,0,
  2,0,0,0,4,0,0,0,6,0,0,0,
  50,46,49,57,46,48,0,0,222,162,253,255,
  4,0,0,0,16,0,0,0,0,0,0,0,
  0,0,0,0,0,0,0,0,0,0,0,0,
  250,162,253,255,4,0,0,0,16,0,0,0,
  49,46,49,52,46,48,0,0,0,0,0,0,
  0,0,0,0,232,145,253,255,236,145,253,255,
  240,145,253,255,244,145,253,255,38,163,253,255,
  4,0,0,0,0,88,2,0,140,155,73,48,
  229,95,216,58,91,164,163,81,87,73,242,254,
  99,149,64,95,34,61,210,76,78,27,161,153,
  17,195,211,210,12,27,46,60,112,18,51,247,
  211,207,74,45,113,103,219,94,246,88,177,65,
  160,221,84,225,26,172,200,245,22,107,69,160,
  92,245,250,107,96,240,159,59,183,193,10,104,
  20,224,181,76,215,219,47,215,244,118,51,74,
  177,227,218,18,91,189,92,69,182,204,89,101,
  93,194,160,106,253,216,202,38,161,242,70,47,
  84,250,19,68,181,28,114,207,101,228,190,110,
  0,103,107,185,206,54,154,55,14,199,67,252,
  182,21,243,58,252,86,52,64,13,99,89,152,
  228,165,231,177,106,99,49,105,175,169,160,41,
  196,220,106,44,152,47,28,196,210,67,73,95,
  40,220,181,255,166,171,220,145,32,164,69,182,
  159,92,1,188,177,55,195,15,28,220,185,100,
  49,227,60,23,200,137,69,181,194,182,104,169,
  44,74,108,3,64,19,240,97,161,3,230,90,
  251,153,79,251,236,186,80,172,61,34,208,198,
  233,84,247,189,51,161,48,99,69,79,161,26,
  44,92,5,160,2,253,5,88,43,7,19,52,
  241,103,118,46,29,58,200,35,88,186,174,78,
  103,70,97,67,24,10,54,2,127,81,69,251,
  67,193,231,59,192,231,9,13,193,161,16,76,
  51,250,158,196,78,237,61,49,170,58,10,206,
  3,208,29,199,95,242,185,19,53,160,23,38,
  74,50,42,209,90,254,218,94,204,77,148,9,
  41,102,53,186,232,185,150,69,15,42,217,186,
  171,105,108,207,69,166,45,102,153,171,32,198,
  243,36,61,49,169,92,111,193,73,94,236,29,
  98,250,108,147,188,83,231,233,176,152,49,244,
  167,64,60,220,8,206,248,101,154,45,92,26,
  7,45,101,145,46,55,186,172,70,198,82,44,
  114,218,209,99,186,44,54,47,24,224,30,170,
  97,231,23,215,161,0,152,30,21,161,78,118,
  152,54,143,240,25,55,178,69,5,230,34,87,
  160,102,39,219,17,61,146,95,162,226,129,220,
  70,157,38,186,81,81,37,238,221,106,240,31,
  217,6,146,55,208,13,228,214,215,83,136,120,
  151,250,40,50,238,107,102,112,139,57,23,90,
  171,40,143,90,250,23,23,168,70,104,42,5,
  11,83,71,10,48,206,35,59,229,240,212,122,
  37,221,212,168,232,57,246,214,34,219,151,214,
  115,59,228,218,93,89,37,82,227,144,50,99,
  108,65,239,197,53,237,95,1,65,50,54,181,
  63,87,53,142,194,227,211,214,230,47,32,232,
  29,36,158,85,114,254,187,61,172,182,75,1,
  191,253,208,215,54,78,231,204,248,81,231,179,
  242,154,148,101,215,66,66,247,30,185,236,184,
  84,73,149,61,214,169,95,67,205,233,90,238,
  50,48,53,48,157,241,162,24,90,150,255,200,
  199,18,247,139,63,43,162,164,202,237,90,170,
  250,6,224,42,27,23,162,156,52,6,66,155,
  57,65,35,157,222,54,151,193,187,72,81,204,
  111,87,235,87,87,29,109,66,204,167,74,18,
  80,240,20,154,222,228,219,22,150,28,59,13,
  87,199,190,54,108,200,22,237,69,182,18,160,
  57,65,26,74,255,197,54,100,37,192,178,204,
  198,5,165,9,13,241,253,211,191,111,5,180,
  98,174,54,3,226,248,238,95,190,36,187,172,
  70,252,198,12,28,168,50,232,7,184,11,65,
  206,38,81,110,212,208,245,173,174,87,213,212,
  174,225,169,43,251,193,97,168,142,216,38,23,
  51,187,177,248,77,30,162,216,192,179,100,179,
  14,222,154,52,83,239,145,20,210,186,11,167,
  88,204,66,77,53,161,226,60,180,217,161,34,
  208,240,9,91,157,71,81,235,5,189,92,196,
  195,45,246,160,35,51,207,25,141,58,151,225,
  43,6,239,139,159,156,97,176,192,137,230,91,
  66,36,87,96,165,67,98,175,129,53,174,148,
  24,34,62,15,157,242,158,212,172,87,23,189,
  212,4,144,73,247,7,58,52,165,240,31,59,
  147,198,129,5,163,6,209,141,108,166,217,239,
  208,67,253,59,33,76,152,4,165,153,251,20,
  183,159,248,99,158,167,98,138,198,83,230,52,
  109,68,182,10,240,160,81,95,201,51,244,5,
  252,170,255,27,145,20,45,138,226,199,39,62,
  254,226,0,201,212,103,170,195,209,20,79,115,
  98,88,79,77,38,102,187,6,33,135,92,74,
  206,77,101,181,92,57,178,1,23,94,187,80,
  242,49,195,246,21,15,168,31,219,220,5,174,
  240,212,99,170,232,45,226,205,44,94,162,177,
  220,64,235,49,147,228,150,48,228,56,57,22,
  58,237,85,83,98,217,98,179,67,101,17,228,
  245,161,13,185,52,249,118,73,214,19,85,5,
  97,188,4,209,191,217,88,222,100,25,198,241,
  163,48,93,199,18,228,158,136,30,230,67,174,
  81,85,163,98,147,219,41,1,38,67,239,6,
  218,79,233,23,56,178,104,47,49,74,249,68,
  49,30,242,159,108,202,225,10,222,171,1,241,
  231,132,152,24,4,160,231,12,151,108,245,23,
  189,88,210,157,165,14,0,51,198,59,171,75,
  33,45,76,46,215,109,240,196,104,165,241,45,
  183,10,199,231,96,107,180,70,234,165,26,75,
  82,233,68,171,68,161,12,13,37,42,14,153,
  45,69,219,113,169,176,202,26,229,46,11,186,
  183,76,156,10,214,100,76,96,80,114,113,237,
  183,136,117,0,73,7,116,166,49,183,206,77,
  227,144,37,83,160,153,215,254,230,44,120,62,
  218,249,223,248,235,209,26,149,218,172,45,9,
  99,61,161,72,4,72,255,24,17,19,102,18,
  185,165,116,38,191,253,22,121,211,190,171,75,
  30,91,234,249,113,63,225,164,22,156,13,38,
  56,83,22,212,241,194,70,6,218,52,68,59,
  32,81,232,109,60,52,173,47,255,47,227,79,
  211,234,9,227,202,176,199,106,222,248,88,97,
  20,176,222,154,190,222,92,12,255,204,164,166,
  11,96,26,134,195,19,153,232,153,1,11,40,
  134,240,21,147,236,172,223,7,73,228,96,101,
  143,249,66,210,237,172,149,53,22,158,13,238,
  214,203,154,186,198,135,150,62,154,251,12,49,
  41,6,68,170,28,233,88,123,52,179,180,34,
  30,207,254,136,179,187,90,237,53,48,240,246,
  227,90,231,53,104,214,89,21,37,255,3,2,
  92,218,180,37,46,193,255,38,77,18,66,154,
  132,168,227,40,110,249,24,207,182,70,94,198,
  23,211,174,242,25,87,163,98,224,13,115,41,
  44,151,168,102,153,71,211,104,205,240,59,42,
  147,34,104,157,189,8,20,209,58,6,160,214,
  4,203,154,240,78,156,158,61,47,169,226,220,
  210,243,2,70,5,119,82,96,201,226,103,206,
  69,151,89,67,117,74,208,233,178,11,170,51,
  187,195,105,160,27,182,101,176,194,86,59,200,
  233,255,248,251,184,88,241,94,165,107,39,160,
  84,10,212,1,228,217,222,165,68,28,209,154,
  231,164,60,210,35,94,6,153,177,58,76,220,
  155,213,103,62,75,81,251,233,60,119,50,108,
  195,61,222,61,8,108,45,92,134,91,42,202,
  243,242,211,39,159,19,254,193,145,113,21,72,
  230,192,238,57,52,6,221,234,238,77,175,174,
  78,51,74,168,52,83,36,44,161,215,199,205,
  135,84,59,226,156,248,77,55,64,185,17,8,
  14,35,66,6,62,175,9,236,22,44,214,158,
  32,69,37,5,88,219,59,223,141,192,71,86,
  58,41,139,208,199,43,154,180,166,116,24,41,
  55,152,102,146,221,200,15,11,253,194,87,202,
  148,190,252,233,94,16,85,137,82,12,241,61,
  23,48,153,242,75,206,176,176,171,32,166,232,
  0,232,168,117,163,73,46,52,138,175,108,196,
  16,79,66,185,37,20,34,49,222,214,99,167,
  4,50,210,17,163,118,62,44,171,206,198,233,
  59,156,212,27,76,100,193,224,150,93,26,40,
  97,12,151,32,60,77,179,28,5,37,60,138,
  70,176,252,73,244,246,177,14,28,80,104,202,
  158,151,223,197,184,22,190,19,189,41,8,232,
  16,46,107,45,9,153,159,191,213,211,8,25,
  3,151,168,172,62,71,9,98,243,252,9,45,
  1,230,225,39,236,187,43,227,252,149,239,36,
  174,226,196,141,23,161,198,200,94,154,41,44,
  5,164,155,141,90,225,65,43,94,103,51,102,
  224,197,204,68,157,65,109,217,37,92,46,18,
  144,243,72,54,160,53,74,187,218,37,215,243,
  78,149,171,73,176,33,53,67,8,206,191,245,
  138,0,235,101,145,146,212,19,135,153,5,90,
  1,68,220,2,220,232,96,208,255,31,26,95,
  138,185,235,196,83,141,60,176,228,59,231,173,
  165,211,233,234,227,179,199,31,102,28,10,232,
  136,22,135,162,61,65,238,173,21,219,247,158,
  158,73,234,13,100,243,41,207,150,194,149,104,
  211,26,152,29,80,12,164,8,172,188,60,205,
  67,155,211,174,11,37,44,59,98,233,94,146,
  78,84,45,230,228,39,171,158,0,148,244,156,
  145,190,230,78,162,198,91,241,56,239,205,47,
  52,235,8,23,168,64,225,27,20,24,62,163,
  114,93,36,25,65,223,247,164,224,158,229,56,
  29,222,230,93,14,252,53,189,171,66,147,134,
  251,33,211,116,180,212,55,248,115,167,44,99,
  74,149,179,142,154,83,254,35,83,181,197,77,
  26,6,35,8,184,165,65,209,51,207,234,232,
  227,34,197,28,150,164,155,253,122,26,208,201,
  1,49,39,248,217,196,181,67,23,197,215,181,
  67,155,50,102,23,198,228,200,219,201,173,19,
  216,169,73,215,208,40,207,147,175,191,183,74,
  221,200,155,191,62,100,2,147,77,225,26,179,
  98,217,70,88,2,137,244,53,40,240,210,93,
  168,160,229,185,148,33,8,170,71,94,7,96,
  229,12,194,125,158,79,93,19,71,122,153,173,
  157,84,109,32,163,110,9,129,190,17,82,22,
  155,82,198,219,248,179,58,39,204,165,111,239,
  86,100,94,155,8,219,239,209,228,169,225,28,
  189,182,236,21,248,80,35,88,48,150,64,252,
  26,27,90,64,205,156,179,69,164,31,174,61,
  97,114,41,216,133,221,30,161,182,84,143,91,
  10,146,255,43,253,94,70,70,167,28,101,184,
  87,95,207,226,145,90,22,244,114,212,250,123,
  198,142,191,159,83,14,168,139,191,22,106,249,
  136,81,85,15,98,27,200,249,153,77,95,1,
  182,175,242,224,147,84,238,68,37,226,215,95,
  255,26,233,75,14,56,213,5,48,225,237,174,
  195,247,222,11,15,59,200,223,79,68,224,79,
  78,165,45,26,164,79,89,246,59,161,248,215,
  211,122,120,210,208,46,236,248,70,239,142,179,
  220,210,55,182,140,73,162,216,65,63,24,102,
  94,17,182,78,63,236,221,175,55,102,149,240,
  181,61,78,14,55,217,100,76,102,182,198,243,
  167,110,19,84,27,82,94,7,77,28,41,53,
  184,248,36,80,220,87,194,237,74,204,91,46,
  104,127,4,185,9,153,179,14,204,225,99,161,
  60,109,196,18,192,191,151,122,131,37,240,113,
  182,222,73,67,156,97,85,70,57,60,179,82,
  33,170,25,249,142,203,88,173,28,99,87,190,
  200,70,99,39,101,200,231,155,203,108,227,64,
  199,165,34,236,230,69,97,201,203,61,8,85,
  14,191,174,57,51,19,192,219,163,227,227,79,
  240,88,17,238,219,226,33,29,224,68,164,93,
  51,28,200,119,209,245,207,11,172,244,253,76,
  51,159,168,231,55,55,227,68,160,82,165,56,
  227,136,54,220,218,215,199,23,225,36,88,148,
  239,18,215,160,207,53,64,143,247,108,204,94,
  175,32,214,200,233,150,221,165,4,92,225,181,
  25,1,111,74,170,148,94,142,58,170,35,242,
  198,6,42,107,54,238,114,86,194,16,30,127,
  35,91,107,249,245,67,118,254,247,116,174,80,
  86,205,237,62,7,103,108,53,105,182,249,43,
  36,250,107,237,158,59,1,65,43,233,42,245,
  74,76,222,11,96,219,108,254,210,105,250,216,
  33,70,111,204,240,179,221,25,197,4,218,244,
  201,24,240,1,226,94,211,92,30,244,77,163,
  211,173,105,251,18,193,34,7,176,0,220,84,
  58,35,81,190,137,191,46,88,206,171,193,194,
  197,36,180,99,165,239,101,221,94,108,145,229,
  195,169,89,183,186,89,102,97,224,186,3,28,
  70,109,231,58,196,5,64,235,73,246,71,25,
  253,181,215,53,240,99,45,197,27,17,85,179,
  172,228,109,229,46,102,179,158,155,37,162,37,
  118,94,71,174,155,223,87,172,188,181,36,29,
  78,254,240,62,229,185,68,18,254,221,86,244,
  50,5,53,213,163,83,25,206,211,175,142,199,
  7,191,117,104,164,213,41,72,200,194,56,97,
  188,233,239,89,12,179,246,182,220,240,192,168,
  214,194,22,35,180,49,18,236,109,225,105,8,
  99,223,246,205,105,192,174,186,59,91,103,44,
  12,234,44,251,246,58,10,53,180,199,11,238,
  15,96,201,180,174,204,61,115,23,241,72,159,
  201,236,32,17,38,191,32,209,17,102,69,193,
  172,50,10,172,88,152,75,232,112,86,5,224,
  216,215,224,90,98,186,144,13,72,249,105,84,
  75,164,26,38,224,97,156,172,120,251,30,231,
  183,58,60,107,186,169,2,222,186,85,191,198,
  56,42,250,13,207,65,31,38,114,175,171,198,
  85,31,249,65,35,33,248,72,172,63,161,45,
  229,225,69,229,211,26,215,184,104,104,188,14,
  177,193,51,15,45,199,72,203,184,3,26,81,
  177,13,117,155,61,25,215,230,80,12,8,220,
  169,173,106,171,52,87,65,110,217,47,59,179,
  78,176,169,188,208,14,249,79,13,249,98,103,
  239,1,38,75,226,250,75,86,219,26,70,249,
  248,195,208,71,203,55,142,223,253,74,20,45,
  144,214,13,9,159,201,212,20,237,54,7,81,
  148,224,101,224,168,181,175,98,244,207,47,43,
  158,25,188,186,183,65,177,118,173,239,249,234,
  25,85,234,248,21,109,208,81,83,175,165,231,
  164,115,201,96,93,35,145,105,189,203,27,38,
  208,41,246,194,70,60,253,66,43,8,96,188,
  23,201,70,185,72,37,183,98,110,69,231,55,
  76,221,197,19,202,94,99,12,52,15,49,155,
  9,46,187,172,146,157,57,208,196,187,132,232,
  160,24,251,76,220,162,10,105,215,230,185,75,
  32,31,170,181,146,40,218,93,213,155,101,37,
  169,204,30,228,172,14,41,53,201,1,167,17,
  60,224,19,106,203,35,4,86,46,109,78,171,
  43,250,237,173,54,59,177,48,148,251,44,243,
  21,249,221,212,18,250,25,27,152,69,95,91,
  51,211,148,227,167,95,148,54,204,241,83,81,
  180,103,233,98,90,159,40,11,54,99,2,248,
  151,31,87,91,222,58,33,27,85,86,92,203,
  184,234,150,205,100,39,165,210,57,213,64,82,
  218,205,94,52,23,63,89,248,230,71,36,4,
  205,210,168,10,227,165,200,88,222,183,12,27,
  208,47,145,240,148,171,185,95,205,254,214,234,
  203,102,73,22,159,246,85,214,216,30,78,43,
  159,109,33,43,90,21,187,100,153,28,237,102,
  92,54,229,204,50,179,23,138,25,238,178,194,
  217,240,169,190,153,194,182,8,135,164,235,198,
  33,96,96,84,231,199,218,47,55,229,23,185,
  161,49,218,54,249,182,34,75,0,46,215,152,
  112,77,77,216,254,1,203,252,217,48,215,57,
  252,60,242,248,143,62,165,202,201,86,27,90,
  34,183,203,230,192,34,244,179,89,214,192,192,
  58,54,21,88,63,147,233,51,226,85,86,193,
  201,250,56,244,247,52,194,23,66,18,191,253,
  52,37,212,224,169,245,3,63,228,54,88,20,
  101,30,5,81,5,214,197,232,237,139,228,141,
  254,240,203,159,206,179,119,48,106,165,221,172,
  26,91,26,163,227,25,5,77,174,47,24,175,
  235,29,221,0,33,35,220,32,166,181,250,135,
  206,16,152,2,69,17,110,21,195,213,3,79,
  116,5,211,35,183,184,168,45,158,12,5,91,
  63,30,68,142,229,3,108,211,16,175,235,1,
  121,157,64,188,7,207,160,6,80,213,226,227,
  227,46,211,223,80,194,48,33,169,32,108,252,
  55,252,175,238,71,205,9,167,240,100,97,48,
  189,26,35,225,162,173,88,164,191,211,57,9,
  242,26,174,158,91,0,223,26,182,44,15,46,
  239,187,101,13,157,134,116,154,27,79,90,41,
  222,188,90,227,211,64,202,221,162,190,0,42,
  162,16,10,6,254,172,207,39,183,34,245,8,
  207,197,82,103,224,40,90,51,65,31,85,48,
  20,90,250,72,75,68,166,197,44,1,44,144,
  34,30,245,65,98,53,7,81,52,154,224,252,
  251,77,68,183,209,71,182,80,161,181,192,45,
  180,10,163,49,28,160,194,226,215,78,124,7,
  208,82,209,74,30,198,210,227,175,9,110,168,
  247,164,226,30,1,79,22,43,7,117,54,93,
  9,45,9,40,177,124,160,166,238,216,118,19,
  241,139,37,166,207,126,210,93,154,79,114,78,
  193,212,179,117,67,42,155,254,119,52,200,75,
  202,248,185,165,168,254,52,207,11,207,34,61,
  98,37,97,112,159,78,80,48,183,236,23,9,
  107,5,3,52,83,197,112,95,17,229,66,166,
  157,142,70,203,23,213,51,55,107,223,231,194,
  159,238,213,46,158,29,166,160,12,188,177,72,
  188,247,229,108,96,181,215,141,163,212,33,60,
  148,19,39,230,252,193,233,250,99,38,17,74,
  100,82,60,155,13,17,39,216,217,81,252,56,
  88,11,242,60,189,48,177,73,96,229,106,199,
  225,168,238,238,155,44,245,211,24,215,58,175,
  92,157,223,172,246,16,197,9,211,13,3,46,
  211,189,224,111,185,2,194,13,107,48,20,198,
  198,16,99,28,155,19,164,66,65,13,21,142,
  56,230,117,155,73,147,16,25,255,148,216,207,
  224,90,163,172,199,228,211,191,185,167,200,67,
  89,216,241,88,243,229,243,32,21,195,67,81,
  176,87,33,61,5,169,50,97,77,114,43,255,
  22,227,32,63,32,100,40,67,104,60,162,97,
  212,220,252,79,218,41,23,114,50,151,187,149,
  19,156,240,112,241,35,169,20,243,189,52,4,
  55,102,40,16,30,245,210,75,151,160,249,202,
  34,19,105,193,77,232,65,229,70,233,77,32,
  179,88,167,243,96,218,169,85,8,211,229,21,
  207,0,197,60,252,74,13,12,147,194,176,11,
  149,243,254,13,5,222,76,16,29,45,7,251,
  7,204,94,161,105,172,191,177,59,15,31,61,
  40,96,2,43,0,205,27,31,211,16,46,46,
  24,69,30,242,241,226,170,207,82,162,146,10,
  4,227,206,70,149,219,81,46,16,64,33,180,
  188,55,18,52,190,115,161,28,211,225,103,194,
  194,253,79,74,6,94,93,200,114,39,8,160,
  152,180,226,73,227,206,30,5,61,27,50,220,
  162,204,188,246,143,65,159,189,117,38,39,242,
  105,193,73,236,232,154,190,48,73,208,69,227,
  218,1,245,94,54,25,71,76,157,210,83,171,
  224,93,227,3,48,253,242,0,56,56,18,246,
  222,41,200,193,163,87,73,242,192,40,194,15,
  97,247,50,234,98,48,162,170,255,40,246,233,
  153,67,184,196,178,95,43,153,101,250,104,213,
  86,58,206,42,200,28,45,59,101,210,45,9,
  92,165,185,171,80,113,145,23,217,219,15,82,
  244,26,42,164,203,237,38,156,244,174,44,94,
  195,63,211,226,82,119,90,181,38,39,204,80,
  252,243,10,42,248,172,14,238,164,19,230,68,
  15,32,151,241,64,187,75,109,162,251,167,216,
  45,156,114,47,91,93,230,81,79,249,29,170,
  238,245,105,34,188,9,195,173,48,49,251,158,
  162,205,233,88,209,91,216,178,153,236,4,219,
  81,174,43,6,117,161,180,12,170,16,185,231,
  62,202,186,58,69,26,109,65,102,186,194,172,
  195,80,82,62,213,199,151,182,230,19,110,21,
  72,161,23,239,194,56,158,226,52,101,225,43,
  224,89,40,70,229,237,48,166,218,72,38,16,
  20,1,33,161,147,134,152,69,241,82,20,97,
  18,234,151,198,105,253,36,26,252,175,243,172,
  219,57,179,229,142,48,185,209,49,173,225,2,
  43,114,192,238,184,75,36,239,55,115,41,73,
  93,121,203,222,101,200,234,199,49,233,188,249,
  203,245,95,200,135,36,161,88,173,163,196,166,
  89,76,248,80,163,233,5,34,38,148,76,78,
  37,206,147,165,81,229,80,218,133,238,63,111,
  1,195,166,176,1,252,9,227,18,213,20,150,
  44,96,224,148,85,71,192,219,135,206,193,88,
  50,208,229,228,85,45,145,207,37,100,24,74,
  217,241,188,104,169,103,86,85,237,58,180,180,
  81,54,177,10,173,216,247,69,197,66,42,6,
  27,54,154,172,188,46,245,254,176,159,67,159,
  204,217,93,246,85,253,185,5,92,3,245,89,
  108,27,220,14,81,33,220,157,251,249,221,96,
  47,231,223,37,16,204,201,143,218,13,52,20,
  31,184,233,172,141,105,209,33,135,223,232,17,
  240,217,161,40,160,43,239,9,129,34,136,218,
  234,21,55,72,194,65,171,14,205,47,85,192,
  30,44,11,92,226,177,176,38,239,235,189,187,
  198,12,229,204,161,57,32,184,164,47,23,198,
  164,149,238,255,4,23,57,66,199,111,203,254,
  76,4,102,226,206,41,91,31,37,213,192,243,
  64,166,220,247,170,168,12,179,136,113,55,36,
  246,97,213,69,94,156,233,42,144,15,102,149,
  40,215,70,211,198,206,183,38,34,248,235,7,
  229,22,242,150,139,66,2,6,13,36,158,44,
  89,204,50,40,64,95,34,85,45,252,23,224,
  11,175,211,169,241,143,75,149,111,211,150,238,
  62,22,171,43,68,205,245,92,63,3,60,120,
  251,171,96,241,208,107,213,89,6,16,17,75,
  214,179,173,43,96,40,34,189,106,221,236,191,
  245,168,162,30,240,154,178,86,57,103,251,66,
  175,95,12,44,231,122,229,176,60,214,25,223,
  69,57,11,212,167,36,119,59,165,119,56,22,
  95,201,184,55,171,199,118,79,162,26,80,232,
  71,71,14,248,105,203,224,20,187,19,225,238,
  195,199,233,8,1,2,56,92,234,46,192,32,
  28,41,43,231,43,221,232,254,156,208,171,206,
  97,65,43,98,171,14,1,30,237,43,251,33,
  12,250,239,249,22,90,218,66,191,18,171,190,
  64,191,81,29,232,172,82,84,119,118,36,202,
  194,92,31,66,225,243,72,95,112,82,253,188,
  104,68,184,107,230,249,106,204,155,22,243,103,
  0,18,152,254,246,174,25,85,105,166,21,1,
  114,114,153,78,107,216,213,246,46,55,220,50,
  190,113,151,109,250,190,54,68,17,68,75,104,
  209,161,180,205,73,149,237,115,234,230,51,159,
  91,63,152,161,223,200,18,171,204,3,27,195,
  155,45,243,200,108,44,221,10,225,87,150,101,
  71,167,24,206,97,79,232,186,61,230,229,168,
  249,49,245,74,52,11,77,225,57,226,84,172,
  4,254,173,21,207,178,203,101,211,65,141,201,
  176,13,10,173,75,224,182,187,246,33,237,101,
  183,94,177,175,47,237,217,102,93,241,174,51,
  10,16,79,34,4,190,90,45,251,188,41,8,
  78,35,247,106,247,227,91,166,48,185,255,192,
  229,206,223,1,97,90,153,78,58,241,143,41,
  92,186,8,22,28,2,191,223,102,23,167,78,
  170,181,82,102,101,78,224,83,156,154,200,185,
  51,54,77,54,196,65,229,149,177,33,56,194,
  24,188,29,103,224,14,192,194,173,208,15,192,
  168,193,78,207,108,60,107,238,72,80,220,79,
  7,92,43,79,99,157,157,61,96,202,3,37,
  194,221,88,168,208,165,69,75,162,176,102,60,
  138,222,155,95,153,211,221,32,15,35,97,190,
  93,165,207,1,239,193,150,164,12,229,94,217,
  156,194,12,100,53,221,58,104,51,196,60,231,
  4,81,35,63,159,59,93,175,58,104,107,77,
  196,17,195,63,154,15,162,156,205,13,4,27,
  12,19,38,63,82,33,37,252,191,242,16,252,
  6,154,229,240,93,195,66,171,200,182,200,230,
  186,143,157,129,233,91,22,40,229,196,207,217,
  225,167,146,20,211,148,172,68,199,24,54,241,
  157,47,84,74,26,42,194,221,69,211,147,35,
  245,101,221,56,46,196,36,92,77,53,198,231,
  168,72,104,142,249,222,202,193,185,91,60,116,
  108,181,37,190,63,109,20,243,81,191,50,67,
  46,47,180,237,249,179,99,111,181,2,135,154,
  229,35,230,180,35,78,165,73,206,55,180,4,
  24,164,67,12,0,194,188,198,62,159,16,206,
  159,22,6,111,25,161,93,45,237,90,7,186,
  190,51,224,9,91,105,31,48,20,181,8,255,
  245,46,78,239,238,223,34,77,254,26,221,170,
  207,222,51,205,210,49,57,45,6,232,199,154,
  205,87,255,197,88,233,91,153,204,81,206,166,
  217,98,185,208,160,255,180,40,40,244,136,245,
  120,225,176,51,37,176,36,12,217,23,225,243,
  189,218,95,240,205,74,13,227,20,169,191,45,
  119,166,172,244,34,73,36,53,9,185,47,189,
  56,246,218,221,65,147,166,22,217,5,87,144,
  11,62,83,15,189,177,193,53,26,133,237,58,
  59,72,48,240,61,55,53,174,47,96,5,218,
  63,198,220,171,193,198,6,203,18,153,93,15,
  57,46,107,254,28,194,255,112,69,248,208,204,
  50,15,252,229,106,170,16,236,53,82,162,145,
  175,173,6,87,79,4,3,1,117,96,13,178,
  179,89,222,160,14,94,65,240,110,12,242,81,
  79,101,125,180,149,184,63,25,3,204,254,249,
  46,22,178,201,253,240,188,219,86,67,98,155,
  167,53,37,182,254,173,3,57,25,168,36,144,
  86,1,8,47,21,155,161,225,164,77,67,149,
  52,2,200,55,147,165,56,230,37,158,205,239,
  197,51,7,231,23,82,8,225,148,69,53,60,
  51,156,61,205,175,14,249,92,155,192,213,6,
  71,78,145,151,87,192,190,180,143,3,245,232,
  162,174,80,169,10,245,86,210,161,150,83,196,
  170,17,162,89,85,83,201,1,243,0,190,189,
  173,75,149,214,192,123,226,53,42,52,73,124,
  187,0,19,235,84,73,19,210,157,164,80,250,
  103,28,168,194,75,205,240,1,251,55,58,112,
  76,59,244,210,52,237,101,27,51,92,96,93,
  160,35,13,154,225,85,182,12,62,151,243,167,
  227,55,247,194,16,228,24,205,47,74,116,238,
  34,25,255,100,205,49,125,51,80,212,27,208,
  210,197,81,14,238,181,221,147,116,65,165,35,
  206,225,217,153,180,93,91,208,65,102,252,103,
  75,12,64,150,88,155,254,188,180,162,205,90,
  233,45,200,92,51,67,175,230,2,88,64,191,
  103,231,24,21,123,38,24,195,87,94,11,54,
  46,34,1,186,111,230,192,107,187,49,72,90,
  96,97,30,216,52,67,247,59,31,171,60,111,
  155,32,40,212,30,147,226,6,21,201,124,150,
  21,4,115,238,46,78,100,45,166,230,50,208,
  16,57,157,230,18,208,222,209,204,203,226,46,
  215,226,80,243,88,208,0,71,204,2,236,29,
  253,185,220,51,53,35,153,179,152,102,10,62,
  96,250,91,65,106,225,195,237,235,73,161,249,
  202,63,7,230,85,14,186,225,193,196,167,84,
  18,163,233,79,24,70,171,242,175,229,29,130,
  78,6,180,90,18,162,40,214,75,40,113,19,
  198,244,70,231,238,95,53,48,211,252,204,194,
  12,168,211,33,42,15,168,22,27,110,179,178,
  174,70,224,44,249,163,212,74,237,215,51,161,
  83,78,170,22,23,159,34,6,147,170,187,148,
  69,166,73,225,199,35,205,78,186,190,115,16,
  100,20,29,243,97,161,113,225,20,220,9,6,
  198,237,172,243,169,14,174,246,44,224,100,163,
  188,172,179,17,222,3,162,202,95,247,29,201,
  137,241,190,1,242,35,153,89,116,54,89,58,
  189,251,112,51,220,107,212,18,106,204,153,90,
  219,254,89,243,241,152,85,31,190,36,0,190,
  184,76,69,247,55,109,47,196,97,51,148,86,
  78,215,176,67,13,191,101,233,166,11,217,15,
  7,221,252,245,235,83,85,139,185,86,154,159,
  11,42,62,8,57,6,7,141,108,120,41,40,
  118,245,211,185,4,41,36,8,14,54,101,108,
  82,89,20,231,188,207,58,169,13,180,152,110,
  23,64,167,99,63,208,206,254,86,162,179,253,
  29,52,221,29,163,35,17,21,43,105,151,246,
  215,233,221,185,60,114,214,217,174,30,69,166,
  48,100,195,115,158,203,222,35,117,94,150,34,
  23,205,123,156,225,122,213,143,86,80,63,2,
  9,39,175,206,177,43,107,199,100,206,13,20,
  255,97,65,157,35,77,61,60,74,69,80,118,
  53,72,154,248,70,242,176,155,165,41,155,18,
  111,97,214,116,167,169,13,188,39,239,117,86,
  241,38,60,195,1,44,245,31,250,27,8,3,
  190,222,9,95,15,117,107,17,122,86,213,53,
  60,199,248,79,22,72,154,47,51,70,41,50,
  181,69,26,253,122,77,151,21,82,34,18,116,
  202,221,225,250,64,76,185,10,79,77,146,240,
  171,73,173,135,23,65,249,80,109,165,166,228,
  157,99,74,224,27,112,202,70,38,32,72,246,
  112,71,110,74,170,233,249,223,115,210,225,121,
  255,39,188,221,148,85,66,208,245,4,4,26,
  1,70,182,254,233,40,219,19,110,51,89,84,
  235,33,62,191,248,4,174,39,85,53,69,157,
  62,57,182,92,201,241,167,209,22,197,35,17,
  213,207,225,141,209,239,58,178,227,78,31,180,
  254,49,56,170,219,179,68,207,72,191,247,162,
  68,246,110,167,228,241,164,174,110,169,58,174,
  225,181,93,100,88,249,245,98,230,100,18,219,
  12,210,166,176,196,205,24,117,106,217,88,178,
  214,216,105,32,240,53,209,169,67,208,11,188,
  100,112,174,212,62,113,146,59,173,53,202,193,
  3,182,51,246,63,110,151,2,76,179,157,105,
  175,60,245,52,172,80,99,254,97,171,184,58,
  162,9,183,178,162,48,108,42,162,177,91,219,
  155,29,251,212,105,170,38,188,44,75,206,228,
  153,7,50,31,163,206,50,64,225,194,28,56,
  173,76,102,53,181,176,43,176,207,147,94,225,
  217,187,98,234,106,166,136,47,205,81,36,17,
  40,62,47,19,0,106,0,245,6,158,198,196,
  148,58,250,8,64,108,21,101,196,217,253,67,
  19,182,47,100,246,197,187,90,164,78,58,91,
  82,166,73,224,94,60,160,240,141,91,185,91,
  98,118,96,247,180,74,40,83,6,188,213,111,
  2,190,87,83,55,90,185,230,5,249,221,85,
  41,181,177,23,15,207,41,120,204,238,203,147,
  233,44,33,67,123,238,147,182,158,22,206,57,
  97,219,69,89,213,93,165,34,246,173,208,147,
  0,255,197,16,56,63,11,211,173,64,109,43,
  50,81,154,19,90,36,173,251,198,17,0,75,
  147,249,248,238,222,49,15,49,249,225,51,91,
  39,77,41,4,189,16,221,23,213,50,64,219,
  87,198,185,146,252,49,17,204,234,183,141,94,
  23,222,221,15,70,11,232,198,229,254,62,186,
  26,116,186,246,82,48,189,120,28,186,195,242,
  180,245,217,26,63,250,37,75,27,224,248,89,
  44,107,70,6,52,235,169,2,231,206,151,201,
  27,142,91,78,67,61,212,167,223,147,231,6,
  214,238,184,136,86,93,149,57,164,67,144,209,
  180,161,238,224,66,115,64,255,90,95,235,117,
  145,76,193,227,29,87,14,62,45,77,222,167,
  164,239,216,204,23,205,148,2,63,68,153,122,
  83,208,43,235,80,77,46,251,163,28,109,221,
  248,108,38,35,240,119,27,160,24,29,106,183,
  155,9,235,82,176,226,27,175,156,89,250,246,
  170,3,42,221,208,251,44,199,160,74,176,170,
  20,49,248,154,9,232,226,229,69,87,250,241,
  49,167,37,162,54,70,8,223,245,243,41,79,
  232,166,16,226,34,203,205,33,130,75,97,230,
  167,84,43,177,86,198,77,195,138,6,19,195,
  10,167,131,170,182,165,228,25,246,42,199,39,
  172,167,18,36,50,195,167,47,90,79,7,148,
  49,239,188,49,21,200,14,14,240,102,190,103,
  89,145,156,236,173,1,63,10,10,192,130,25,
  53,197,149,51,150,42,117,236,196,29,244,154,
  72,236,171,95,154,212,1,52,141,101,30,52,
  101,183,181,16,191,11,66,236,59,72,73,231,
  61,238,183,245,242,31,106,211,248,173,108,189,
  237,248,56,135,13,36,106,187,59,212,229,48,
  224,65,35,21,252,211,52,221,20,231,92,157,
  242,91,172,132,191,149,41,164,11,55,23,164,
  39,185,21,79,72,72,38,160,172,153,169,147,
  91,55,2,173,95,50,30,239,36,93,20,90,
  70,76,181,73,74,79,251,220,87,155,169,46,
  213,249,78,253,135,181,245,31,234,254,61,103,
  209,24,69,10,249,88,158,12,199,167,37,171,
  179,63,140,240,230,195,231,49,191,217,9,205,
  35,53,183,1,207,227,189,170,62,109,51,105,
  52,240,30,180,235,220,223,220,195,57,1,140,
  63,85,11,65,200,73,106,35,178,183,24,54,
  227,223,65,65,100,88,68,232,248,100,155,98,
  36,255,182,175,110,104,195,129,26,192,27,209,
  44,229,170,255,223,17,121,53,80,35,169,208,
  184,231,99,185,195,1,183,40,158,62,174,6,
  243,18,149,99,198,56,31,54,51,14,248,155,
  149,244,229,42,155,43,179,35,2,30,191,216,
  170,4,162,37,96,164,156,29,101,7,87,98,
  113,227,65,217,160,79,198,83,236,203,212,174,
  4,240,20,81,236,26,67,196,17,40,227,185,
  55,79,236,254,1,10,21,16,228,240,245,81,
  48,152,220,245,67,173,236,177,38,195,160,70,
  33,143,31,200,205,70,160,83,177,43,25,191,
  191,185,56,222,151,179,1,82,167,19,158,162,
  224,26,185,56,39,148,228,167,83,232,14,175,
  30,198,94,88,239,163,84,144,200,214,198,231,
  232,229,13,113,29,203,203,219,106,103,131,9,
  6,29,78,192,207,38,194,158,91,15,89,209,
  49,183,173,253,95,21,235,87,73,212,233,22,
  215,141,209,52,233,33,119,205,182,249,92,100,
  49,64,6,226,201,1,204,49,122,117,93,45,
  46,244,30,211,55,202,6,233,116,33,21,176,
  24,183,96,54,19,49,188,13,91,208,97,195,
  92,18,52,210,208,13,165,39,252,185,153,51,
  44,166,25,204,151,6,9,40,59,188,254,179,
  63,200,251,82,141,102,3,98,13,251,99,109,
  19,19,39,69,206,70,56,191,13,6,54,160,
  97,178,213,161,206,97,30,251,6,60,202,64,
  92,84,157,161,232,99,88,177,20,152,182,103,
  246,66,205,170,17,21,7,232,165,75,104,61,
  170,205,224,6,156,61,175,52,212,39,25,215,
  169,80,156,80,236,107,113,176,166,113,147,105,
  204,64,179,180,197,60,223,244,41,168,235,224,
  184,188,103,24,190,185,48,228,251,35,20,74,
  240,78,246,42,198,168,1,121,103,149,222,170,
  157,71,23,236,214,33,203,32,146,26,57,246,
  249,224,225,82,194,170,19,26,193,102,9,18,
  118,52,59,73,213,101,232,255,7,250,86,60,
  240,15,210,181,4,58,211,3,71,206,165,80,
  41,7,246,241,156,7,239,56,26,153,251,51,
  74,152,22,197,56,43,97,40,59,5,10,222,
  103,183,238,235,160,90,16,32,6,225,31,207,
  15,118,93,184,84,232,94,183,101,188,85,115,
  36,193,26,224,227,42,214,44,59,9,202,221,
  55,243,234,157,228,83,163,42,207,231,186,62,
  43,91,44,29,172,19,26,196,184,17,103,195,
  32,37,252,30,188,184,52,9,201,243,2,37,
  252,88,13,240,30,24,75,152,48,72,62,0,
  220,155,90,38,252,154,100,95,0,20,218,211,
  206,7,5,29,155,214,79,3,87,157,200,169,
  82,204,183,223,150,79,108,196,67,181,98,120,
  236,54,7,98,173,159,155,219,97,233,74,87,
  168,65,93,248,191,196,100,42,200,12,103,12,
  50,109,214,163,215,20,5,74,198,22,187,210,
  58,107,198,192,247,100,208,211,74,191,114,175,
  177,233,79,29,180,43,3,158,35,173,218,17,
  27,251,60,111,254,183,202,81,194,33,169,246,
  41,225,10,15,86,107,101,216,198,202,97,33,
  73,239,114,76,3,78,46,165,37,96,207,7,
  221,67,12,73,1,206,72,95,92,7,38,185,
  59,42,84,14,86,47,246,95,168,254,15,18,
  205,146,57,95,210,160,191,226,204,223,251,246,
  32,198,158,137,38,24,105,235,31,145,1,182,
  168,226,164,84,85,89,188,109,95,248,224,229,
  178,160,53,3,92,95,69,231,62,1,41,22,
  182,68,102,164,33,84,209,18,236,15,190,233,
  26,62,181,176,75,76,180,175,102,76,175,46,
  217,77,93,38,199,46,92,212,192,192,6,211,
  57,214,36,5,45,251,48,8,169,205,62,191,
  99,47,227,221,223,172,77,64,213,62,1,243,
  93,193,252,159,99,250,63,252,11,1,233,221,
  180,231,6,78,86,220,113,253,70,229,14,101,
  166,17,216,76,73,41,239,208,248,214,92,252,
  20,84,196,253,44,9,24,26,209,210,119,38,
  8,195,182,182,79,69,52,172,163,68,223,209,
  85,37,215,211,217,11,0,98,38,35,48,174,
  94,87,168,172,71,200,72,81,238,172,239,1,
  48,241,7,75,221,176,17,60,234,112,72,55,
  48,244,6,64,205,87,197,118,51,146,186,70,
  238,254,0,202,82,162,40,10,93,37,245,18,
  36,254,22,167,176,181,41,42,29,93,102,61,
  7,178,80,234,120,239,37,155,189,41,171,236,
  120,4,205,12,18,99,119,42,160,16,180,157,
  183,251,54,197,187,239,9,74,170,168,106,87,
  72,114,12,136,251,192,37,72,51,199,38,220,
  23,7,138,50,163,76,21,206,34,149,223,82,
  171,172,243,181,197,208,90,109,27,214,127,46,
  106,197,204,211,183,199,114,56,34,35,83,41,
  249,14,20,183,1,153,96,221,3,164,121,20,
  74,95,175,94,65,148,83,212,193,86,27,187,
  62,227,193,239,88,223,68,29,16,86,58,223,
  66,195,230,151,238,229,183,195,184,142,166,206,
  168,155,42,29,252,167,242,94,174,5,245,237,
  255,214,46,229,239,157,26,230,99,18,73,185,
  86,152,0,38,31,38,155,6,240,251,122,28,
  25,68,31,202,171,75,250,190,218,222,203,98,
  216,144,85,34,249,233,16,4,171,238,255,5,
  250,84,231,59,86,61,210,149,1,175,68,202,
  5,149,141,107,149,185,2,164,245,199,61,223,
  164,93,222,87,92,10,173,177,34,87,140,241,
  166,198,0,74,8,39,167,50,222,222,181,63,
  33,53,101,155,239,213,162,94,52,154,239,170,
  102,50,207,172,163,189,231,21,24,21,168,75,
  224,164,89,229,231,85,79,165,201,135,78,148,
  50,18,73,227,88,222,118,135,250,94,251,184,
  84,94,242,82,252,244,44,17,97,206,220,168,
  201,24,21,228,21,18,34,67,225,161,240,80,
  96,44,162,56,82,156,240,67,36,215,244,78,
  223,24,217,211,64,151,221,105,51,178,33,1,
  77,59,224,178,232,184,27,221,50,249,6,19,
  181,85,93,64,93,49,137,194,36,67,184,44,
  39,33,23,65,85,168,26,49,138,134,162,75,
  206,157,182,40,98,196,201,212,79,134,171,104,
  26,76,136,178,56,220,223,112,156,143,30,6,
  166,234,225,29,111,233,171,221,178,174,32,248,
  133,167,7,242,221,161,182,161,78,22,184,55,
  6,218,14,159,112,185,182,30,168,77,72,110,
  70,238,157,89,78,188,137,50,178,1,12,228,
  42,35,60,193,195,30,209,28,249,47,231,102,
  208,187,53,213,79,171,246,198,75,26,250,224,
  209,4,33,156,19,22,54,4,19,65,81,221,
  36,22,221,234,119,26,155,46,89,157,8,88,
  207,7,37,201,66,87,172,200,42,185,210,112,
  147,118,105,46,66,71,159,90,226,202,14,193,
  145,106,171,78,169,117,145,71,81,242,14,170,
  175,168,22,237,64,254,77,195,166,195,179,62,
  168,42,194,186,75,31,82,85,19,73,127,239,
  166,171,213,175,114,205,212,92,178,222,224,254,
  22,107,221,224,219,154,197,201,236,240,227,68,
  178,53,29,206,164,152,218,182,184,112,216,221,
  247,255,152,146,57,4,60,245,224,200,95,99,
  95,144,86,171,174,188,252,75,229,253,199,25,
  9,183,23,96,21,19,195,4,103,246,25,246,
  179,61,231,90,103,70,244,100,193,2,62,10,
  140,145,242,193,143,174,43,235,146,104,170,166,
  156,103,184,0,35,75,90,0,64,38,162,105,
  251,57,37,125,188,52,185,53,242,240,123,81,
  26,205,254,121,167,173,165,13,53,189,113,113,
  94,52,172,158,212,98,88,57,190,90,118,140,
  146,26,51,38,12,168,240,50,245,145,233,206,
  142,165,30,113,157,20,208,75,83,233,123,39,
  209,238,46,2,56,240,200,246,12,84,106,170,
  162,218,91,139,179,9,71,143,24,233,244,231,
  161,140,240,20,73,81,243,245,91,94,64,70,
  194,165,34,106,236,244,244,52,249,22,71,63,
  196,41,174,215,251,37,81,151,180,222,183,171,
  60,135,33,198,101,32,62,204,254,230,204,93,
  235,85,161,186,30,241,139,94,195,160,176,98,
  246,169,92,152,250,162,74,199,216,217,198,239,
  151,236,156,36,251,66,79,53,255,155,78,51,
  212,178,89,236,48,141,231,65,56,245,110,177,
  165,184,106,21,69,31,159,157,179,135,254,209,
  0,234,179,196,177,71,8,190,41,190,202,210,
  91,88,36,158,52,6,39,32,61,141,39,71,
  17,64,5,234,249,47,24,253,171,199,101,25,
  156,72,159,31,23,11,52,204,234,105,39,212,
  204,45,142,200,144,196,230,96,246,70,170,79,
  248,83,209,206,144,78,20,94,198,201,52,142,
  79,154,213,163,14,222,23,99,15,12,218,56,
  43,149,103,37,77,11,57,209,208,59,14,142,
  145,168,9,237,37,16,45,82,75,24,157,81,
  174,187,80,116,39,177,168,175,239,185,248,113,
  203,50,165,5,21,70,76,189,141,113,192,79,
  24,213,243,181,159,221,153,66,24,87,199,36,
  51,161,175,102,255,250,33,16,150,7,225,233,
  96,141,49,161,200,73,74,89,175,216,180,12,
  79,141,243,245,228,161,172,152,0,248,147,201,
  103,226,89,32,70,238,82,186,212,211,192,72,
  10,87,64,232,232,86,202,138,149,7,160,70,
  89,140,170,232,108,88,249,167,3,86,64,251,
  41,61,24,192,29,158,155,48,187,109,49,30,
  116,175,116,171,145,75,187,243,243,104,162,181,
  250,133,43,107,79,183,20,31,87,87,207,144,
  249,239,243,49,113,237,95,93,81,10,93,158,
  191,150,161,243,37,1,27,239,164,235,91,18,
  98,208,110,7,67,168,231,223,3,190,22,47,
  90,26,202,47,25,80,247,99,1,71,82,163,
  12,70,106,232,147,47,205,184,187,74,19,232,
  202,66,104,238,213,61,202,66,210,177,158,40,
  41,201,241,100,161,47,209,40,123,2,224,46,
  224,98,177,243,92,228,148,103,227,205,203,24,
  79,8,221,184,101,18,4,158,188,121,206,85,
  84,159,175,110,138,248,159,81,116,24,32,148,
  164,237,187,164,83,105,164,107,244,120,14,182,
  49,220,54,153,178,193,197,32,55,13,208,169,
  33,16,19,240,96,110,156,210,32,251,172,180,
  64,100,33,222,30,193,182,123,88,172,144,87,
  21,89,58,14,78,248,226,127,210,5,210,5,
  214,31,184,27,32,57,254,186,57,222,240,72,
  246,214,236,168,146,124,26,164,235,85,73,106,
  60,1,214,110,1,164,31,65,112,49,164,208,
  57,49,164,228,207,209,51,52,7,248,51,54,
  85,158,23,188,91,168,30,182,202,213,95,19,
  56,89,157,46,10,2,54,20,252,39,75,166,
  196,249,155,233,250,46,68,186,181,247,21,125,
  82,15,50,243,178,185,179,251,91,184,174,63,
  10,206,31,148,54,14,243,45,201,230,102,127,
  12,219,90,221,67,80,71,154,31,95,16,33,
  209,248,9,83,59,165,253,47,61,173,173,240,
  146,123,53,96,73,160,176,9,25,9,179,94,
  85,236,42,211,89,159,94,80,96,160,175,220,
  74,73,1,210,21,172,49,229,69,180,95,177,
  14,189,198,137,223,237,47,124,71,141,91,160,
  9,174,26,255,179,34,200,43,48,18,65,197,
  151,34,162,92,137,254,221,163,138,184,43,228,
  214,249,138,143,148,29,71,25,69,0,249,249,
  58,17,150,33,18,198,105,70,98,102,155,34,
  235,23,30,23,94,234,78,63,237,67,160,235,
  124,30,239,251,135,173,166,35,38,254,84,74,
  221,158,219,180,218,189,101,190,113,212,195,247,
  5,163,42,35,198,24,19,78,26,215,79,61,
  24,208,209,186,25,2,159,134,13,195,192,180,
  170,243,50,3,8,197,85,104,254,163,246,217,
  47,19,67,4,252,157,165,38,56,196,133,147,
  219,232,245,41,2,72,230,242,57,62,147,100,
  215,156,11,194,189,95,174,69,80,249,182,243,
  248,219,36,179,61,141,191,94,148,156,184,117,
  76,197,26,116,157,168,70,24,44,194,19,126,
  59,250,150,196,239,198,117,100,116,60,243,67,
  236,242,115,34,91,73,241,160,87,202,200,254,
  38,28,45,93,72,252,192,178,208,211,135,54,
  73,152,100,184,255,167,237,1,159,32,226,210,
  3,68,13,156,184,83,221,169,212,38,164,101,
  194,74,39,161,217,174,186,91,56,234,8,253,
  107,221,68,51,212,189,66,57,113,245,22,95,
  251,241,164,242,214,91,98,78,44,171,151,187,
  249,191,252,49,33,99,74,97,148,99,158,67,
  113,85,80,206,133,80,254,62,151,177,144,12,
  50,243,1,105,233,187,10,114,206,4,58,112,
  18,15,61,113,17,187,17,89,197,241,11,251,
  89,207,238,217,5,226,222,40,232,241,90,168,
  215,107,175,191,199,255,177,254,95,1,16,92,
  165,51,154,215,18,202,200,52,107,186,52,76,
  51,18,249,115,146,118,210,237,10,191,27,30,
  216,33,47,184,28,68,162,3,182,68,42,39,
  92,23,176,61,15,220,220,27,149,234,7,50,
  38,89,219,174,194,96,159,253,93,173,32,183,
  186,6,170,98,193,212,168,196,57,240,229,237,
  252,95,247,52,66,165,66,54,39,200,183,249,
  36,149,155,191,205,207,225,182,70,191,178,58,
  225,73,35,79,73,44,231,142,14,77,140,98,
  109,109,221,117,192,165,170,200,183,12,60,8,
  249,168,6,74,214,252,91,109,47,53,74,193,
  76,116,110,64,34,59,48,114,13,252,95,153,
  238,183,157,93,105,175,8,63,217,95,234,68,
  234,192,239,68,30,228,69,192,163,136,123,7,
  252,42,216,9,100,92,116,54,210,86,166,237,
  29,210,107,227,58,46,164,192,214,96,70,177,
  127,240,54,70,116,110,107,180,171,83,203,50,
  201,164,106,38,44,90,95,238,226,2,1,244,
  64,49,220,178,80,163,186,107,155,182,78,116,
  72,0,151,182,46,29,190,160,233,124,53,26,
  56,37,10,225,78,177,118,4,54,158,254,195,
  223,235,91,191,150,238,77,222,32,110,174,74,
  229,191,237,120,168,97,120,89,218,224,255,168,
  56,12,185,163,44,254,76,247,233,0,244,62,
  186,236,123,241,77,222,202,5,51,109,45,92,
  180,115,194,60,5,154,26,230,209,110,22,76,
  117,93,46,70,21,12,249,245,102,63,200,49,
  219,118,225,241,44,182,85,234,102,181,26,80,
  197,254,238,149,187,5,178,246,26,210,224,142,
  63,174,74,255,240,38,206,115,136,205,225,231,
  27,92,74,185,62,34,157,236,48,251,244,47,
  110,180,0,236,8,172,14,60,82,112,251,212,
  229,102,251,207,65,71,27,55,91,166,85,246,
  228,62,52,188,59,190,79,57,220,241,5,82,
  41,178,39,107,39,114,176,95,240,224,228,107,
  209,147,57,106,114,242,215,20,162,76,75,170,
  232,71,97,235,45,35,211,80,75,64,20,168,
  254,229,64,89,26,34,109,66,208,20,148,48,
  113,187,160,173,10,225,165,237,250,239,112,54,
  156,204,87,135,24,26,194,140,239,217,47,34,
  37,81,57,51,205,104,71,185,17,238,85,204,
  220,98,252,246,146,156,196,53,20,49,20,43,
  183,29,68,94,201,105,104,23,18,70,42,32,
  92,219,71,81,74,169,93,154,180,76,250,52,
  95,85,75,70,211,186,100,226,197,56,219,32,
  165,78,93,19,220,243,216,237,239,4,14,164,
  82,84,60,161,251,234,226,106,89,40,143,238,
  215,184,207,238,37,143,64,224,252,17,17,245,
  11,29,18,245,158,64,8,76,57,149,34,157,
  180,65,64,182,113,68,8,161,242,61,20,25,
  76,234,106,97,189,68,6,165,92,70,105,0,
  190,189,37,235,175,148,216,70,157,53,211,215,
  22,234,184,170,237,85,30,195,229,9,69,143,
  179,122,248,12,41,25,178,196,94,233,231,213,
  161,38,181,94,224,26,39,93,149,57,44,219,
  167,218,71,72,204,150,249,219,161,38,235,38,
  214,13,235,141,15,82,27,231,145,53,20,89,
  158,162,62,148,250,144,59,212,106,231,255,22,
  217,218,218,19,108,232,121,192,22,35,58,17,
  6,26,185,236,89,226,165,0,36,244,199,239,
  221,237,62,187,12,42,163,250,45,72,115,165,
  194,14,23,173,43,233,196,210,209,10,199,63,
  90,37,5,243,236,100,246,66,166,207,5,229,
  33,203,210,94,140,205,112,37,108,186,166,50,
  98,35,156,246,172,62,232,173,160,42,45,17,
  56,192,206,247,244,30,82,55,104,218,93,204,
  164,48,225,153,179,236,34,89,170,14,224,196,
  216,219,88,51,186,1,246,18,75,0,143,171,
  183,238,88,219,28,129,202,178,175,166,107,31,
  222,110,55,157,31,72,92,252,10,200,42,90,
  222,206,101,169,159,21,122,19,177,21,78,229,
  34,246,0,254,20,249,193,180,61,174,183,133,
  207,53,234,173,216,94,167,53,210,150,204,14,
  25,231,170,160,252,7,119,98,119,97,95,88,
  138,44,51,245,192,60,200,18,197,236,164,78,
  89,229,156,242,173,246,145,30,88,5,218,67,
  15,175,207,157,196,55,175,250,49,157,183,63,
  197,57,74,86,145,85,25,251,154,85,199,99,
  204,32,54,26,109,74,136,10,35,152,236,169,
  220,33,51,75,168,147,69,68,136,146,159,195,
  169,207,101,204,95,180,101,209,193,216,16,145,
  247,219,0,84,196,8,134,89,239,129,232,27,
  167,34,48,238,88,7,77,66,132,226,232,164,
  98,183,82,33,98,66,170,29,6,22,168,110,
  243,111,70,180,150,163,213,247,129,80,4,170,
  242,153,193,239,73,204,74,115,142,218,43,78,
  135,236,251,26,197,157,62,168,161,167,45,164,
  44,69,217,199,148,18,194,245,254,18,32,6,
  134,204,7,52,209,31,134,194,174,88,171,62,
  167,252,219,137,77,244,245,181,224,188,147,30,
  184,40,0,74,247,174,223,78,16,207,25,18,
  48,191,56,96,108,255,70,94,173,190,31,24,
  31,34,94,146,178,32,233,50,148,96,58,59,
  167,68,193,73,79,42,141,218,228,120,84,206,
  205,252,38,39,150,170,27,248,160,30,205,204,
  49,209,62,171,229,1,76,168,50,23,108,101,
  89,197,165,73,107,127,42,41,82,249,121,100,
  144,152,136,111,217,63,206,182,151,51,95,180,
  43,3,210,88,1,30,20,15,103,34,64,155,
  229,105,139,180,31,120,217,104,8,119,221,61,
  150,163,152,10,217,25,211,34,65,187,13,227,
  40,183,86,179,85,252,49,75,57,171,61,21,
  172,241,72,137,174,160,30,6,23,194,46,13,
  227,78,58,192,158,188,247,177,72,107,215,171,
  209,101,212,18,102,149,42,74,54,154,92,36,
  213,185,139,22,194,71,248,214,154,219,24,49,
  75,46,23,61,72,223,218,25,185,114,81,110,
  159,167,173,240,233,223,86,251,31,25,56,82,
  199,91,36,13,106,238,227,86,255,21,226,5,
  217,166,65,159,253,26,98,84,156,190,59,185,
  184,177,174,218,163,91,41,247,198,209,236,106,
  102,79,66,169,169,28,161,210,99,228,166,22,
  82,173,184,42,123,205,54,140,142,48,232,180,
  29,224,243,92,205,186,148,57,3,142,100,23,
  172,163,132,211,214,84,232,28,197,173,156,181,
  192,14,35,247,163,188,187,218,104,209,100,228,
  156,205,30,141,178,174,56,225,86,50,61,199,
  189,20,177,130,241,67,28,150,152,67,71,185,
  8,194,191,151,28,86,78,10,235,156,217,113,
  69,200,109,18,211,195,204,175,88,145,161,234,
  45,29,201,102,202,19,143,180,170,184,166,2,
  147,190,125,227,109,177,106,159,63,183,17,95,
  80,142,45,228,176,222,148,213,88,205,194,2,
  207,79,81,10,210,86,40,74,229,212,212,85,
  244,18,22,203,188,51,184,163,63,85,183,246,
  78,55,55,111,7,218,252,17,78,151,248,77,
  255,62,195,237,208,244,198,2,249,12,145,135,
  253,225,237,81,250,179,70,5,13,69,82,18,
  6,190,166,120,165,79,72,130,141,18,202,245,
  16,206,213,153,174,97,54,9,7,78,187,46,
  255,74,92,175,148,80,53,47,180,158,78,29,
  97,135,56,171,21,1,94,243,194,185,30,136,
  82,54,21,192,87,152,83,245,93,38,48,0,
  9,159,69,56,80,247,39,9,138,218,53,149,
  189,90,0,56,14,72,84,193,112,59,76,131,
  9,191,72,50,218,237,199,67,228,253,83,192,
  147,65,104,207,151,70,32,143,159,165,169,37,
  5,138,233,69,157,80,209,157,154,220,156,163,
  39,145,39,36,49,208,4,180,28,12,141,157,
  21,137,121,246,164,226,31,147,246,214,29,178,
  99,130,9,55,135,106,0,33,85,65,28,15,
  192,12,236,74,50,179,29,202,54,220,204,241,
  110,63,61,123,137,82,9,98,165,235,222,208,
  164,77,203,226,253,143,149,95,178,220,230,200,
  32,157,2,46,54,206,8,74,191,43,43,240,
  235,34,107,70,15,140,245,55,251,88,172,51,
  202,177,48,253,224,230,230,37,117,67,228,58,
  151,193,81,194,241,204,3,81,13,194,100,157,
  235,107,35,8,228,159,9,151,29,167,211,153,
  60,219,115,2,217,226,83,210,26,217,14,65,
  32,162,7,214,182,157,56,246,87,173,242,236,
  43,57,235,234,96,23,26,61,156,20,218,111,
  246,19,102,193,174,64,27,4,98,145,214,1,
  167,251,178,6,82,113,13,44,89,88,250,14,
  37,231,207,241,206,190,64,85,46,148,181,167,
  37,206,81,114,91,187,61,42,104,236,189,75,
  247,235,17,73,79,7,39,37,72,33,76,35,
  185,238,0,249,46,170,97,78,98,208,16,213,
  181,21,100,40,181,99,244,166,202,233,203,88,
  100,21,28,218,103,170,169,190,26,72,145,64,
  18,32,177,246,61,187,27,109,29,123,218,36,
  84,253,87,230,167,167,242,82,175,154,242,96,
  130,34,81,62,102,7,86,35,199,29,150,67,
  22,32,119,103,22,224,58,240,91,167,104,40,
  79,254,46,201,36,57,99,222,75,163,0,107,
  159,254,168,205,83,180,74,100,72,31,43,62,
  214,65,191,147,226,111,61,90,255,72,26,106,
  16,170,6,168,201,217,18,57,70,99,96,135,
  144,221,136,150,249,38,44,164,111,179,17,156,
  72,194,101,169,188,40,178,98,11,170,88,22,
  157,230,197,43,27,194,9,119,203,6,180,154,
  39,227,39,177,205,180,144,83,206,168,164,235,
  194,6,239,61,249,96,248,109,245,1,253,197,
  36,47,43,148,54,101,68,189,251,178,241,147,
  110,46,14,170,205,62,74,35,71,157,248,110,
  45,3,62,48,210,248,254,81,31,211,215,246,
  77,186,211,7,228,81,66,64,232,0,212,79,
  157,247,1,226,193,97,214,248,248,5,48,153,
  45,195,61,56,249,89,171,188,22,104,216,103,
  217,233,177,17,164,210,122,61,239,20,50,255,
  1,201,226,4,1,246,65,211,88,21,134,56,
  165,214,73,48,129,3,186,230,163,116,82,242,
  17,5,17,185,200,165,69,75,194,81,96,172,
  242,100,190,5,170,224,71,2,150,170,194,143,
  172,209,94,237,47,62,229,50,61,224,190,25,
  70,89,40,172,59,178,193,237,110,104,53,242,
  34,190,182,222,197,143,219,79,179,228,91,212,
  37,208,1,73,213,238,54,248,237,246,208,99,
  202,77,87,247,21,223,83,152,28,115,62,221,
  56,250,31,4,6,55,197,86,229,38,221,251,
  218,232,45,44,245,23,30,158,3,162,135,63,
  253,204,12,252,149,225,83,83,11,198,135,167,
  168,78,168,55,70,167,221,194,21,222,80,243,
  64,75,46,29,220,163,55,73,246,2,10,99,
  105,194,41,149,64,32,62,30,19,182,64,154,
  237,180,25,24,53,98,26,204,197,99,150,230,
  163,167,188,39,237,66,179,85,21,252,229,147,
  234,22,27,110,248,183,106,55,220,213,246,118,
  61,166,208,157,133,27,167,177,88,197,50,39,
  10,117,162,186,221,217,17,186,23,60,56,251,
  19,164,165,229,172,222,154,91,204,186,169,185,
  10,8,239,250,210,43,73,244,1,85,19,230,
  180,75,153,62,158,77,203,74,30,88,7,216,
  158,209,220,236,253,172,251,75,51,67,147,51,
  12,201,15,236,87,71,244,72,91,64,65,58,
  106,117,255,55,244,185,180,205,146,205,247,60,
  49,170,231,135,213,85,42,213,47,203,54,53,
  224,70,229,239,68,170,92,248,7,233,74,86,
  173,206,156,165,207,223,42,69,221,69,17,88,
  238,42,13,215,70,157,93,53,163,183,70,84,
  233,15,220,26,144,62,184,230,112,86,47,8,
  217,227,224,188,68,28,36,24,57,191,234,61,
  238,62,76,73,102,99,203,55,69,82,62,112,
  178,105,168,76,162,79,42,225,83,186,6,22,
  215,92,220,33,166,89,28,208,230,13,107,18,
  173,213,219,195,210,199,160,237,2,243,252,230,
  231,239,245,157,211,42,217,54,84,221,69,108,
  186,16,32,175,178,50,3,72,9,173,89,77,
  55,102,83,107,231,205,224,251,29,186,42,219,
  117,85,74,227,104,26,231,176,229,43,108,94,
  24,41,254,143,82,9,9,56,205,45,7,63,
  84,105,248,83,30,60,220,255,229,58,53,80,
  211,70,182,5,64,163,208,104,101,7,160,145,
  71,75,47,9,54,73,19,58,100,178,255,51,
  38,145,95,59,168,99,198,33,109,155,111,97,
  73,235,201,207,226,64,63,69,244,192,76,182,
  168,252,189,166,229,154,165,177,62,61,114,40,
  210,243,165,32,8,11,218,197,58,172,202,12,
  8,63,183,184,56,190,37,76,175,88,236,164,
  87,172,111,237,81,66,67,209,155,79,115,22,
  29,101,118,78,185,205,114,15,227,251,215,224,
  54,240,210,218,181,187,151,96,168,253,253,251,
  189,167,92,201,168,196,215,57,52,172,102,33,
  69,160,31,168,193,109,150,81,161,225,160,108,
  72,223,7,64,187,102,21,109,235,96,111,2,
  79,252,82,122,250,204,225,97,241,75,182,146,
  237,27,87,59,147,210,162,194,83,83,11,94,
  74,173,51,109,98,248,80,51,42,115,255,70,
  255,153,166,103,232,192,191,46,240,246,192,205,
  10,79,33,225,46,215,10,18,18,178,5,190,
  43,21,35,209,92,87,101,21,230,195,167,183,
  22,58,218,168,149,217,27,17,33,14,197,19,
  223,47,35,162,177,107,99,132,86,89,230,19,
  249,181,19,186,67,13,118,29,166,202,30,78,
  251,199,62,231,112,159,187,30,210,49,81,83,
  21,76,15,104,208,48,42,70,14,198,243,217,
  226,164,150,237,28,205,159,159,84,146,185,244,
  104,227,242,37,222,182,103,159,44,205,213,242,
  157,35,99,95,159,85,51,0,17,96,101,215,
  27,15,243,137,225,165,69,96,69,99,251,166,
  82,155,204,38,201,225,77,7,17,141,98,45,
  93,230,181,164,5,224,244,93,52,162,5,196,
  18,26,83,78,194,87,244,170,170,50,201,47,
  218,179,84,199,48,196,42,115,5,66,33,166,
  77,234,22,139,55,91,88,70,171,184,204,27,
  195,253,153,17,219,198,57,116,53,207,25,155,
  148,119,22,74,19,40,218,46,23,149,220,164,
  102,151,141,207,207,24,28,4,219,29,55,191,
  87,152,175,233,206,104,200,191,77,181,186,164,
  65,63,97,28,44,19,18,174,88,193,209,32,
  4,207,35,168,55,161,214,113,196,114,111,57,
  236,41,199,175,173,86,64,34,10,42,166,176,
  182,62,252,195,231,54,174,60,120,22,63,58,
  212,66,251,7,40,33,186,159,85,24,20,26,
  195,250,221,214,50,138,62,164,174,70,225,236,
  193,190,205,5,83,189,113,189,234,117,196,23,
  68,203,71,0,168,176,10,65,212,205,83,172,
  42,253,169,71,205,50,225,153,23,231,20,86,
  37,31,23,52,161,244,65,221,212,114,45,254,
  204,32,17,179,245,155,210,30,95,88,27,191,
  227,51,31,21,190,20,86,157,220,178,150,168,
  177,210,229,19,17,96,235,22,193,174,220,96,
  80,160,193,17,186,154,251,242,233,204,55,168,
  192,56,68,157,196,88,206,175,167,167,236,37,
  214,211,109,151,81,241,34,33,182,225,70,196,
  62,164,182,176,6,245,157,70,79,5,62,81,
  226,14,216,208,90,97,88,194,80,203,104,41,
  182,246,236,84,10,109,207,85,105,62,90,113,
  12,75,154,18,110,217,42,185,193,67,236,174,
  31,85,36,81,226,66,28,187,91,6,179,246,
  206,245,223,222,6,89,116,92,204,3,35,199,
  138,22,253,66,230,185,235,79,250,156,148,210,
  170,82,45,229,88,88,48,85,178,252,112,214,
  64,15,33,62,152,159,62,211,90,154,119,249,
  61,158,19,227,5,242,193,226,76,250,194,226,
  48,3,61,189,169,95,47,199,36,206,184,80,
  171,153,41,63,116,66,162,170,206,182,208,83,
  65,9,191,106,77,49,60,207,147,42,216,222,
  143,174,39,162,196,190,136,255,46,145,75,171,
  162,21,151,247,194,199,217,223,73,223,195,135,
  87,40,51,25,184,205,40,29,52,100,177,68,
  69,93,105,223,17,159,54,168,178,154,12,87,
  225,65,213,235,212,79,169,45,6,207,15,178,
  207,230,214,249,9,143,243,200,107,97,153,76,
  90,52,232,175,44,194,205,140,193,244,139,244,
  189,15,104,167,183,166,195,72,67,156,251,199,
  98,102,95,103,187,212,244,164,239,168,225,28,
  49,210,74,39,206,49,187,72,161,216,55,212,
  66,43,250,163,88,49,210,72,254,41,55,157,
  80,249,149,196,13,14,213,95,197,230,134,57,
  28,250,42,36,212,12,212,237,13,248,132,60,
  4,214,187,224,93,222,228,103,246,217,92,208,
  86,247,129,115,177,99,214,52,86,16,47,81,
  47,178,38,233,228,39,231,154,151,93,57,203,
  195,57,61,227,33,176,101,67,7,165,140,0,
  187,105,140,58,200,228,106,12,161,66,40,207,
  214,38,220,149,138,85,85,215,216,91,181,32,
  185,93,163,191,230,19,212,96,189,216,188,86,
  113,255,232,16,194,225,89,231,189,56,179,99,
  73,151,242,59,0,199,247,39,149,28,57,210,
  116,185,210,150,2,42,115,49,146,91,156,247,
  229,189,66,219,197,211,190,77,255,37,250,233,
  19,214,180,15,213,7,219,4,62,57,51,37,
  60,40,42,217,57,50,118,168,200,89,48,23,
  112,227,190,44,80,42,209,6,7,102,70,122,
  90,40,35,65,201,61,228,26,173,30,76,198,
  203,209,73,175,226,90,111,71,227,143,97,243,
  234,171,212,202,30,32,192,209,1,75,226,119,
  238,219,75,22,190,234,155,95,138,246,92,251,
  227,224,22,165,46,225,110,175,91,147,226,28,
  57,243,160,0,26,124,185,17,9,11,95,64,
  53,10,50,78,98,115,8,184,2,171,56,196,
  173,168,210,1,218,207,74,201,159,215,220,181,
  12,224,226,207,79,81,46,163,142,246,213,39,
  232,187,32,54,176,16,53,200,66,248,203,250,
  33,58,74,57,52,171,59,224,82,172,42,246,
  10,56,67,0,99,182,71,160,29,20,78,255,
  226,29,76,85,116,115,87,11,169,211,8,4,
  117,215,32,201,85,177,188,88,156,207,8,29,
  197,66,20,199,68,66,75,222,35,14,60,59,
  162,105,85,55,230,249,59,236,47,211,49,112,
  246,25,147,159,85,79,57,18,32,19,107,241,
  167,80,218,71,103,89,56,13,191,249,47,153,
  237,74,97,202,225,237,163,59,173,208,116,36,
  159,155,32,208,230,208,94,163,98,40,81,142,
  118,162,100,106,116,255,223,27,240,13,7,177,
  27,201,148,61,16,62,16,181,69,221,195,177,
  193,100,84,46,50,73,11,83,211,2,44,139,
  4,150,78,53,198,82,163,142,200,190,105,79,
  55,38,113,84,76,6,93,216,161,101,28,153,
  245,102,7,230,251,25,186,0,253,220,89,194,
  38,160,186,201,73,0,75,36,29,211,92,93,
  73,237,15,207,182,221,166,18,224,10,52,17,
  64,65,42,4,58,151,113,243,7,150,7,28,
  246,241,174,93,169,246,110,95,35,203,108,4,
  229,83,116,53,44,254,183,67,43,218,30,237,
  117,56,172,113,194,52,99,140,64,199,22,169,
  224,27,213,25,202,153,184,96,107,229,69,186,
  234,59,105,25,90,218,190,81,247,157,202,151,
  59,82,72,230,247,210,155,7,206,235,182,4,
  205,179,20,43,29,75,77,23,97,224,225,85,
  23,24,158,170,174,144,152,8,103,30,59,5,
  82,25,197,239,28,77,78,166,156,50,170,214,
  36,169,36,244,56,21,25,0,155,2,230,137,
  21,54,254,166,194,54,64,17,216,158,63,137,
  231,220,204,232,171,204,59,170,216,234,77,139,
  72,37,192,85,185,83,23,36,224,166,33,57,
  154,221,194,198,150,201,244,75,69,138,22,25,
  180,233,155,255,186,71,160,21,38,42,240,72,
  87,82,108,52,34,95,204,229,168,209,85,251,
  251,230,247,205,251,86,40,84,224,251,236,11,
  243,218,192,176,75,210,182,15,3,91,113,70,
  190,228,80,166,80,38,90,189,182,65,149,27,
  55,54,66,197,149,230,53,239,60,177,252,47,
  153,76,254,174,67,111,63,194,48,5,37,72,
  145,22,98,30,151,88,95,247,69,16,215,229,
  223,215,37,177,157,243,150,27,253,230,190,181,
  25,197,254,20,160,249,89,73,166,94,231,121,
  58,26,78,69,25,2,165,169,239,20,212,135,
  247,48,196,35,165,202,210,51,107,226,52,184,
  54,35,230,113,220,16,167,32,166,17,90,90,
  240,18,235,87,46,161,61,224,230,108,73,206,
  134,108,158,209,228,82,229,36,74,157,42,77,
  49,18,168,119,45,199,151,41,240,100,183,3,
  174,94,113,32,101,5,64,18,110,149,200,179,
  39,170,163,143,36,139,123,182,17,32,39,204,
  231,45,240,78,215,158,213,63,199,24,223,46,
  161,61,174,94,16,181,46,63,211,233,188,34,
  230,225,38,7,93,162,19,226,90,61,101,179,
  38,217,246,191,48,147,167,132,207,53,53,233,
  64,228,98,6,150,3,67,195,93,243,192,149,
  121,160,160,90,62,225,192,58,222,245,200,190,
  41,27,103,238,151,10,119,35,202,182,56,85,
  238,162,171,28,108,209,84,216,195,191,21,94,
  204,53,63,21,205,19,227,167,226,165,221,2,
  188,204,50,225,57,36,218,201,27,4,100,123,
  5,189,214,105,24,180,54,187,24,206,69,89,
  67,44,118,206,197,40,201,244,197,86,111,7,
  239,70,42,89,219,99,158,157,238,174,12,211,
  97,254,68,159,69,92,197,254,236,249,73,214,
  110,157,64,255,111,225,175,207,35,42,3,61,
  179,81,156,101,253,210,4,244,104,208,104,39,
  46,221,205,5,188,223,237,249,47,78,110,20,
  22,100,106,113,81,161,44,0,221,67,62,207,
  202,107,27,167,202,198,83,171,60,57,95,211,
  255,176,92,96,251,114,6,57,71,108,92,235,
  217,185,15,210,22,252,25,3,82,229,15,195,
  247,99,16,156,166,36,192,194,185,109,209,42,
  231,224,157,174,146,77,220,72,91,213,248,156,
  49,94,72,144,14,166,139,47,198,228,177,84,
  31,118,72,254,51,3,199,232,175,193,212,177,
  64,60,172,80,105,205,154,8,31,50,109,25,
  182,6,47,27,166,86,97,218,216,169,3,92,
  181,94,110,79,166,95,173,54,175,253,56,180,
  219,107,36,251,200,68,168,8,85,178,3,247,
  91,203,252,98,81,102,66,253,211,199,61,178,
  226,172,210,187,201,212,97,67,180,0,251,8,
  195,61,147,49,88,201,73,119,202,250,208,93,
  0,214,105,71,73,98,92,62,241,152,57,140,
  89,98,62,157,81,37,199,14,48,81,86,191,
  79,53,52,26,10,92,12,231,23,117,79,182,
  136,79,153,10,84,165,178,219,20,94,211,82,
  212,107,52,43,193,248,153,54,210,179,207,138,
  143,192,85,22,117,67,0,116,81,205,196,250,
  13,158,84,74,186,144,199,78,3,42,99,93,
  64,86,213,105,104,223,62,174,198,19,168,221,
  200,143,188,109,219,41,193,242,93,237,19,154,
  156,243,206,202,20,102,47,251,162,63,182,248,
  143,214,165,198,157,205,205,45,126,23,7,158,
  203,160,225,98,68,7,146,59,165,80,147,28,
  235,226,120,66,92,0,184,169,208,38,160,196,
  0,242,168,91,14,73,229,5,223,87,236,54,
  247,224,173,0,230,23,200,228,190,107,53,63,
  199,212,25,241,246,181,46,163,240,242,100,47,
  42,27,101,188,58,214,184,107,150,115,61,64,
  88,98,205,151,189,92,197,56,246,0,60,186,
  133,233,106,254,144,171,199,75,221,1,41,91,
  168,78,195,172,183,182,133,165,98,123,140,15,
  52,62,29,208,73,7,8,80,252,112,62,219,
  95,14,173,212,248,20,48,35,195,4,210,194,
  224,34,73,26,185,168,15,59,99,88,98,224,
  208,0,65,26,181,59,73,250,215,39,205,240,
  197,251,80,198,141,116,9,31,46,156,169,69,
  33,119,55,216,136,47,83,18,181,197,37,202,
  70,117,92,51,198,159,186,168,73,139,158,0,
  190,228,152,230,177,182,52,234,33,4,134,168,
  171,84,75,239,73,123,170,15,55,219,60,112,
  160,171,247,252,63,52,90,68,180,154,2,189,
  179,49,62,250,98,248,248,230,209,133,64,9,
  232,87,96,88,222,22,255,99,233,232,145,111,
  218,165,72,9,96,53,167,239,75,92,68,145,
  234,76,227,78,11,160,51,213,53,108,47,170,
  167,66,171,174,203,150,152,124,249,215,213,8,
  159,224,230,39,50,91,65,176,32,109,206,39,
  250,41,184,207,227,239,253,241,66,14,150,238,
  247,30,90,73,217,39,75,60,41,102,211,245,
  13,70,233,92,166,233,81,80,247,224,228,23,
  171,182,11,227,56,14,164,90,229,148,23,188,
  63,42,66,22,103,177,16,183,249,74,10,244,
  55,192,176,211,195,19,217,38,24,227,159,117,
  68,7,220,80,81,59,50,31,33,200,232,155,
  144,242,2,135,59,103,216,171,25,215,233,57,
  172,100,177,222,30,93,188,38,170,198,238,34,
  148,219,217,210,25,29,58,244,82,184,49,210,
  3,177,253,80,226,242,65,148,28,39,165,50,
  226,223,101,167,129,34,94,209,17,3,177,48,
  97,132,49,177,42,48,231,237,155,202,21,83,
  50,29,77,253,199,168,58,129,220,211,249,251,
  227,155,76,99,17,150,95,221,160,60,168,145,
  217,142,233,188,79,17,251,23,243,27,25,62,
  174,254,82,176,247,60,236,135,239,26,71,12,
  47,49,193,192,49,113,77,195,218,201,150,33,
  122,143,138,97,187,1,247,158,210,100,135,114,
  26,189,181,203,232,59,158,219,33,2,141,110,
  15,90,116,77,245,163,26,190,115,104,40,42,
  198,160,21,78,58,24,178,242,207,93,245,102,
  28,224,205,20,194,101,60,141,53,249,196,195,
  23,65,39,71,101,240,114,37,108,63,165,97,
  165,231,24,15,212,12,212,197,162,162,95,187,
  83,246,62,141,74,190,114,67,18,160,193,214,
  27,53,41,6,14,195,61,18,89,175,255,179,
  95,180,20,210,144,141,166,231,228,36,168,18,
  121,205,97,32,148,81,215,248,112,151,243,195,
  176,46,235,254,178,198,55,231,100,68,55,174,
  204,122,37,20,104,164,49,107,88,159,29,161,
  230,39,66,169,97,254,84,157,143,116,210,144,
  37,220,141,55,249,158,241,158,42,61,45,99,
  199,176,4,15,77,107,103,58,21,152,170,101,
  51,226,230,27,86,32,255,150,85,90,49,242,
  25,78,9,194,160,193,41,251,55,57,229,8,
  246,113,232,59,232,75,189,101,94,231,59,52,
  28,31,100,40,57,189,28,22,77,171,92,35,
  165,243,75,28,47,52,15,210,192,197,1,92,
  91,92,57,172,36,74,110,243,39,228,65,87,
  223,38,17,59,174,250,62,54,70,100,221,243,
  73,145,174,5,21,227,163,49,214,185,192,196,
  201,110,60,138,247,198,245,56,253,44,234,49,
  147,48,174,245,109,96,64,66,222,218,104,153,
  15,139,198,189,180,250,13,251,82,105,89,190,
  167,183,14,197,185,82,196,76,48,197,204,153,
  71,250,141,36,48,243,79,218,191,24,70,62,
  245,94,218,51,5,175,246,195,83,91,85,80,
  222,27,140,241,158,114,178,243,97,184,103,210,
  69,197,49,45,163,21,178,238,218,23,72,236,
  219,224,54,48,60,31,164,196,63,214,111,40,
  83,72,169,6,149,48,167,253,108,82,186,33,
  237,150,108,52,96,90,244,14,64,43,43,13,
  14,246,182,42,167,204,19,208,204,41,104,160,
  196,143,232,174,50,32,87,78,140,162,23,153,
  77,250,72,62,119,86,35,15,192,231,96,22,
  83,167,146,25,253,144,230,197,51,139,32,168,
  11,163,100,205,233,213,125,203,200,182,117,87,
  110,30,254,146,51,252,210,104,251,15,16,149,
  197,142,95,159,31,230,20,253,82,158,207,103,
  162,183,44,131,25,169,56,53,19,158,211,43,
  69,85,143,50,230,70,207,24,248,6,5,95,
  192,153,250,195,143,170,99,12,152,252,83,169,
  211,6,78,175,235,175,94,143,27,184,29,6,
  190,27,26,67,186,106,13,183,61,156,45,85,
  209,84,193,245,57,249,63,255,18,85,251,64,
  34,8,201,193,233,191,209,189,133,54,244,158,
  88,214,164,137,54,178,225,146,24,71,78,174,
  36,14,202,152,157,202,83,235,252,243,144,81,
  101,60,171,35,169,165,215,215,61,65,209,100,
  200,32,59,246,129,104,6,238,228,246,171,166,
  178,198,154,8,197,193,250,152,41,21,167,251,
  203,214,245,203,87,194,231,99,94,12,190,64,
  190,144,18,83,9,38,89,31,190,239,158,30,
  12,33,96,148,36,176,27,9,96,76,18,177,
  232,70,84,199,225,56,10,48,10,92,76,95,
  99,149,171,33,38,154,38,150,29,166,229,225,
  17,177,28,252,237,211,72,81,250,182,91,236,
  107,54,31,56,113,221,83,32,60,202,224,192,
  241,232,101,172,3,101,35,241,91,236,182,177,
  165,185,38,210,185,229,158,172,172,44,235,21,
  92,242,20,54,233,2,180,164,154,96,15,248,
  121,180,7,58,25,25,241,10,10,95,187,39,
  239,47,22,196,91,198,230,241,84,238,75,26,
  59,160,10,64,111,44,18,34,54,189,195,78,
  88,3,157,247,69,88,82,113,240,75,65,107,
  119,92,252,163,4,45,68,215,174,221,221,169,
  15,219,250,99,222,77,200,166,192,159,16,204,
  125,174,192,221,60,27,221,87,251,79,189,81,
  123,199,61,232,199,142,65,99,198,231,213,73,
  192,228,83,27,225,83,254,243,160,69,112,177,
  67,2,194,165,80,233,250,82,28,13,192,207,
  210,195,94,82,12,171,10,224,254,84,85,193,
  160,64,14,230,249,229,99,82,8,154,37,22,
  227,149,166,156,106,253,63,169,151,105,177,215,
  232,72,51,120,69,222,197,160,12,162,213,74,
  227,25,227,104,146,23,189,194,203,20,188,66,
  115,185,199,84,203,175,221,33,48,73,190,28,
  106,84,125,166,15,74,171,193,5,187,251,251,
  57,36,229,252,241,76,13,51,171,245,224,63,
  247,87,49,154,210,99,164,156,111,165,42,178,
  228,225,164,212,104,96,104,59,17,205,66,205,
  245,246,208,189,171,193,23,66,215,216,180,47,
  234,0,5,201,192,12,90,8,124,36,176,45,
  191,57,64,222,214,27,223,166,204,223,0,234,
  70,94,60,83,82,83,28,241,80,10,190,147,
  164,3,0,238,187,107,20,112,13,29,223,250,
  56,174,28,93,219,246,13,195,86,188,164,215,
  228,43,208,108,44,244,111,250,97,220,47,244,
  222,219,163,5,108,76,200,89,69,189,18,166,
  60,213,96,200,251,106,82,29,196,4,60,173,
  161,27,215,35,235,174,54,3,82,173,199,184,
  138,66,157,47,0,186,79,224,223,165,106,214,
  152,44,77,216,96,67,197,170,188,119,164,65,
  191,47,255,232,226,216,189,20,174,112,226,155,
  82,243,253,105,176,62,43,25,107,40,229,92,
  194,91,57,50,9,26,202,231,219,248,89,10,
  18,9,34,115,239,178,93,184,154,39,37,199,
  241,164,71,61,118,204,246,203,67,194,41,200,
  226,202,253,196,118,237,47,185,172,167,211,15,
  141,224,187,57,95,20,6,238,27,63,214,20,
  161,161,230,196,197,80,32,8,197,45,252,89,
  38,68,81,197,214,174,85,166,251,156,216,243,
  196,120,79,68,186,161,251,46,82,255,173,205,
  202,3,83,41,228,242,229,57,249,119,231,226,
  227,116,98,117,226,184,157,69,198,79,143,76,
  150,188,175,91,168,16,171,123,7,237,3,46,
  42,25,24,75,176,200,247,8,201,15,83,164,
  198,77,236,51,185,114,92,41,148,219,243,243,
  1,79,45,99,227,239,207,188,176,33,45,20,
  208,51,11,232,206,152,211,28,235,157,140,160,
  28,82,5,181,155,68,50,231,14,68,214,200,
  216,81,184,188,105,38,225,17,104,5,82,110,
  30,12,194,167,96,75,156,166,33,4,63,13,
  235,53,112,4,253,96,81,66,48,254,150,251,
  3,98,24,40,247,135,66,101,188,213,69,56,
  168,146,250,104,149,207,82,198,171,212,113,248,
  23,22,4,123,37,162,107,220,104,52,44,184,
  224,44,17,159,229,227,186,7,114,109,102,14,
  118,36,119,250,243,219,71,255,117,224,235,60,
  208,56,182,80,32,135,96,62,64,3,86,183,
  40,5,160,187,84,7,182,129,216,210,214,81,
  216,221,83,91,137,75,84,210,248,23,43,73,
  171,245,98,180,82,45,237,19,171,208,220,170,
  115,12,83,50,251,95,186,137,159,152,37,39,
  76,92,234,240,95,101,30,10,8,187,63,98,
  243,22,54,155,86,153,246,72,6,91,41,190,
  171,211,170,183,29,0,0,155,182,198,33,44,
  251,232,236,74,72,228,184,104,119,162,135,229,
  237,85,230,52,196,160,88,205,83,157,94,229,
  23,75,73,202,167,25,189,11,94,55,62,77,
  185,18,169,177,232,3,198,168,203,61,163,199,
  199,30,218,224,213,37,191,5,183,63,148,236,
  229,9,171,82,184,85,216,239,24,23,41,198,
  232,56,88,60,243,152,89,37,96,86,149,48,
  77,238,205,189,182,59,120,96,171,160,4,100,
  200,105,39,231,9,112,121,50,252,134,215,51,
  124,180,188,153,91,2,202,49,0,28,24,197,
  26,161,241,230,56,129,121,113,111,99,101,51,
  170,26,70,87,183,218,106,84,181,82,16,4,
  159,212,4,176,148,186,126,75,171,198,229,66,
  187,89,247,146,161,64,38,65,204,30,69,243,
  167,236,178,9,50,19,156,0,74,57,70,108,
  87,185,226,218,138,154,14,204,45,181,36,161,
  89,221,240,81,203,154,218,182,169,214,225,78,
  72,73,102,100,204,175,242,205,172,207,20,76,
  193,65,118,173,188,237,28,42,48,198,60,241,
  171,160,80,241,49,186,248,164,14,218,85,73,
  50,156,187,14,177,41,78,157,64,196,36,51,
  192,246,223,198,170,75,116,243,205,187,228,15,
  59,15,108,101,76,170,33,210,117,147,170,91,
  190,71,72,33,35,83,11,219,202,76,33,188,
  52,46,10,57,184,5,112,183,197,102,10,20,
  221,83,217,227,22,81,42,31,167,62,54,188,
  161,172,106,33,237,187,219,82,215,13,18,199,
  169,16,59,66,148,100,163,14,60,239,249,191,
  222,222,1,255,89,73,221,79,8,221,222,232,
  38,32,175,175,191,12,79,92,250,105,244,203,
  123,164,146,203,63,119,227,73,160,255,246,198,
  161,71,32,19,100,14,225,240,209,30,174,237,
  67,47,242,104,183,37,242,245,188,209,57,59,
  152,77,14,162,6,246,31,35,176,232,243,96,
  159,178,28,2,255,43,126,182,215,75,15,29,
  176,65,222,59,40,206,242,166,187,155,242,241,
  40,227,232,174,171,202,254,228,40,102,194,166,
  75,194,196,14,199,146,111,27,19,180,229,108,
  60,216,226,24,234,176,84,236,9,82,23,68,
  223,76,169,56,172,18,217,92,33,110,33,191,
  109,254,2,72,250,8,178,241,178,37,223,119,
  219,13,10,171,54,163,54,35,22,194,201,199,
  197,226,56,200,248,17,213,72,159,12,86,154,
  34,52,247,86,35,70,54,200,20,63,79,181,
  43,45,23,224,201,64,192,81,49,213,8,247,
  221,55,207,39,88,211,99,53,90,199,39,169,
  187,86,223,20,80,155,205,153,235,76,104,23,
  91,114,102,52,34,165,20,175,44,66,63,171,
  238,39,224,132,18,83,117,16,103,143,178,74,
  16,221,231,174,67,169,6,241,186,45,199,187,
  152,17,183,197,245,11,34,12,245,216,237,7,
  216,97,61,233,237,80,220,64,154,183,75,178,
  218,64,91,101,48,108,87,34,208,239,171,47,
  214,44,196,104,109,186,225,60,229,152,87,167,
  33,244,157,253,117,65,169,46,236,7,189,5,
  176,111,154,233,229,83,69,8,31,212,75,217,
  206,108,147,104,198,64,63,213,80,217,178,11,
  26,38,56,169,81,205,201,107,159,69,43,93,
  69,249,247,230,3,27,113,78,70,32,199,40,
  44,192,193,73,36,52,176,186,89,20,24,11,
  210,95,150,100,231,172,234,241,247,175,96,221,
  14,73,139,226,123,98,27,237,190,239,199,152,
  36,245,40,140,161,214,66,254,181,17,110,161,
  114,154,33,82,208,174,83,192,75,39,155,51,
  230,166,217,138,90,189,242,85,77,167,105,149,
  181,52,71,40,15,31,180,244,233,151,59,193,
  91,28,7,29,61,167,199,44,215,165,94,211,
  71,189,23,20,165,232,172,172,225,8,97,48,
  188,224,243,5,109,61,13,49,226,236,24,228,
  42,206,160,235,158,225,116,59,190,80,58,8,
  30,47,93,178,56,43,9,251,165,16,51,201,
  190,56,35,13,183,65,106,54,69,237,2,198,
  38,76,153,200,9,164,159,199,36,176,156,201,
  221,23,201,182,25,113,65,79,48,10,180,72,
  47,88,85,250,94,22,169,163,239,126,233,13,
  114,88,199,198,34,44,193,72,209,15,14,12,
  107,215,82,255,51,162,118,192,145,23,238,239,
  163,172,84,206,182,75,104,65,192,15,159,79,
  81,163,171,169,194,62,171,151,15,54,182,218,
  111,205,248,52,154,227,160,223,68,95,18,11,
  186,255,215,243,46,163,180,23,174,178,86,219,
  215,161,247,190,195,0,117,97,17,41,24,31,
  17,254,12,46,69,166,197,13,90,17,36,69,
  58,180,99,209,7,210,157,44,95,92,223,26,
  140,184,253,162,97,9,129,231,195,218,107,217,
  179,4,169,31,208,248,187,224,100,203,197,1,
  54,211,227,247,83,1,184,11,198,39,219,94,
  201,119,63,212,164,3,213,24,168,32,65,100,
  64,175,206,143,13,180,98,96,236,88,175,230,
  62,99,50,41,37,34,3,118,227,181,121,182,
  255,197,146,89,179,193,139,30,224,249,165,17,
  69,43,76,155,44,230,36,205,143,196,244,240,
  143,245,206,168,9,10,11,42,56,73,232,69,
  181,221,77,61,167,113,173,248,49,190,211,28,
  53,69,153,18,223,215,1,199,155,217,38,217,
  66,118,86,194,72,20,10,72,189,28,205,20,
  71,55,231,153,170,143,7,208,194,91,121,93,
  189,80,213,44,208,178,223,70,98,204,167,1,
  255,211,85,156,208,248,77,236,157,80,214,194,
  150,176,166,29,194,255,235,57,187,219,19,207,
  22,207,51,184,167,94,216,175,247,33,219,206,
  148,215,174,201,20,156,254,216,31,236,26,206,
  8,231,17,15,227,92,139,145,8,41,2,14,
  18,103,222,221,56,22,134,77,81,139,157,176,
  172,229,233,190,178,63,66,97,222,67,196,175,
  252,99,192,243,36,250,222,109,104,5,56,213,
  237,61,34,93,105,73,232,66,194,206,42,193,
  155,92,112,248,30,240,55,21,186,3,243,245,
  184,101,157,141,64,72,145,222,142,8,38,234,
  248,14,75,78,164,11,224,223,77,78,74,220,
  10,170,50,111,57,11,204,105,28,179,218,157,
  56,157,162,45,8,150,8,255,81,6,178,210,
  210,101,36,15,54,70,85,156,194,9,25,14,
  209,226,180,77,217,204,89,169,3,215,244,0,
  61,54,163,161,177,72,249,81,190,5,16,249,
  164,96,218,198,230,189,149,169,221,2,188,163,
  35,182,96,253,130,55,20,234,200,25,193,233,
  27,237,100,23,24,36,190,35,193,58,202,168,
  228,74,2,214,237,105,49,176,221,169,178,96,
  197,187,47,174,34,189,41,156,174,20,206,208,
  166,45,208,68,43,107,181,207,75,2,165,162,
  29,67,90,178,233,50,178,27,237,74,3,98,
  240,202,169,7,33,37,229,237,30,13,26,232,
  69,216,19,33,158,248,19,78,180,93,9,48,
  177,217,163,201,0,9,178,15,16,251,159,44,
  225,75,12,146,225,214,159,198,226,175,150,18,
  219,64,193,172,217,227,158,242,70,143,37,210,
  39,59,250,165,56,116,20,201,75,202,56,109,
  8,11,206,60,108,48,200,35,5,56,85,112,
  97,221,92,164,108,13,235,242,178,162,94,7,
  40,44,171,248,70,88,12,253,218,9,218,96,
  150,205,213,196,9,106,152,159,228,170,204,98,
  160,79,224,7,167,5,44,149,156,203,20,67,
  90,228,80,213,251,7,199,21,168,143,249,240,
  190,67,18,45,105,81,255,248,158,199,6,242,
  3,164,211,218,53,59,78,23,66,89,94,16,
  157,25,67,242,169,41,177,150,39,56,219,152,
  192,87,24,159,104,232,155,191,215,52,31,62,
  156,14,50,255,80,6,57,94,103,184,49,61,
  21,62,162,176,112,255,68,48,41,218,250,162,
  36,101,181,185,243,208,20,173,242,87,217,164,
  193,194,201,34,5,61,143,13,183,76,227,227,
  157,65,101,168,17,218,35,160,247,1,1,11,
  66,204,203,110,16,32,153,205,89,30,183,247,
  227,16,177,93,250,171,176,241,163,41,199,31,
  66,206,164,115,203,203,20,179,89,236,154,11,
  195,173,216,76,248,215,69,100,29,79,232,159,
  77,142,76,110,227,70,235,99,5,101,82,166,
  230,241,157,37,180,27,40,35,175,223,138,23,
  152,137,30,238,14,26,14,71,43,163,151,174,
  169,38,175,180,32,211,105,37,187,72,191,164,
  7,5,22,30,203,37,75,50,49,102,226,64,
  198,208,93,174,43,8,141,55,32,59,37,193,
  84,29,45,187,194,179,11,173,246,196,79,78,
  18,169,254,40,204,199,236,3,221,238,210,232,
  228,58,248,83,7,25,20,150,202,109,155,40,
  220,162,28,51,185,218,231,74,73,221,3,218,
  244,1,155,64,2,159,18,84,205,21,166,32,
  169,233,175,239,204,44,154,217,40,109,100,223,
  69,92,174,241,60,22,54,108,180,14,165,41,
  26,251,2,107,226,231,19,234,74,72,143,240,
  134,14,152,64,242,220,204,137,35,246,220,114,
  183,30,246,210,148,224,200,1,13,57,48,177,
  252,163,28,114,145,107,238,244,161,159,74,241,
  49,153,150,248,250,185,90,249,244,222,176,235,
  158,210,198,30,90,171,80,15,3,235,161,206,
  162,211,204,74,81,245,146,247,66,188,84,161,
  71,27,194,227,81,76,66,174,114,29,72,193,
  62,16,42,214,210,211,56,44,30,184,1,162,
  133,202,54,179,55,224,21,246,0,219,99,164,
  87,211,79,206,69,110,43,186,212,52,243,43,
  246,179,205,145,209,229,187,232,113,240,29,8,
  14,51,218,95,58,9,200,23,157,10,238,76,
  140,96,247,48,251,83,171,210,108,11,81,11,
  198,245,48,93,251,116,84,157,239,26,158,207,
  59,209,24,100,1,113,148,42,167,90,13,117,
  51,212,181,36,239,222,16,19,82,23,72,152,
  93,213,0,207,209,32,251,2,90,175,162,3,
  197,206,17,72,169,254,1,190,60,46,55,214,
  227,199,79,98,246,233,17,115,59,49,245,79,
  189,234,35,34,169,185,81,7,209,5,15,251,
  131,48,161,85,57,55,130,52,45,179,35,190,
  101,197,58,106,247,197,187,208,185,123,115,1,
  177,213,228,198,203,210,245,196,168,155,47,83,
  144,165,200,108,233,169,161,172,253,113,171,233,
  31,33,52,234,163,124,221,244,244,230,173,249,
  37,78,212,244,185,230,238,1,237,203,237,105,
  211,220,139,71,50,37,33,218,40,218,98,212,
  204,165,231,218,196,24,71,250,86,231,208,107,
  46,230,80,187,99,69,240,60,133,100,73,223,
  29,209,59,50,60,8,255,169,67,166,35,40,
  225,177,183,178,108,6,64,232,104,221,254,168,
  19,61,53,231,1,62,180,157,78,164,200,25,
  238,228,105,32,231,42,12,178,30,0,197,242,
  120,45,160,49,250,142,39,218,174,74,208,12,
  20,185,27,69,238,171,139,175,193,169,172,67,
  86,198,210,23,207,202,245,94,193,229,17,25,
  169,150,37,59,112,248,134,233,192,188,226,32,
  42,89,140,16,241,222,87,225,144,62,146,37,
  50,148,78,45,194,77,253,154,252,157,81,209,
  244,187,197,249,189,137,55,102,104,184,85,92,
  21,77,94,151,209,147,36,255,29,163,163,222,
  11,181,10,209,197,218,5,168,16,18,47,21,
  5,76,109,77,30,149,97,54,171,166,35,94,
  254,54,144,111,90,180,29,12,152,65,57,206,
  210,90,0,240,157,207,195,55,165,180,53,44,
  161,5,1,185,33,9,49,1,32,168,241,37,
  214,214,40,59,85,215,150,80,27,165,115,206,
  65,57,54,154,20,193,48,40,141,29,25,226,
  243,94,253,189,157,86,185,67,181,237,244,38,
  147,18,211,77,202,146,177,13,88,189,30,172,
  32,33,39,224,194,154,0,253,10,153,200,27,
  166,241,30,159,74,106,63,164,36,21,152,184,
  26,87,11,173,138,11,48,37,238,43,132,99,
  61,37,153,73,183,179,197,89,14,31,2,10,
  84,250,40,209,69,211,198,28,255,18,78,37,
  14,113,99,255,169,115,82,93,74,98,209,154,
  210,48,148,25,215,109,181,234,201,53,155,216,
  244,237,58,229,238,50,191,198,64,182,16,227,
  56,219,139,146,153,221,162,134,212,47,61,20,
  3,92,94,158,222,109,64,239,33,247,56,40,
  195,233,227,0,200,62,29,49,19,217,93,199,
  153,192,236,167,26,99,43,219,97,34,225,199,
  54,178,74,29,138,247,25,38,150,41,76,148,
  118,160,77,200,50,189,66,244,190,152,249,234,
  192,56,248,97,13,3,0,158,71,25,78,98,
  209,21,52,7,140,158,190,35,28,255,237,94,
  70,187,148,124,219,14,180,167,235,217,164,33,
  38,95,174,106,63,219,204,30,147,83,0,255,
  207,243,41,173,31,216,198,143,160,219,140,183,
  29,166,44,223,157,235,98,94,66,136,157,175,
  207,109,0,95,15,18,200,61,207,37,186,103,
  73,79,37,197,61,56,18,62,234,145,13,75,
  112,15,142,70,236,46,60,12,21,235,241,42,
  245,70,204,58,174,208,45,4,243,32,207,159,
  31,209,231,211,183,174,11,71,185,148,237,238,
  240,220,97,150,189,173,104,246,55,25,12,234,
  248,251,194,157,18,30,76,235,208,101,98,252,
  181,179,44,165,113,225,10,255,161,50,225,172,
  112,241,21,244,15,227,232,48,24,57,165,1,
  208,48,59,206,244,214,109,74,226,152,76,18,
  88,139,89,12,44,4,189,25,58,168,83,164,
  85,75,165,17,207,146,32,83,252,168,11,193,
  38,250,49,22,197,98,12,17,192,172,68,37,
  62,41,105,188,198,13,27,133,117,59,216,167,
  162,190,194,160,207,87,254,95,66,102,36,89,
  202,229,190,19,170,195,181,191,178,150,23,211,
  237,241,235,189,107,197,95,198,78,199,99,52,
  237,165,127,90,113,7,156,66,194,151,74,30,
  53,157,59,224,255,164,240,119,252,184,12,154,
  102,248,67,163,1,159,155,53,28,74,211,238,
  175,250,84,224,70,39,238,13,0,246,191,163,
  203,0,58,22,100,199,227,44,23,109,28,67,
  162,217,101,50,251,189,9,164,180,67,34,221,
  164,151,101,100,156,201,9,71,181,31,15,14,
  117,98,83,8,255,164,231,0,72,158,159,75,
  67,156,123,51,68,208,36,37,108,42,4,167,
  5,25,212,141,72,192,179,91,6,249,1,99,
  91,166,88,16,16,180,254,113,170,27,5,78,
  105,6,181,149,62,144,135,149,97,230,173,228,
  92,245,76,246,206,201,243,231,200,84,25,169,
  170,14,223,4,204,180,146,85,172,146,77,175,
  64,102,230,154,208,192,58,94,184,48,59,9,
  174,157,186,182,159,220,215,93,233,191,193,38,
  182,170,168,84,50,57,205,171,165,35,108,83,
  53,72,243,172,229,187,194,86,253,180,55,61,
  43,35,19,14,247,97,15,1,55,171,66,110,
  23,194,216,212,206,223,202,74,9,3,147,243,
  75,162,44,111,79,72,210,158,37,224,120,24,
  186,162,33,251,1,89,18,223,27,42,37,253,
  166,226,85,238,27,242,155,251,120,47,244,60,
  84,180,109,186,43,49,255,238,149,79,63,33,
  179,24,40,180,251,48,223,5,43,181,220,102,
  52,35,223,97,236,240,152,64,103,33,25,188,
  11,241,243,36,103,241,36,203,87,18,67,74,
  58,230,49,164,184,190,132,21,151,74,83,5,
  150,126,221,235,40,19,75,14,153,151,179,215,
  1,98,199,163,40,246,52,42,71,24,153,166,
  179,236,204,154,39,28,192,67,96,41,79,101,
  52,82,233,157,162,50,41,230,48,170,92,199,
  205,106,210,76,97,110,241,235,19,243,178,164,
  25,238,246,240,88,96,151,193,210,185,244,85,
  238,152,75,61,188,248,254,29,162,58,223,74,
  221,191,247,44,57,251,74,224,50,100,58,101,
  0,31,254,254,164,3,228,73,36,189,165,52,
  181,66,66,235,171,88,233,61,86,14,230,109,
  162,54,112,13,249,2,158,232,220,64,173,197,
  40,42,106,248,14,222,250,63,204,244,6,228,
  198,205,248,83,29,217,196,168,53,228,146,0,
  163,82,242,179,95,188,95,12,34,3,250,62,
  96,177,32,219,78,170,16,108,47,250,7,1,
  255,182,86,56,224,227,189,253,87,162,92,225,
  238,49,48,28,46,61,92,245,74,62,77,85,
  225,104,189,212,37,18,41,95,94,140,75,75,
  219,233,187,213,142,202,81,59,69,139,249,196,
  105,99,2,250,248,70,102,191,68,247,60,215,
  73,210,72,36,143,112,180,57,205,75,232,80,
  250,233,220,76,94,73,68,73,174,184,203,166,
  145,9,118,98,50,92,142,224,166,10,207,112,
  245,7,184,192,180,244,139,251,89,51,157,63,
  67,208,204,23,89,69,191,229,86,73,45,18,
  91,96,245,175,243,116,174,109,246,36,97,12,
  219,39,197,63,101,39,218,37,245,17,4,162,
  82,106,206,223,234,216,152,215,94,72,82,88,
  150,48,203,6,244,219,9,96,3,40,172,94,
  40,191,82,179,139,84,93,77,147,177,73,251,
  140,246,160,24,209,50,16,20,67,54,165,4,
  197,244,107,198,251,246,136,87,37,35,143,83,
  169,42,113,8,250,32,189,162,23,28,57,54,
  237,28,59,164,91,122,66,12,72,188,55,121,
  243,88,28,17,219,80,197,248,205,199,155,172,
  83,199,148,26,186,176,39,184,23,200,237,62,
  24,30,82,120,186,212,193,97,61,227,250,8,
  244,191,178,181,81,99,17,242,77,84,165,233,
  34,89,174,176,103,99,96,190,5,180,96,246,
  139,250,242,47,84,49,240,213,238,230,187,186,
  205,54,93,26,71,166,218,253,168,67,104,31,
  223,254,181,40,122,60,225,147,172,21,230,98,
  78,65,159,167,30,49,190,4,45,120,67,222,
  39,104,50,48,254,65,11,200,166,220,237,155,
  65,236,21,95,111,156,182,188,222,57,71,8,
  39,1,57,254,239,166,142,152,21,240,193,200,
  161,152,5,158,224,253,168,189,246,21,116,93,
  214,101,5,112,204,222,52,70,120,80,178,228,
  236,43,222,210,83,223,217,53,20,247,231,202,
  164,27,213,246,168,78,6,77,100,224,5,213,
  20,229,241,34,92,157,80,182,30,146,61,36,
  222,142,184,82,153,238,81,254,89,57,99,97,
  220,15,28,64,255,157,32,181,251,215,216,49,
  232,247,207,67,161,232,169,87,12,70,24,188,
  226,204,120,88,187,40,43,154,84,67,246,29,
  242,82,68,210,89,207,170,139,49,94,100,7,
  245,215,168,19,26,116,236,207,255,32,90,23,
  46,214,81,215,80,79,231,86,187,75,101,101,
  242,174,119,37,193,194,223,80,17,193,102,212,
  229,164,40,199,243,74,164,224,55,180,65,25,
  168,206,254,195,47,234,202,245,116,30,242,95,
  53,31,66,56,237,94,14,194,70,214,215,25,
  141,35,215,162,68,203,132,63,51,115,144,117,
  0,27,196,64,42,77,176,189,25,206,174,46,
  9,205,87,244,62,213,59,247,32,172,169,32,
  40,78,3,50,237,181,71,44,13,187,177,245,
  175,2,79,150,5,162,82,52,87,161,173,51,
  85,93,179,15,182,63,243,53,226,82,216,183,
  210,143,76,180,170,50,135,214,10,137,240,64,
  162,242,191,227,233,12,252,59,243,172,105,213,
  174,40,177,218,95,169,14,20,161,193,194,72,
  243,181,184,42,17,71,215,107,73,161,201,105,
  248,197,133,237,168,248,93,241,134,249,127,150,
  208,82,234,175,148,99,223,85,209,234,179,249,
  159,7,193,12,221,169,67,8,4,185,250,45,
  7,54,3,141,53,200,180,34,159,240,46,168,
  194,87,253,192,236,236,232,187,143,184,15,26,
  94,28,157,69,197,24,199,181,57,4,205,76,
  50,53,72,88,58,207,30,239,83,100,207,174,
  159,150,97,245,242,241,24,164,217,143,245,168,
  50,231,202,197,53,200,218,30,228,196,106,101,
  161,53,209,224,165,245,95,216,147,253,75,180,
  77,239,15,179,173,135,162,40,172,212,14,70,
  38,210,195,60,159,29,242,6,246,218,190,96,
  82,214,235,229,197,103,4,151,210,178,145,196,
  6,54,11,227,237,252,159,97,171,112,204,78,
  187,22,251,232,217,216,24,82,241,15,97,161,
  188,242,217,26,36,243,106,107,70,114,238,59,
  4,39,0,14,12,143,243,147,107,86,183,170,
  17,4,79,218,168,172,241,219,246,97,212,99,
  248,219,183,166,88,222,254,150,51,51,205,21,
  42,158,46,222,161,198,106,184,236,93,53,91,
  49,176,178,30,183,170,222,144,245,200,227,70,
  168,240,60,243,153,144,78,18,205,74,213,227,
  195,157,48,54,142,205,91,89,39,216,228,140,
  220,5,36,221,185,120,17,8,195,27,251,179,
  226,96,50,195,181,233,106,252,233,52,248,43,
  221,66,92,31,30,193,197,37,167,100,22,21,
  244,85,87,1,111,94,216,41,214,15,100,39,
  174,153,237,208,248,185,175,225,99,255,153,66,
  199,198,200,3,12,187,21,167,149,103,27,214,
  238,150,22,179,201,193,110,28,73,231,37,62,
  75,153,170,92,27,85,74,44,176,39,30,179,
  92,30,14,208,113,150,14,84,5,86,156,55,
  112,250,243,56,174,148,254,172,222,226,255,165,
  8,10,100,155,17,52,239,210,182,23,213,180,
  0,241,200,73,14,247,77,175,67,210,223,15,
  155,231,203,24,144,7,56,252,17,246,54,255,
  223,194,170,55,195,205,154,94,208,219,225,145,
  65,90,35,251,244,19,74,48,244,58,31,179,
  160,1,151,178,19,38,239,81,192,180,13,159,
  194,233,8,36,231,187,206,149,245,226,210,232,
  61,54,18,16,232,14,19,50,155,71,89,155,
  12,190,90,16,157,27,156,12,104,113,82,237,
  89,252,191,240,218,154,45,200,196,214,198,205,
  157,199,237,72,12,164,202,191,82,85,63,54,
  107,47,244,15,184,73,35,229,153,20,21,73,
  97,240,83,170,78,184,217,18,22,8,168,56,
  101,63,39,223,160,110,108,69,102,246,68,163,
  86,148,174,45,195,21,110,21,59,186,139,49,
  54,230,36,107,35,238,48,218,225,35,203,85,
  84,152,151,181,160,97,91,253,95,4,69,10,
  195,161,213,25,55,203,191,3,220,96,68,61,
  111,106,44,102,163,116,82,149,35,109,195,239,
  153,6,219,233,230,109,194,237,185,208,29,212,
  49,59,27,38,65,154,234,233,247,152,184,181,
  245,196,246,178,7,198,173,86,145,157,2,175,
  199,160,55,87,103,219,226,224,159,78,29,72,
  90,166,187,238,154,30,107,249,40,144,169,216,
  153,160,17,40,105,94,160,58,238,237,152,246,
  87,232,184,173,254,85,166,145,218,152,15,93,
  159,179,64,70,74,67,227,95,189,168,31,240,
  158,41,98,48,192,44,234,139,237,184,189,24,
  231,202,22,241,102,218,195,227,104,234,146,152,
  77,203,84,89,200,51,160,76,60,196,9,32,
  102,234,18,234,161,243,182,12,169,30,230,143,
  42,11,241,17,4,11,48,134,233,213,151,229,
  58,77,192,187,98,237,232,237,181,13,29,222,
  85,195,12,93,98,92,29,250,176,85,255,2,
  221,157,175,89,44,185,234,15,46,196,217,189,
  12,156,255,31,38,206,80,206,2,214,106,149,
  67,26,69,54,37,234,183,147,189,213,17,9,
  28,197,221,92,123,233,56,101,231,248,118,157,
  236,249,172,203,106,217,92,87,23,42,81,34,
  178,194,20,89,169,176,142,143,202,17,94,70,
  199,165,48,185,154,220,96,53,122,254,78,212,
  51,171,42,73,100,174,63,96,230,149,107,218,
  81,21,161,41,144,170,183,59,93,219,177,66,
  245,13,84,2,101,159,154,225,100,237,95,59,
  1,193,50,82,226,33,81,197,190,116,243,0,
  96,179,115,47,37,162,243,43,90,155,20,101,
  184,254,103,12,12,225,247,18,178,195,181,242,
  204,31,110,36,22,34,22,59,233,14,209,63,
  68,243,102,202,186,68,104,50,6,161,180,110,
  197,83,0,82,245,249,168,104,101,122,232,66,
  216,150,99,200,238,114,39,23,119,177,48,53,
  246,203,38,150,97,8,216,71,158,58,174,183,
  157,227,177,248,87,156,213,197,3,218,92,42,
  173,194,56,246,223,115,238,222,15,106,165,215,
  17,160,212,172,208,205,149,70,51,248,184,164,
  178,167,99,48,167,112,159,213,217,181,43,176,
  44,180,42,244,43,27,97,161,23,231,72,0,
  167,169,28,238,91,111,147,64,204,209,44,78,
  36,194,194,99,205,66,164,228,153,159,249,97,
  15,235,225,226,192,47,42,65,172,210,202,28,
  37,142,63,203,209,181,174,145,145,236,157,95,
  22,53,14,36,213,203,89,254,43,177,163,111,
  232,41,59,245,96,212,181,20,75,9,225,25,
  4,92,80,62,212,32,103,237,92,18,235,117,
  212,104,140,39,175,3,186,173,153,142,23,235,
  51,48,62,225,172,126,218,91,93,241,39,206,
  159,168,142,206,180,161,254,179,251,66,45,96,
  196,191,156,66,185,111,65,45,147,46,10,116,
  195,254,24,108,130,232,42,232,251,174,114,192,
  86,225,247,250,235,97,39,97,211,27,37,7,
  241,181,196,47,184,18,249,109,105,38,120,60,
  223,211,240,167,21,87,64,84,41,84,88,45,
  221,43,235,173,115,224,18,213,37,35,161,100,
  213,40,17,7,251,28,15,165,210,244,255,168,
  39,53,51,9,160,0,111,18,172,69,92,164,
  18,146,217,30,44,97,214,172,240,70,4,4,
  162,237,242,254,154,54,218,150,102,161,224,68,
  100,185,183,183,56,167,246,54,221,241,66,14,
  213,237,89,57,37,236,22,140,224,253,27,62,
  47,80,75,199,189,55,32,151,77,153,0,81,
  51,169,60,196,53,32,111,148,29,153,62,139,
  83,212,153,7,76,161,78,47,33,6,110,81,
  7,253,80,16,215,54,30,108,24,206,47,227,
  79,6,4,250,193,236,38,0,217,20,60,223,
  42,250,174,161,251,2,53,81,202,173,185,181,
  201,174,232,216,25,194,240,95,70,129,15,145,
  7,97,2,1,6,91,187,12,97,8,165,184,
  255,22,226,215,106,164,78,184,207,186,48,203,
  109,17,152,164,174,174,85,104,252,89,93,70,
  79,217,156,199,0,187,15,195,40,37,251,66,
  75,32,49,53,141,7,15,138,217,34,208,230,
  60,83,220,240,225,204,9,221,224,191,109,18,
  210,219,208,241,198,23,201,236,48,50,240,250,
  31,44,103,208,206,16,48,227,172,195,242,155,
  175,83,10,70,253,247,39,49,220,166,226,51,
  176,58,184,38,152,58,156,183,110,74,95,216,
  206,228,57,70,89,67,86,11,97,43,200,15,
  168,50,241,9,68,215,154,80,61,177,92,63,
  78,24,192,34,254,41,245,79,146,132,41,161,
  190,253,173,251,17,59,151,53,244,187,60,154,
  41,181,247,76,24,69,152,20,145,5,254,215,
  93,81,81,100,222,39,181,153,108,248,26,103,
  57,99,66,243,3,76,107,255,42,249,236,250,
  120,86,234,181,198,225,52,241,233,11,176,77,
  223,135,19,233,60,16,165,235,57,162,63,105,
  75,14,72,195,248,245,107,206,253,235,88,75,
  83,235,234,111,252,24,36,241,178,155,102,209,
  86,87,172,22,106,74,145,196,96,74,183,56,
  154,166,192,94,78,220,8,151,182,30,187,168,
  197,151,208,85,102,238,159,194,18,162,36,104,
  164,49,10,235,252,48,234,203,205,160,110,118,
  185,15,232,120,242,190,195,186,35,44,229,111,
  108,66,213,196,172,210,1,75,5,149,30,184,
  106,83,164,76,33,93,181,34,16,4,80,104,
  33,32,220,17,172,82,250,143,121,175,88,214,
  114,83,192,113,76,168,171,31,43,154,250,174,
  73,232,224,86,56,215,240,85,74,186,203,190,
  181,108,84,100,227,235,67,233,30,76,46,101,
  110,201,71,95,81,1,247,45,158,35,243,230,
  96,152,56,67,7,167,249,21,29,52,175,243,
  5,184,252,220,249,181,7,58,9,32,240,92,
  212,166,226,201,221,143,77,77,91,9,193,156,
  0,183,225,67,63,234,200,57,156,220,199,174,
  187,254,185,45,120,9,3,229,88,42,93,227,
  32,189,29,32,106,140,210,54,235,235,218,143,
  39,61,21,184,192,82,103,117,85,42,78,227,
  205,216,151,86,54,15,167,208,201,181,173,80,
  37,179,189,90,13,189,167,218,250,241,17,205,
  33,216,36,224,35,50,0,10,98,200,23,255,
  77,196,44,211,17,148,89,22,2,172,211,245,
  210,240,238,155,143,223,28,41,156,97,183,178,
  154,231,202,147,161,174,55,92,231,145,167,5,
  240,213,23,151,98,65,166,84,222,59,78,67,
  42,117,202,17,82,199,240,243,53,27,236,9,
  245,188,219,213,33,47,213,175,63,236,205,216,
  139,223,119,235,103,95,241,28,210,244,67,103,
  192,57,73,49,143,154,250,30,38,201,24,142,
  83,233,115,145,242,165,157,199,51,10,30,0,
  228,179,170,64,74,62,190,14,70,227,246,228,
  107,202,159,210,177,80,156,236,175,51,203,79,
  208,43,247,172,188,175,221,180,111,15,230,179,
  18,228,218,92,151,218,159,45,112,195,5,24,
  184,83,49,253,26,15,179,194,20,142,206,77,
  117,35,45,45,252,109,80,26,241,17,65,191,
  227,176,185,172,13,17,216,107,97,89,106,163,
  66,49,25,246,111,231,74,179,42,185,213,178,
  104,3,232,209,156,49,101,171,207,69,241,223,
  227,84,6,60,27,167,109,51,96,74,239,58,
  86,106,144,14,75,38,235,155,143,239,241,243,
  95,29,169,202,78,73,253,18,62,13,49,163,
  30,221,72,232,48,20,206,41,161,82,234,102,
  15,31,22,91,187,21,176,176,216,218,59,199,
  169,227,100,157,192,216,198,118,99,225,181,250,
  22,114,22,148,188,254,68,63,42,72,245,117,
  238,169,243,184,34,250,246,37,236,90,17,236,
  159,71,196,55,209,227,65,91,83,79,169,46,
  4,76,64,153,170,247,1,176,167,37,50,162,
  185,193,47,106,1,111,209,195,100,196,170,3,
  77,5,74,98,191,11,76,251,111,173,61,24,
  130,53,255,15,194,110,233,29,87,6,56,174,
  26,68,190,14,146,26,63,108,112,84,51,210,
  83,118,35,90,212,116,3,72,98,171,189,235,
  65,41,219,29,198,191,169,43,4,192,179,229,
  10,205,16,90,210,100,23,106,49,58,11,8,
  53,94,253,45,243,44,22,204,11,197,203,204,
  19,107,25,51,208,119,12,20,26,188,207,224,
  141,217,252,224,61,103,61,73,27,68,189,252,
  14,161,219,241,182,22,6,167,129,249,203,97,
  82,123,1,43,94,155,168,106,207,12,228,196,
  110,50,161,58,178,45,249,23,203,166,102,220,
  226,33,25,155,44,227,173,96,174,230,180,67,
  103,72,22,39,67,18,224,211,212,97,14,219,
  218,19,190,175,118,149,89,54,65,144,50,170,
  243,81,232,56,16,82,252,169,19,91,164,205,
  28,116,149,8,32,44,238,253,41,0,12,211,
  223,22,65,225,93,48,4,26,205,208,19,214,
  76,225,42,2,21,1,213,219,76,191,196,200,
  93,203,195,2,60,148,226,205,47,195,150,220,
  245,71,165,15,244,92,109,72,11,190,174,186,
  183,183,217,151,155,252,12,232,20,215,206,202,
  6,53,151,81,73,88,85,176,164,80,55,170,
  209,22,158,162,252,186,55,189,33,99,216,53,
  25,181,64,138,204,26,168,93,23,160,207,150,
  58,157,38,72,84,252,31,23,33,96,21,250,
  60,33,244,35,238,247,217,34,168,42,72,3,
  71,219,17,85,181,213,22,18,69,96,40,211,
  106,77,42,243,78,136,169,18,146,35,120,222,
  235,35,79,144,253,33,27,1,97,196,163,98,
  179,46,241,6,181,255,184,82,198,218,241,164,
  24,74,245,49,231,62,36,174,238,193,106,243,
  218,68,3,22,166,153,167,159,65,24,102,5,
  172,191,230,157,203,61,50,198,167,112,142,217,
  48,209,250,26,234,97,62,223,225,237,89,247,
  254,184,14,48,169,222,241,167,220,2,136,34,
  246,73,71,46,70,213,156,4,86,55,34,109,
  44,137,64,175,60,104,78,232,197,35,175,90,
  250,205,100,237,237,106,185,238,46,81,159,102,
  90,222,164,92,196,251,181,192,3,254,69,84,
  175,253,221,53,63,22,236,35,50,170,25,10,
  173,88,11,54,88,216,55,67,9,251,153,48,
  68,83,174,199,70,225,206,38,241,213,161,167,
  155,83,202,159,234,207,22,184,186,170,21,205,
  202,140,17,14,185,68,35,139,117,180,28,229,
  225,236,200,164,25,84,220,12,77,165,68,53,
  52,141,40,2,200,151,210,237,165,191,204,194,
  197,210,203,212,177,13,196,202,16,52,162,228,
  194,179,200,67,180,252,252,252,204,216,142,171,
  76,248,249,19,139,5,223,14,29,236,134,21,
  253,29,58,108,211,57,219,172,194,60,8,171,
  102,43,31,37,24,252,26,87,65,65,54,59,
  186,230,162,30,224,188,46,35,43,229,130,137,
  178,0,33,182,21,203,17,224,154,206,24,143,
  74,35,42,43,172,173,45,216,220,231,226,198,
  78,96,101,52,70,246,51,184,219,178,223,176,
  3,88,188,1,236,34,92,237,222,15,53,14,
  86,166,174,222,243,176,71,67,32,164,184,179,
  62,33,213,42,220,198,249,44,204,175,217,42,
  73,29,104,169,78,192,79,42,1,75,79,32,
  252,42,160,39,2,69,31,238,217,96,148,177,
  204,23,103,90,77,29,222,229,212,166,45,254,
  17,82,196,70,57,168,189,153,174,193,34,122,
  193,60,229,121,151,10,118,220,192,205,228,127,
  220,248,212,208,3,182,162,99,217,215,252,250,
  1,11,220,3,36,61,203,63,211,62,65,122,
  74,97,155,61,11,60,66,0,93,197,170,67,
  109,52,248,175,214,102,235,75,92,89,12,176,
  82,158,193,90,224,161,247,114,196,152,49,237,
  236,62,193,110,162,206,172,218,221,39,14,27,
  212,175,29,229,110,6,42,48,26,226,232,33,
  212,34,77,54,115,206,77,207,159,246,157,38,
  179,34,113,96,161,241,220,33,249,200,163,219,
  40,206,106,211,67,27,210,52,33,30,244,19,
  172,236,206,20,192,37,108,199,77,220,223,234,
  54,233,43,74,231,174,83,95,247,168,209,170,
  205,81,93,105,26,177,7,2,228,93,35,56,
  25,224,176,201,189,56,87,7,79,47,187,200,
  169,18,226,17,232,46,255,196,196,170,14,67,
  161,230,106,249,252,252,156,43,250,90,82,90,
  164,19,117,19,243,90,86,43,85,106,0,181,
  59,15,173,85,45,150,207,68,60,139,160,202,
  86,167,56,188,173,225,18,54,74,37,114,77,
  253,185,228,177,161,88,217,21,219,51,227,238,
  179,13,232,89,26,1,180,202,54,67,176,46,
  200,66,56,165,207,243,84,30,59,28,182,177,
  170,184,78,37,213,20,196,122,80,158,44,182,
  26,83,61,70,25,168,15,24,30,45,27,47,
  213,233,64,234,215,56,165,161,43,83,107,37,
  30,192,109,208,205,52,19,80,26,12,219,165,
  191,22,67,197,103,73,69,230,241,194,5,68,
  201,196,185,63,174,81,83,42,155,26,157,5,
  195,86,32,68,167,152,152,8,69,221,85,247,
  218,101,87,94,194,224,91,212,223,55,230,25,
  156,79,30,234,40,11,85,97,187,118,230,59,
  218,240,107,51,99,32,8,235,191,169,71,173,
  234,31,167,38,57,169,204,227,45,16,33,78,
  213,114,52,163,84,199,86,231,0,84,143,241,
  178,244,208,208,250,107,213,243,184,164,67,28,
  167,168,221,24,91,27,240,45,55,99,18,81,
  72,225,27,185,180,29,13,81,31,189,228,43,
  237,182,98,91,234,223,218,158,231,102,87,70,
  231,14,252,176,193,93,202,242,205,51,151,224,
  50,14,202,0,243,212,46,169,209,40,188,81,
  38,214,57,188,150,202,45,229,199,167,244,239,
  175,79,92,56,73,59,55,10,248,8,242,227,
  186,176,138,254,173,104,82,90,152,31,206,66,
  38,201,59,239,219,31,233,173,166,12,207,186,
  235,122,22,58,15,56,103,20,21,180,157,14,
  228,33,80,47,154,235,215,78,40,252,64,66,
  160,44,155,43,188,12,207,192,207,232,165,16,
  80,239,212,250,89,172,150,103,158,14,245,253,
  67,122,6,81,236,208,41,80,8,157,170,0,
  102,90,193,81,86,193,164,186,40,150,92,104,
  217,91,220,217,11,85,40,203,182,193,182,174,
  89,187,23,146,249,221,191,225,247,18,191,26,
  33,208,190,73,222,35,200,141,55,146,83,179,
  166,1,84,242,1,102,225,249,207,15,248,203,
  9,75,63,46,193,148,250,190,171,195,80,183,
  45,53,187,7,247,154,195,50,166,87,232,10,
  64,171,40,189,70,175,28,194,242,79,187,40,
  57,191,210,2,40,6,60,188,159,75,52,201,
  103,213,204,171,215,81,209,51,224,17,231,70,
  176,56,205,211,54,164,232,35,173,25,55,63,
  235,206,219,204,218,66,93,177,100,190,67,225,
  185,95,209,8,113,183,115,183,151,254,37,189,
  200,186,157,138,48,212,7,213,202,25,59,185,
  183,154,252,0,29,223,82,169,205,29,23,30,
  116,240,97,152,16,191,8,157,6,219,166,20,
  25,66,53,29,83,47,177,5,23,225,47,185,
  234,157,42,251,70,157,9,54,200,237,81,189,
  240,211,47,80,114,69,6,72,88,140,90,8,
  241,236,84,194,21,118,4,0,154,221,176,231,
  61,89,76,168,244,35,115,37,179,55,74,171,
  120,45,101,64,163,253,72,1,174,237,177,169,
  36,79,190,195,1,59,29,174,74,197,180,161,
  179,250,140,238,220,22,98,216,59,214,172,154,
  183,244,239,253,9,38,252,197,21,105,191,77,
  26,204,253,215,97,223,250,39,140,4,162,64,
  39,157,196,169,210,148,65,232,42,244,10,191,
  59,69,5,103,162,165,164,147,28,76,5,43,
  48,96,214,235,55,234,113,14,101,74,238,233,
  208,28,194,10,136,221,45,196,208,36,0,26,
  212,20,225,116,96,249,104,42,214,151,17,240,
  173,235,54,179,47,162,166,14,223,67,228,196,
  250,247,87,79,102,223,18,245,99,26,245,4,
  58,190,85,227,94,11,242,253,104,155,181,252,
  178,151,183,7,58,193,200,203,1,202,84,94,
  5,251,195,7,117,183,206,11,78,246,92,79,
  191,196,197,245,83,2,11,200,25,43,208,237,
  80,89,175,169,176,164,173,215,72,60,75,202,
  99,86,154,205,167,222,93,40,239,251,225,14,
  49,10,157,0,200,17,255,168,195,160,219,164,
  64,159,234,33,200,170,87,98,93,3,255,30,
  228,92,47,222,170,29,237,202,43,67,40,210,
  246,8,90,33,201,97,110,189,95,26,219,214,
  210,241,40,162,183,210,168,107,179,32,12,10,
  210,248,54,191,166,171,61,74,152,77,237,231,
  166,29,221,169,89,74,248,157,206,112,18,184,
  224,219,248,215,192,5,227,165,75,16,216,54,
  203,7,165,174,37,168,15,18,217,112,98,62,
  152,45,69,99,125,52,9,157,222,47,94,251,
  43,76,177,154,82,71,73,152,217,152,101,85,
  27,158,5,167,115,155,11,55,164,101,253,206,
  255,214,166,55,166,178,12,60,193,205,64,64,
  86,236,98,149,46,154,148,57,82,176,236,31,
  79,54,200,182,103,216,101,155,171,21,87,242,
  211,189,84,201,156,140,195,41,68,66,14,3,
  6,86,50,40,166,182,1,179,109,183,5,192,
  38,53,222,233,68,161,249,77,2,214,142,62,
  165,28,254,228,30,17,166,90,205,194,43,13,
  239,190,27,30,216,10,48,50,40,83,221,26,
  71,7,99,74,74,197,158,184,239,114,168,20,
  8,180,160,204,8,12,46,90,167,251,60,182,
  36,166,26,166,236,170,5,190,64,102,250,96,
  214,50,22,48,148,209,86,197,215,237,226,21,
  49,215,210,66,167,106,42,90,81,220,157,208,
  91,181,141,223,228,34,237,66,42,208,155,18,
  230,46,205,11,219,167,187,114,165,28,65,3,
  246,184,176,41,129,15,47,76,177,47,43,205,
  158,175,220,9,199,173,5,79,33,85,195,19,
  221,25,246,92,175,123,246,123,52,104,132,33,
  74,13,63,60,199,12,70,177,238,14,52,1,
  39,116,134,223,190,175,60,64,227,167,96,247,
  237,13,93,198,63,85,95,91,183,182,49,121,
  86,45,53,32,251,86,158,75,209,15,38,11,
  156,172,202,197,73,225,156,121,94,70,161,199,
  178,222,254,97,5,92,35,190,148,24,221,244,
  154,101,42,49,22,46,229,28,89,67,31,196,
  32,174,254,18,199,56,43,167,75,37,193,6,
  232,167,233,235,149,212,92,174,240,5,251,65,
  168,253,175,71,145,170,247,195,69,191,218,96,
  59,96,68,215,174,68,77,194,57,61,54,110,
  7,72,28,176,40,52,153,218,163,38,180,193,
  45,229,183,138,109,70,62,1,231,221,238,44,
  213,79,8,215,215,117,200,26,176,97,7,178,
  8,100,177,156,95,99,37,7,233,92,71,16,
  202,226,35,145,77,156,158,0,37,64,4,57,
  79,191,212,232,234,26,233,107,200,30,90,26,
  216,225,160,235,169,229,84,207,83,53,225,250,
  60,22,182,195,66,18,234,241,10,21,60,91,
  254,117,236,149,98,87,89,34,85,209,40,178,
  92,247,160,176,32,172,55,242,106,28,43,19,
  97,161,192,20,88,242,55,244,158,245,7,81,
  71,78,198,64,5,9,154,109,99,203,89,64,
  238,177,139,146,161,147,155,77,137,40,114,76,
  171,161,226,16,31,143,196,250,237,87,228,72,
  105,116,91,205,237,164,80,101,45,23,68,161,
  57,28,254,205,105,218,235,230,202,170,76,22,
  169,214,90,13,1,100,96,241,171,53,108,45,
  22,6,214,91,98,236,169,219,170,200,236,31,
  24,67,45,37,86,220,56,167,177,221,187,18,
  109,232,16,154,233,216,151,9,28,38,90,56,
  48,51,30,208,55,69,198,115,241,165,205,169,
  97,44,54,254,64,81,102,30,32,56,0,37,
  244,238,62,244,237,43,202,177,196,184,88,252,
