// Automatically generated from ./model/model.tflite
const unsigned char model[] = {
  28,0,0,0,84,70,76,51,20,0,32,0,
  28,0,24,0,20,0,16,0,12,0,0,0,
  8,0,4,0,20,0,0,0,28,0,0,0,
  152,0,0,0,240,0,0,0,36,98,2,0,
  52,98,2,0,48,103,2,0,3,0,0,0,
  1,0,0,0,16,0,0,0,0,0,10,0,
  16,0,12,0,8,0,4,0,10,0,0,0,
  12,0,0,0,28,0,0,0,60,0,0,0,
  15,0,0,0,115,101,114,118,105,110,103,95,
  100,101,102,97,117,108,116,0,1,0,0,0,
  4,0,0,0,144,255,255,255,9,0,0,0,
  4,0,0,0,8,0,0,0,111,117,116,112,
  117,116,95,48,0,0,0,0,1,0,0,0,
  4,0,0,0,210,157,253,255,4,0,0,0,
  12,0,0,0,107,101,114,97,115,95,116,101,
  110,115,111,114,0,0,0,0,2,0,0,0,
  52,0,0,0,4,0,0,0,220,255,255,255,
  12,0,0,0,4,0,0,0,19,0,0,0,
  67,79,78,86,69,82,83,73,79,78,95,77,
  69,84,65,68,65,84,65,0,8,0,12,0,
  8,0,4,0,8,0,0,0,11,0,0,0,
  4,0,0,0,19,0,0,0,109,105,110,95,
  114,117,110,116,105,109,101,95,118,101,114,115,
  105,111,110,0,13,0,0,0,48,97,2,0,
  40,97,2,0,24,90,2,0,8,2,0,0,
  248,0,0,0,204,0,0,0,180,0,0,0,
  172,0,0,0,164,0,0,0,156,0,0,0,
  148,0,0,0,116,0,0,0,4,0,0,0,
  130,158,253,255,4,0,0,0,96,0,0,0,
  16,0,0,0,0,0,0,0,8,0,14,0,
  8,0,4,0,8,0,0,0,16,0,0,0,
  36,0,0,0,0,0,6,0,8,0,4,0,
  6,0,0,0,4,0,0,0,0,0,0,0,
  12,0,24,0,20,0,16,0,12,0,4,0,
  12,0,0,0,203,1,125,232,25,20,212,140,
  2,0,0,0,2,0,0,0,4,0,0,0,
  6,0,0,0,50,46,49,57,46,48,0,0,
  238,158,253,255,4,0,0,0,16,0,0,0,
  49,46,53,46,48,0,0,0,0,0,0,0,
  0,0,0,0,176,154,253,255,180,154,253,255,
  184,154,253,255,188,154,253,255,26,159,253,255,
  4,0,0,0,8,0,0,0,255,255,255,255,
  88,2,0,0,46,159,253,255,4,0,0,0,
  28,0,0,0,113,243,60,189,197,11,69,60,
  221,98,14,188,58,229,25,189,207,250,134,61,
  254,25,58,189,72,83,32,189,86,159,253,255,
  4,0,0,0,0,1,0,0,246,97,169,60,
  247,249,27,188,36,188,64,61,235,20,135,188,
  136,120,84,188,193,172,254,185,146,151,32,189,
  163,193,176,188,161,247,252,187,147,162,190,188,
  93,211,49,189,86,162,117,61,216,183,87,61,
  17,107,41,189,110,191,136,185,75,80,142,60,
  37,241,74,61,150,24,17,189,53,19,8,61,
  179,65,188,188,15,193,103,188,97,189,28,60,
  175,193,5,61,248,239,47,189,9,18,9,189,
  1,45,48,188,209,229,216,187,56,47,141,60,
  94,144,11,189,223,117,155,60,188,153,60,61,
  163,115,9,189,152,97,130,61,17,19,26,189,
  138,241,11,61,121,26,8,189,212,36,168,188,
  120,222,6,189,115,110,142,60,67,182,107,61,
  233,96,232,188,50,248,99,61,47,122,6,189,
  182,244,177,186,34,76,22,61,119,163,89,188,
  176,137,82,61,17,224,22,189,197,254,112,188,
  7,10,63,61,75,141,34,189,49,98,193,185,
  60,255,34,61,140,120,49,61,75,16,238,188,
  14,249,108,61,242,20,150,188,46,84,200,60,
  67,223,153,188,233,2,50,189,13,252,33,61,
  111,71,213,60,240,177,26,189,194,17,0,189,
  98,160,253,255,4,0,0,0,0,88,2,0,
  232,230,232,60,149,134,111,189,5,46,125,189,
  143,193,205,61,95,189,147,187,211,104,200,61,
  46,162,169,59,48,219,217,61,111,116,111,189,
  150,48,149,189,134,70,152,61,215,36,142,189,
  208,7,229,60,106,36,108,61,153,166,194,189,
  96,155,163,189,184,144,136,189,231,117,16,61,
  215,92,76,61,57,17,215,61,9,180,188,189,
  212,61,87,61,79,170,207,188,89,89,20,189,
  243,94,67,189,167,22,171,61,172,35,97,189,
  35,229,43,61,139,37,109,60,81,18,176,61,
  115,215,181,61,5,242,144,61,38,55,45,60,
  242,228,43,61,93,87,80,61,104,61,120,189,
  229,219,122,188,185,167,44,61,86,195,152,189,
  63,168,17,188,209,192,68,61,117,137,156,189,
  69,209,2,61,179,248,180,61,35,123,136,60,
  4,211,127,189,44,51,176,61,164,200,249,188,
  40,242,134,60,41,166,199,61,174,41,215,189,
  38,81,10,61,18,121,16,189,188,229,45,61,
  176,228,49,61,106,189,169,61,135,24,219,187,
  244,197,176,60,215,204,144,61,173,91,152,60,
  208,143,118,61,72,99,76,188,17,92,147,61,
  106,80,187,61,230,156,238,59,59,114,76,60,
  69,159,130,189,52,120,166,189,217,241,165,189,
  238,238,35,189,120,76,154,188,104,21,86,61,
  37,93,119,189,188,174,15,189,165,166,156,189,
  120,160,130,189,198,135,162,189,162,221,184,189,
  8,133,77,188,107,208,169,189,158,125,14,189,
  51,41,129,189,96,182,131,189,6,73,25,187,
  33,146,28,189,68,222,176,189,145,166,70,187,
  33,210,156,61,61,223,163,189,243,72,110,61,
  88,42,67,61,218,73,131,189,59,203,139,61,
  187,0,203,189,243,47,70,60,254,132,82,61,
  133,93,80,61,30,6,28,61,94,88,191,189,
  7,224,106,61,0,241,163,61,225,250,207,189,
  235,54,177,57,184,105,95,61,58,175,147,189,
  197,26,51,187,144,249,203,61,77,49,161,189,
  38,126,142,189,17,58,47,61,60,91,157,61,
  254,217,221,60,125,222,161,189,143,192,158,60,
  1,128,164,61,125,92,55,61,188,161,165,61,
  229,55,203,188,166,190,23,189,120,129,200,189,
  44,121,174,61,217,152,147,189,34,83,123,61,
  46,162,32,189,189,191,96,189,132,102,216,189,
  121,137,77,189,193,180,190,61,74,191,65,189,
  234,41,19,61,252,246,155,187,88,23,37,61,
  64,3,43,59,35,255,184,189,216,88,17,189,
  18,252,90,60,175,206,83,61,231,253,129,61,
  6,233,76,189,225,194,73,188,34,40,152,61,
  173,217,176,189,22,251,140,61,182,212,244,59,
  5,203,143,189,197,189,152,61,1,153,24,189,
  148,131,151,189,168,233,128,189,52,249,5,189,
  116,240,229,60,212,233,2,189,62,216,9,61,
  132,181,237,60,182,175,208,58,232,225,7,189,
  31,37,144,61,185,227,169,187,229,181,149,189,
  128,80,84,61,55,238,139,61,181,95,24,61,
  90,153,199,60,199,37,56,60,211,197,45,189,
  58,144,38,61,188,242,164,61,61,57,155,189,
  191,186,136,61,216,127,156,61,146,22,108,189,
  109,147,135,189,230,200,191,59,71,140,82,189,
  60,98,157,61,79,162,147,61,255,217,159,58,
  19,123,127,59,45,138,168,189,22,126,182,188,
  229,234,102,59,253,5,200,188,139,139,157,61,
  97,246,135,189,136,175,64,61,91,217,186,188,
  104,10,212,61,199,204,203,61,193,224,157,61,
  218,216,167,60,196,13,14,61,235,221,12,61,
  142,75,142,60,155,49,130,61,231,176,103,61,
  166,148,192,61,41,110,59,61,81,113,97,189,
  114,9,104,61,2,211,135,60,86,201,23,189,
  17,81,41,189,29,209,50,61,57,221,149,189,
  131,130,26,61,177,4,109,189,19,191,202,58,
  119,100,185,61,217,141,174,189,242,89,10,61,
  176,231,136,189,2,252,31,61,214,183,172,188,
  183,63,111,60,64,254,11,61,34,101,15,189,
  177,61,145,59,130,162,74,61,90,224,133,189,
  13,174,146,189,5,46,150,189,235,123,197,61,
  84,34,212,61,181,160,16,188,114,4,23,61,
  5,97,115,189,209,188,158,61,198,140,79,188,
  119,24,13,60,27,49,221,61,125,167,97,61,
  157,4,16,61,199,65,170,60,30,66,171,187,
  51,128,156,60,247,145,80,189,81,103,119,61,
  61,62,252,188,49,26,193,189,204,229,180,61,
  176,79,114,189,16,42,130,188,199,254,4,61,
  131,7,197,61,225,56,176,61,114,174,69,61,
  123,16,83,61,124,94,191,61,143,51,237,59,
  236,24,134,189,147,40,132,61,186,246,100,189,
  14,125,153,61,165,187,253,59,70,75,6,189,
  114,7,0,61,129,13,158,59,200,79,255,187,
  38,194,159,189,159,221,0,61,156,12,172,60,
  87,8,66,61,246,207,79,189,250,54,3,61,
  179,84,38,60,179,62,32,60,65,160,136,189,
  212,73,22,61,224,103,147,188,25,183,80,189,
  70,190,0,188,171,208,120,188,195,118,166,189,
  24,178,81,189,52,210,87,61,103,5,162,189,
  174,99,2,61,245,37,179,61,158,116,137,61,
  112,130,208,60,86,19,177,61,207,4,117,61,
  13,41,133,61,46,89,129,61,214,27,123,187,
  42,55,206,61,225,181,87,187,53,197,138,61,
  138,125,168,189,138,252,117,189,208,204,183,189,
  205,183,5,61,113,243,138,60,211,51,5,61,
  178,79,101,61,112,250,173,61,235,213,124,61,
  64,211,185,61,209,248,26,189,228,149,70,61,
  252,150,147,60,200,91,223,188,129,43,189,60,
  1,174,248,60,117,74,57,61,174,206,59,61,
  96,132,151,61,140,233,140,189,81,82,183,60,
  62,253,200,61,21,114,143,189,5,21,4,189,
  121,177,148,58,18,5,154,189,169,45,118,61,
  94,213,99,61,25,100,220,188,5,69,11,189,
  193,36,165,60,55,91,224,59,161,235,130,189,
  203,175,144,189,66,239,138,188,147,112,182,59,
  23,243,184,189,209,43,13,61,161,162,41,189,
  214,74,173,189,56,2,7,189,8,150,193,61,
  70,7,103,188,107,74,239,60,1,140,155,189,
  188,177,205,188,219,62,217,188,100,246,179,188,
  28,147,79,61,138,211,47,189,50,185,86,189,
  109,118,98,59,75,172,41,61,127,71,167,187,
  235,24,206,189,222,38,36,186,255,71,9,187,
  242,10,192,61,166,86,64,61,51,93,140,188,
  58,252,146,61,81,246,209,187,52,201,51,188,
  45,51,48,61,15,99,140,189,98,218,100,189,
  228,56,232,60,229,52,115,61,193,88,72,189,
  82,208,151,189,175,206,137,189,138,180,159,189,
  231,224,62,60,36,92,60,189,226,146,188,188,
  234,101,152,61,171,27,167,60,20,144,195,188,
  155,44,120,188,122,87,160,61,18,184,188,58,
  213,35,178,59,207,126,138,189,66,79,103,189,
  50,188,131,61,223,57,211,188,58,62,6,189,
  137,184,59,189,60,191,44,189,119,176,135,61,
  233,40,77,187,92,125,73,61,153,11,31,189,
  249,105,134,61,4,197,25,187,241,237,1,189,
  191,108,252,58,10,65,133,189,236,73,18,60,
  58,246,181,61,122,94,41,61,188,117,128,61,
  179,69,229,59,17,214,186,60,20,103,164,189,
  2,9,175,189,140,152,114,61,2,6,42,189,
  44,17,34,189,62,16,105,60,167,228,132,189,
  27,89,12,61,85,41,138,187,202,221,94,187,
  161,154,9,189,253,172,166,61,229,78,230,188,
  136,160,55,188,127,168,55,189,122,111,185,60,
  160,77,47,61,176,136,144,189,160,85,241,188,
  57,140,168,189,119,169,62,188,204,154,165,61,
  178,111,136,188,42,83,93,60,186,125,100,189,
  26,185,129,188,135,36,102,61,231,210,162,61,
  56,109,118,188,226,78,36,189,246,3,154,61,
  147,253,84,61,252,195,72,188,103,113,212,61,
  26,41,87,189,40,229,164,59,234,24,10,61,
  221,5,145,61,82,102,124,59,28,82,213,61,
  142,218,130,59,160,162,45,61,134,61,24,188,
  146,194,53,189,212,191,216,187,167,138,253,188,
  184,141,157,61,64,68,72,189,84,21,143,61,
  254,241,145,61,216,225,74,189,96,202,157,187,
  116,252,219,189,23,150,111,189,200,237,22,61,
  235,37,189,60,240,128,30,61,238,120,134,61,
  72,150,110,61,15,236,155,60,175,161,4,61,
  191,44,157,61,161,152,157,61,30,99,21,189,
  38,60,161,189,63,43,255,60,229,131,196,188,
  190,225,53,61,75,227,167,189,200,69,72,61,
  125,222,205,189,173,147,94,189,192,25,137,61,
  8,165,120,189,241,130,166,59,44,47,128,189,
  197,203,48,189,162,71,115,61,153,79,80,61,
  119,234,177,61,114,167,182,189,186,128,207,60,
  180,167,191,189,243,33,1,188,250,84,48,188,
  219,84,174,189,80,224,129,188,255,85,49,189,
  5,139,124,61,130,244,92,189,223,94,110,61,
  51,141,184,61,167,106,80,189,36,120,82,60,
  1,2,129,189,116,44,53,189,68,44,171,188,
  51,95,88,188,210,118,156,189,47,132,63,61,
  132,81,155,61,146,237,252,60,8,42,138,189,
  158,120,173,60,18,89,191,61,80,116,36,189,
  128,143,148,60,239,125,162,61,7,230,175,61,
  58,26,189,61,169,220,101,60,197,106,199,189,
  205,131,55,189,170,214,112,60,20,162,235,187,
  25,2,189,60,186,7,140,60,224,74,202,188,
  147,103,120,61,14,77,71,187,166,33,211,61,
  102,108,58,189,6,56,171,60,156,29,240,186,
  79,164,131,189,253,88,216,60,225,124,94,61,
  132,175,68,61,120,2,167,61,86,187,182,189,
  243,221,223,186,246,96,235,188,33,63,111,188,
  209,223,135,189,231,250,162,188,164,63,209,189,
  83,117,178,189,173,223,230,187,241,145,194,60,
  145,82,130,188,195,174,182,61,228,6,9,61,
  189,212,46,189,127,190,173,189,60,53,177,189,
  60,5,192,61,153,254,134,189,56,32,105,189,
  87,127,81,61,82,46,90,189,124,133,155,189,
  184,152,78,189,69,60,91,61,170,15,134,189,
  4,253,59,61,54,32,241,188,148,92,111,61,
  37,70,12,189,185,237,136,59,152,29,74,188,
  248,68,34,61,119,147,64,187,227,108,197,187,
  59,64,45,61,215,151,75,187,244,203,150,189,
  203,110,27,61,176,179,76,189,97,152,46,189,
  61,102,202,188,84,246,92,61,199,75,7,189,
  71,236,87,189,11,93,86,61,161,200,190,60,
  176,156,145,189,112,244,137,189,145,89,79,60,
  148,136,33,61,219,185,184,189,84,29,25,61,
  46,93,67,60,154,66,79,189,34,114,31,61,
  108,77,133,189,48,23,122,189,161,51,178,61,
  53,189,136,61,190,236,150,60,117,98,158,188,
  222,117,121,189,108,62,110,61,76,211,165,187,
  42,157,79,188,145,235,34,188,225,53,110,189,
  187,102,208,189,39,239,171,189,189,12,80,61,
  20,146,10,189,189,249,200,60,214,151,230,187,
  31,112,39,189,109,149,138,189,226,141,173,189,
  105,78,170,189,198,150,36,61,132,83,199,189,
  137,71,22,61,213,143,80,61,112,169,206,188,
  233,35,116,59,86,244,113,60,78,18,68,61,
  143,181,144,61,117,67,80,189,110,183,109,189,
  95,124,154,189,104,203,96,189,125,220,2,189,
  198,74,232,188,149,207,141,60,83,52,158,61,
  117,53,168,189,69,169,137,60,79,212,59,189,
  234,20,124,189,208,58,131,189,172,192,66,189,
  47,105,2,61,99,160,139,189,92,2,193,61,
  102,47,99,189,131,90,144,188,84,82,131,61,
  58,60,165,61,137,121,32,61,147,249,29,189,
  5,38,57,189,142,29,132,61,170,13,59,61,
  174,16,157,61,226,121,76,189,48,158,129,189,
  172,227,207,189,245,75,0,61,125,131,134,60,
  239,246,94,61,230,40,171,61,120,182,160,189,
  41,60,76,61,21,142,117,189,230,11,30,61,
  75,198,29,189,54,51,150,189,80,61,193,61,
  246,167,126,61,182,59,145,189,80,176,76,59,
  237,45,229,59,233,114,251,60,236,120,27,189,
  128,29,191,188,67,32,218,183,241,64,172,60,
  246,3,17,61,186,20,200,189,126,151,140,61,
  198,58,152,61,153,44,189,188,199,148,168,189,
  192,42,86,61,242,175,61,189,51,20,155,187,
  64,40,201,188,33,44,171,61,170,189,68,61,
  196,241,198,58,98,186,60,60,32,3,245,59,
  1,212,116,189,107,130,129,59,67,31,129,61,
  69,35,153,189,179,12,202,189,229,58,192,60,
  143,133,131,187,130,55,34,189,146,89,88,61,
  211,192,37,187,0,209,177,189,176,7,145,189,
  87,75,168,60,202,55,130,61,198,62,182,188,
  212,60,129,189,95,201,16,61,129,253,123,189,
  103,183,129,61,159,78,11,189,106,248,150,188,
  166,3,159,189,124,251,93,189,248,2,208,61,
  223,108,213,188,171,101,205,189,100,106,173,59,
  47,184,128,189,227,199,7,61,59,194,73,61,
  186,7,190,188,38,235,100,61,151,228,113,61,
  86,64,154,60,242,70,164,189,140,81,214,61,
  129,82,189,189,124,132,17,189,123,155,128,188,
  243,117,92,61,157,194,109,189,183,141,201,60,
  207,9,161,59,230,250,84,189,179,8,158,61,
  37,24,214,186,81,99,17,189,244,50,83,188,
  185,91,11,59,55,155,149,189,244,56,91,61,
  158,208,205,189,65,184,137,60,84,38,145,189,
  25,93,146,61,104,245,12,189,9,108,143,60,
  39,195,227,189,252,22,123,189,1,27,145,187,
  237,221,41,60,232,198,161,61,128,93,59,58,
  244,63,219,60,250,181,47,189,36,105,238,60,
  101,161,135,189,7,64,202,60,87,82,54,61,
  27,210,66,189,237,133,157,61,206,33,30,189,
  185,62,118,61,152,130,151,60,111,132,97,61,
  184,92,179,189,170,107,200,60,13,242,188,189,
  141,201,32,187,231,211,153,61,200,138,140,61,
  242,190,67,61,5,61,159,61,184,7,128,189,
  231,130,161,61,130,115,132,189,214,158,139,61,
  226,155,124,189,138,122,31,61,208,131,106,187,
  11,186,95,61,136,85,134,60,14,147,212,189,
  14,90,226,59,130,38,42,188,137,84,191,187,
  78,155,146,61,248,212,170,59,223,105,81,188,
  195,13,72,188,87,84,73,61,157,228,135,61,
  183,14,218,59,45,213,138,61,98,233,219,59,
  80,225,74,60,224,80,33,187,224,45,4,61,
  234,239,142,189,97,253,89,189,120,151,187,187,
  126,76,208,189,66,192,187,60,238,145,80,61,
  209,238,70,189,129,20,140,189,163,248,95,189,
  87,29,119,188,141,113,103,189,145,150,124,189,
  230,85,137,61,88,10,197,189,221,202,196,59,
  32,184,207,187,237,126,14,61,249,220,88,60,
  27,115,166,60,5,4,154,59,136,35,234,60,
  227,145,3,189,142,13,160,60,249,123,167,59,
  159,10,146,189,96,78,247,60,250,122,161,188,
  137,58,157,189,123,242,165,60,171,5,106,59,
  172,24,92,59,59,164,182,61,23,199,146,189,
  184,165,69,61,192,58,157,188,90,213,247,60,
  9,117,208,189,102,87,107,189,99,144,7,61,
  100,184,70,61,237,57,124,187,187,7,93,61,
  12,44,211,189,137,115,39,61,33,10,1,61,
  138,177,206,61,212,200,66,188,10,28,35,61,
  236,35,181,189,191,87,236,188,15,105,148,60,
  59,70,33,189,138,127,1,189,251,158,175,61,
  83,89,30,61,236,146,161,189,156,176,90,61,
  111,35,109,60,11,43,135,189,60,77,47,188,
  202,87,133,189,94,254,151,60,17,239,216,189,
  102,138,166,60,90,190,155,189,209,230,180,189,
  150,10,49,61,27,127,165,189,235,103,10,188,
  93,127,186,188,38,166,175,61,57,137,148,61,
  248,14,121,60,69,205,43,189,161,11,203,188,
  18,157,134,189,205,206,71,60,7,12,169,189,
  12,231,206,189,250,30,122,189,143,23,214,189,
  111,89,95,189,139,120,88,187,122,39,123,187,
  43,181,1,61,58,182,127,61,220,102,232,60,
  54,117,52,61,165,47,66,61,116,78,7,188,
  169,55,162,189,88,235,79,188,63,85,29,59,
  231,159,19,61,28,1,159,189,184,35,155,188,
  140,17,78,187,241,138,43,189,62,166,46,189,
  106,37,208,188,164,144,106,61,42,91,176,188,
  99,61,161,61,9,154,245,188,176,98,116,189,
  185,106,173,61,9,90,118,59,240,155,116,189,
  20,147,142,189,177,11,139,61,224,11,181,61,
  233,163,2,61,112,42,38,189,117,48,152,189,
  62,94,244,60,114,113,145,61,137,100,150,61,
  243,57,4,61,241,229,229,60,115,40,195,189,
  197,50,170,61,214,222,138,189,202,239,100,189,
  100,124,160,188,211,235,186,61,32,154,159,61,
  18,168,240,60,120,52,62,189,95,20,199,189,
  199,62,191,60,243,249,140,61,34,60,56,189,
  184,26,62,61,163,57,169,61,31,253,104,61,
  233,15,195,61,227,205,162,188,239,245,130,61,
  65,10,210,61,107,32,195,61,43,109,2,61,
  245,234,93,189,99,30,29,189,144,163,3,189,
  193,100,254,59,54,176,159,189,77,39,208,189,
  34,117,155,61,233,253,133,189,58,150,222,60,
  237,92,213,61,138,144,4,189,23,13,27,189,
  100,130,27,61,135,105,136,61,253,34,35,187,
  39,31,50,61,103,239,120,61,76,227,142,61,
  125,100,121,61,222,251,92,189,103,208,209,188,
  116,86,51,60,231,173,4,61,200,56,13,61,
  29,201,160,61,129,3,175,189,76,236,127,189,
  184,178,146,61,27,57,192,61,200,216,107,60,
  53,151,0,61,225,88,142,188,19,38,104,61,
  208,56,11,61,207,223,61,189,128,128,155,189,
  76,155,217,61,73,174,28,61,55,67,149,61,
  64,133,22,189,203,233,47,61,242,73,125,189,
  29,79,183,187,224,178,226,188,53,105,29,61,
  184,209,149,58,201,75,136,61,15,198,167,61,
  184,125,7,61,226,176,50,188,83,224,103,61,
  20,236,124,61,218,145,62,189,4,155,134,61,
  208,125,35,61,191,129,30,61,105,170,12,189,
  47,150,139,61,194,95,117,56,158,114,57,61,
  89,149,129,189,83,174,63,188,177,225,136,188,
  202,191,32,189,21,196,119,61,244,28,166,189,
  56,77,141,189,121,111,39,61,236,3,85,189,
  244,155,73,61,18,6,220,60,24,140,170,61,
  26,89,69,61,6,82,133,61,33,99,19,60,
  183,15,185,61,90,137,69,60,52,91,46,189,
  72,184,141,60,57,55,182,61,89,150,166,189,
  7,249,235,60,12,41,24,61,225,230,162,189,
  215,97,169,61,71,142,141,189,147,42,147,189,
  88,246,191,61,84,24,142,61,101,238,214,61,
  180,65,140,61,135,105,114,61,203,124,88,60,
  92,3,3,61,32,164,104,61,150,213,107,189,
  83,46,54,189,221,170,124,61,69,126,115,61,
  158,98,100,61,105,194,197,188,195,85,113,61,
  192,28,63,60,40,3,200,189,97,53,228,188,
  229,142,52,189,15,85,33,189,183,243,4,61,
  32,65,156,189,19,201,225,60,212,63,74,61,
  212,245,161,186,12,10,34,61,180,158,163,60,
  52,122,216,59,211,76,181,189,253,124,122,61,
  21,21,50,61,112,98,68,61,240,163,30,188,
  31,131,26,189,234,8,184,61,28,146,110,61,
  73,69,102,61,252,153,13,60,210,2,58,188,
  48,51,136,189,182,46,80,61,102,84,161,60,
  217,116,60,189,65,40,190,59,241,237,153,189,
  40,144,143,61,66,253,42,61,138,211,154,61,
  126,145,134,189,248,58,64,61,240,18,52,61,
  64,22,53,189,175,235,214,60,49,240,151,189,
  11,45,206,61,250,101,13,188,73,153,116,60,
  155,148,9,189,56,37,145,61,196,200,5,60,
  102,214,177,188,38,91,142,61,250,210,161,189,
  145,219,15,188,65,253,25,61,20,62,175,189,
  143,129,110,189,32,162,156,189,101,174,164,188,
  103,157,255,187,196,203,207,187,206,195,79,189,
  245,5,253,188,97,15,19,61,122,39,130,188,
  98,157,156,61,5,33,127,189,104,239,71,189,
  89,117,222,60,82,252,1,60,104,79,154,189,
  52,155,60,61,225,91,132,60,51,250,62,189,
  119,45,151,189,167,60,69,189,43,182,111,61,
  247,95,172,61,96,168,250,60,157,154,37,189,
  205,76,191,61,200,158,175,59,51,38,149,61,
  62,182,198,189,250,87,171,187,210,42,190,189,
  172,202,253,60,129,231,141,61,173,0,66,60,
  199,121,31,189,205,135,165,61,106,161,156,189,
  47,44,51,188,206,195,135,61,161,195,83,189,
  128,134,137,189,146,40,216,188,50,179,133,60,
  172,112,151,61,34,188,226,186,100,80,86,61,
  224,23,135,188,195,153,249,60,113,237,52,61,
  200,101,7,189,171,203,195,60,213,74,199,188,
  71,234,246,59,47,154,206,60,255,230,94,61,
  110,113,167,61,23,79,126,60,148,78,115,61,
  201,180,106,189,20,154,1,61,199,242,35,61,
  135,29,178,61,22,137,119,189,19,201,54,60,
  6,125,84,189,138,20,197,189,21,250,116,189,
  26,128,223,60,55,35,124,61,127,101,156,60,
  252,162,56,189,178,170,134,61,127,136,146,189,
  233,42,130,189,93,221,67,61,206,17,143,58,
  146,5,1,189,252,156,100,189,80,201,156,189,
  231,188,123,188,193,241,29,187,105,217,143,61,
  187,7,118,60,219,201,117,60,2,67,174,189,
  74,172,120,60,150,224,216,61,40,241,121,189,
  120,214,190,61,226,7,148,61,212,96,128,188,
  64,46,4,60,207,203,173,61,243,185,155,189,
  161,146,70,61,78,112,58,61,20,12,242,60,
  253,198,138,61,82,72,152,189,25,135,161,189,
  99,235,157,61,44,163,146,61,155,248,146,61,
  4,103,30,188,161,36,21,61,170,202,57,61,
  213,107,143,189,108,2,149,189,39,237,249,188,
  125,25,164,189,69,130,147,60,201,125,34,61,
  182,17,211,60,173,71,86,188,181,38,130,188,
  147,49,155,61,144,34,140,61,181,37,101,189,
  203,23,192,61,83,95,132,61,74,216,201,189,
  165,112,152,61,70,229,161,61,80,181,81,61,
  167,40,7,188,22,225,27,61,8,18,212,60,
  33,18,231,61,47,113,234,188,209,172,65,187,
  29,157,234,188,120,51,158,188,246,218,212,189,
  87,80,233,188,188,78,72,189,48,68,103,189,
  115,93,101,60,124,14,122,188,70,220,190,60,
  152,232,250,60,111,140,114,189,46,117,13,189,
  128,178,201,188,151,80,226,59,235,188,145,186,
  119,99,173,61,249,145,136,61,132,1,98,189,
  80,86,25,61,152,37,57,189,234,177,111,189,
  59,3,191,61,179,244,60,61,230,9,237,61,
  81,127,145,61,122,45,188,188,123,72,243,188,
  4,135,164,189,68,77,133,189,125,175,54,61,
  108,2,186,61,217,73,188,189,214,13,133,60,
  75,40,200,61,122,95,196,189,5,232,198,60,
  118,28,98,189,44,244,246,59,137,131,157,189,
  75,205,242,60,78,95,107,189,210,44,145,61,
  179,173,200,60,58,79,91,61,212,215,129,189,
  217,226,152,189,148,43,64,60,58,237,151,59,
  193,193,11,61,74,23,140,61,34,33,199,60,
  214,227,19,189,132,61,103,189,45,33,155,59,
  179,117,179,61,237,102,107,61,180,34,139,189,
  42,158,152,61,214,12,135,61,229,241,100,189,
  24,67,48,61,125,143,134,61,47,86,123,61,
  235,20,83,189,205,85,177,60,104,228,174,188,
  206,190,79,189,94,255,128,189,127,209,96,60,
  122,24,197,61,118,81,106,189,79,22,176,61,
  10,228,102,189,251,184,149,189,57,20,131,61,
  76,78,141,61,241,47,231,60,100,240,151,189,
  169,162,127,189,59,177,134,189,229,170,21,61,
  161,104,142,189,215,7,170,59,211,31,2,188,
  209,99,162,189,229,9,229,189,107,218,217,188,
  195,22,19,61,180,107,160,189,162,216,231,188,
  119,216,180,61,10,67,144,189,229,180,202,188,
  153,212,105,188,128,136,108,61,29,70,136,189,
  41,141,168,61,113,155,230,60,89,182,207,61,
  84,255,41,187,104,119,150,59,167,129,174,61,
  150,123,30,187,149,52,243,60,170,44,83,61,
  143,51,119,61,80,25,90,61,38,153,107,189,
  209,247,42,189,37,126,176,189,223,62,149,189,
  106,193,188,188,106,22,89,61,40,12,29,61,
  184,202,24,189,231,34,34,188,252,254,223,188,
  161,81,136,61,18,0,161,189,161,147,123,59,
  120,161,29,189,128,181,143,188,161,72,78,189,
  130,29,57,189,41,33,92,60,248,115,113,61,
  60,208,63,189,61,28,38,61,253,10,190,61,
  190,152,80,189,225,21,166,61,194,174,15,188,
  133,130,167,189,204,194,28,60,165,117,147,188,
  250,77,133,189,111,115,210,189,132,186,30,61,
  41,225,45,189,242,167,33,189,87,145,67,189,
  157,229,122,58,26,100,2,61,20,248,108,61,
  154,101,140,189,246,231,44,60,215,22,112,188,
  173,141,82,189,86,153,205,60,152,182,186,61,
  212,80,102,60,72,253,109,189,236,234,151,189,
  211,193,145,61,26,216,147,61,36,47,179,61,
  40,254,52,61,28,161,11,59,42,236,220,188,
  146,67,144,189,63,98,130,188,1,94,138,60,
  3,93,6,189,191,46,220,189,138,158,139,61,
  154,112,164,61,40,2,82,189,104,29,201,61,
  208,86,239,59,174,198,148,189,202,55,30,60,
  119,68,178,61,202,197,204,189,187,42,11,60,
  34,49,172,189,17,162,132,189,49,232,71,61,
  71,207,157,61,198,28,197,189,167,185,82,189,
  241,202,216,189,250,12,49,189,89,113,147,60,
  17,177,29,61,28,40,173,60,198,98,113,189,
  252,147,120,188,29,228,135,61,84,78,138,189,
  36,189,138,61,220,123,101,188,231,157,46,61,
  41,15,166,189,155,58,198,189,163,67,27,189,
  93,151,159,189,91,218,77,60,226,56,134,189,
  108,40,6,61,36,17,222,189,139,95,119,188,
  151,216,49,61,39,174,165,188,100,60,89,61,
  82,96,63,189,184,170,61,61,172,231,207,59,
  45,236,133,189,26,75,148,60,164,157,152,61,
  195,209,122,189,84,164,92,189,205,128,208,187,
  9,121,46,188,228,38,147,189,75,124,137,189,
  32,230,144,61,118,223,149,59,228,205,56,189,
  229,119,148,61,241,250,186,189,100,49,43,61,
  29,162,85,188,182,225,175,189,54,126,151,61,
  171,44,43,60,132,186,171,61,19,2,186,60,
  204,100,151,189,134,22,156,187,149,161,45,189,
  24,101,113,60,13,173,188,189,219,248,62,187,
  235,36,9,61,245,47,123,189,149,187,92,60,
  98,14,162,61,153,176,155,60,15,26,80,188,
  105,200,166,188,17,25,13,61,85,237,18,61,
  239,143,117,189,96,3,6,189,29,241,26,61,
  36,33,157,189,138,80,140,189,170,70,131,61,
  120,119,15,61,118,208,176,61,32,158,160,188,
  139,249,163,59,181,103,31,189,21,129,29,61,
  72,143,143,61,253,207,192,60,179,225,104,61,
  139,58,74,61,181,90,140,188,224,207,124,189,
  202,41,165,61,102,203,130,61,69,105,129,189,
  250,103,232,60,15,41,11,189,46,83,183,188,
  24,31,58,60,141,170,2,61,234,54,86,189,
  159,48,143,61,196,218,106,189,152,135,130,189,
  55,70,249,188,132,140,186,189,35,172,4,189,
  72,25,196,60,145,164,94,60,59,13,91,61,
  121,149,192,61,241,244,235,188,19,232,85,189,
  143,193,148,189,45,17,111,189,15,76,194,189,
  212,161,73,60,227,113,127,61,166,90,124,61,
  200,212,40,189,214,143,113,61,120,224,159,61,
  126,103,222,60,56,212,171,189,32,15,144,189,
  194,178,94,189,91,137,174,188,37,37,36,189,
  46,97,177,189,176,112,64,188,92,209,184,189,
  141,71,241,188,202,237,28,189,161,234,186,189,
  148,33,40,187,233,159,148,60,253,180,175,60,
  34,85,239,60,161,201,220,188,98,66,139,189,
  75,52,169,189,164,22,92,60,176,134,195,60,
  104,63,39,189,37,73,41,61,112,171,187,189,
  127,217,96,189,151,87,54,60,27,231,170,189,
  108,207,128,189,206,213,145,189,167,54,159,189,
  124,232,33,60,148,14,147,189,6,13,62,189,
  103,112,83,61,225,243,213,60,128,211,41,188,
  253,85,77,61,19,78,141,189,108,28,140,189,
  187,184,236,188,132,31,95,61,21,131,131,189,
  24,151,43,61,2,246,79,189,30,210,173,61,
  138,50,80,61,153,246,183,189,65,184,38,189,
  105,121,189,189,12,44,87,61,224,110,60,61,
  253,112,45,187,252,130,240,189,51,118,53,61,
  209,1,123,189,247,5,79,187,144,242,53,189,
  24,250,32,189,111,35,209,188,150,223,48,189,
  9,159,9,189,34,161,151,188,83,122,159,60,
  198,40,176,189,18,235,30,187,44,172,21,60,
  192,250,158,188,147,8,148,61,83,12,75,61,
  74,94,100,189,26,90,88,61,103,119,215,60,
  72,50,186,60,210,45,168,189,129,252,133,61,
  152,102,97,189,4,173,45,189,107,236,135,61,
  140,95,175,189,132,27,139,61,119,37,67,189,
  251,82,33,61,170,127,181,189,49,88,145,188,
  254,112,10,189,121,20,211,188,63,135,203,189,
  76,126,163,188,68,138,87,187,79,108,35,189,
  105,6,159,60,139,125,136,61,154,184,71,61,
  48,250,191,188,91,14,47,188,140,69,241,60,
  206,208,158,61,118,97,67,189,232,239,243,60,
  3,118,218,60,92,27,125,189,30,202,138,187,
  17,208,144,61,154,204,43,58,178,34,137,187,
  149,104,161,61,40,201,145,188,158,160,249,188,
  79,50,55,61,106,222,149,189,95,118,48,61,
  17,231,130,189,218,4,171,189,194,59,204,60,
  178,222,46,61,141,179,138,189,35,117,86,60,
  116,53,203,189,24,250,158,189,0,34,147,189,
  206,229,13,189,5,17,45,189,213,214,128,61,
  194,83,150,189,22,183,106,189,45,89,142,188,
  141,108,12,189,215,11,179,60,159,187,199,189,
  191,180,134,61,40,236,4,60,101,211,167,189,
  193,36,217,189,210,72,146,188,175,61,210,59,
  96,113,159,61,161,134,109,61,167,90,144,61,
  143,123,137,189,225,144,156,61,41,107,237,188,
  29,138,49,189,74,163,8,60,59,231,3,60,
  46,112,221,60,81,188,191,61,87,158,58,61,
  54,186,67,61,173,71,29,189,23,15,158,61,
  142,97,152,60,187,72,112,61,85,179,157,187,
  151,254,243,60,155,63,118,61,207,36,100,61,
  128,69,36,188,152,70,226,60,143,11,72,60,
  40,140,119,61,3,99,133,61,89,196,255,59,
  20,88,164,189,150,212,183,61,10,45,108,61,
  132,122,9,61,75,8,243,188,18,86,162,60,
  245,44,181,189,155,154,171,189,221,66,128,189,
  80,188,171,60,59,156,225,188,19,155,91,61,
  78,166,87,59,4,94,114,189,99,142,8,61,
  126,71,207,60,213,43,137,189,208,36,166,61,
  166,23,157,189,130,110,161,189,205,160,134,189,
  82,96,135,187,178,194,198,189,135,209,98,60,
  25,53,189,188,12,149,158,61,114,48,106,61,
  199,192,235,189,205,251,240,189,94,207,53,189,
  240,180,154,61,7,21,162,61,92,19,137,61,
  61,247,213,189,179,171,180,187,245,58,139,61,
  35,53,53,189,32,220,176,189,140,61,34,188,
  78,118,140,61,63,226,63,189,233,111,4,189,
  177,40,125,189,229,229,11,61,211,212,146,61,
  83,30,192,189,80,245,240,189,241,230,92,188,
  222,11,108,188,42,129,94,189,13,252,167,189,
  174,80,40,61,95,224,171,188,39,234,141,189,
  132,209,99,60,217,206,248,60,167,44,153,60,
  136,107,21,60,211,56,196,188,50,7,51,61,
  254,15,134,189,38,50,124,189,178,39,21,61,
  225,37,217,188,71,200,252,59,138,145,103,189,
  70,238,192,60,146,214,161,189,232,68,204,61,
  133,112,189,188,79,53,194,189,156,126,228,59,
  120,175,159,61,11,138,89,189,127,103,178,61,
  41,0,114,189,75,244,141,60,51,187,167,61,
  149,142,54,61,83,213,132,189,15,69,45,61,
  77,86,120,61,217,245,210,188,216,167,178,188,
  13,123,45,189,60,216,173,61,170,117,131,61,
  97,234,72,189,100,241,237,189,147,197,10,189,
  58,140,156,189,162,108,14,189,198,135,115,61,
  157,156,230,60,35,115,226,188,8,175,71,188,
  100,168,177,189,200,169,177,187,93,147,240,60,
  207,148,158,189,163,70,113,188,241,218,128,60,
  209,185,73,61,165,134,189,61,193,16,142,189,
  209,229,137,61,58,172,234,189,93,199,240,188,
  147,146,138,189,1,83,145,188,203,195,19,189,
  20,113,81,60,223,163,129,189,58,92,184,60,
  45,184,235,188,163,145,206,187,193,50,243,188,
  128,38,178,189,82,249,226,189,174,174,153,61,
  228,52,171,189,144,140,77,189,18,155,46,61,
  36,92,32,60,13,103,179,189,172,185,106,61,
  151,105,236,60,158,61,158,189,117,10,135,61,
  95,195,162,189,212,124,242,189,88,20,68,61,
  43,151,175,188,188,141,192,189,10,101,149,61,
  43,166,54,189,36,119,173,189,50,108,70,189,
  28,77,146,189,173,238,80,189,157,76,138,60,
  246,88,15,189,58,144,209,189,186,219,33,189,
  167,231,25,189,172,96,184,189,206,89,248,188,
  35,181,103,61,97,214,13,60,160,19,147,61,
  13,244,48,189,136,56,60,61,194,27,209,60,
  62,179,126,188,209,136,144,188,88,171,58,60,
  7,32,198,188,2,142,35,186,67,213,154,189,
  183,110,139,189,58,165,29,188,200,54,3,61,
  69,163,3,189,178,45,47,61,147,175,133,189,
  179,169,3,61,49,229,150,61,222,61,179,61,
  11,185,162,61,242,187,137,61,100,165,170,189,
  171,85,187,188,249,243,170,188,57,71,13,189,
  190,191,90,61,129,117,160,61,7,158,163,189,
  248,104,78,61,185,8,129,60,140,44,133,61,
  107,134,53,61,152,207,162,61,250,97,228,188,
  186,245,133,189,27,48,143,189,109,243,43,61,
  28,79,142,189,244,157,132,61,102,49,123,61,
  46,99,106,189,226,245,151,61,155,24,125,187,
  42,244,242,60,28,231,246,188,70,45,201,61,
  105,181,141,189,252,63,136,61,95,130,151,189,
  92,198,193,189,163,233,119,189,40,101,75,61,
  5,184,243,188,147,185,163,61,143,196,199,61,
  56,175,197,189,91,144,165,187,123,98,144,61,
  171,126,83,61,150,225,44,188,207,123,54,188,
  74,115,135,61,94,215,138,189,220,19,169,61,
  60,204,126,187,29,88,63,188,83,34,139,61,
  18,14,75,189,219,215,159,189,177,184,38,189,
  16,134,214,61,65,118,189,61,50,110,6,61,
  52,159,107,61,55,169,174,61,55,237,199,61,
  137,193,133,189,184,146,165,61,142,198,153,189,
  209,48,105,189,43,168,155,61,121,246,166,61,
  201,170,214,59,143,178,100,189,167,135,172,61,
  200,249,158,189,106,15,144,60,52,227,112,61,
  208,206,136,189,187,71,29,188,164,238,77,59,
  232,6,241,57,158,172,132,61,173,120,161,188,
  172,42,72,189,165,82,206,60,156,255,124,60,
  23,13,68,189,55,36,48,189,128,25,111,60,
  207,28,137,61,108,59,157,189,51,153,125,61,
  182,8,149,189,5,126,157,61,235,1,193,59,
  100,82,203,61,2,138,61,189,231,52,173,61,
  1,136,29,60,213,97,15,61,244,144,235,188,
  150,128,208,61,185,207,68,61,122,72,148,60,
  154,83,131,61,182,46,144,189,64,85,153,189,
  212,231,168,189,189,36,125,189,222,229,119,189,
  199,109,235,186,38,72,245,60,137,111,217,61,
  118,239,153,189,149,78,57,61,111,115,192,60,
  36,94,114,61,30,223,200,60,87,227,161,189,
  4,122,210,60,114,130,183,189,255,243,156,189,
  55,114,6,189,146,127,68,189,109,126,172,189,
  44,18,10,60,134,140,184,189,85,141,228,189,
  64,101,40,60,190,243,241,188,81,116,213,61,
  23,11,148,61,243,14,57,61,137,254,100,189,
  78,171,20,188,181,89,153,189,221,236,168,189,
  115,157,163,188,66,85,59,60,154,154,180,59,
  193,155,138,189,68,131,136,61,255,77,245,187,
  108,126,52,189,123,46,108,61,162,186,118,61,
  87,73,128,61,190,80,142,189,62,197,174,61,
  1,30,107,188,243,155,190,187,171,28,146,61,
  99,32,134,61,222,44,132,61,228,168,175,60,
  105,208,16,189,143,112,209,60,23,239,144,189,
  12,100,0,61,255,142,236,60,172,53,150,61,
  149,79,37,61,125,58,158,189,70,18,132,189,
  20,173,203,188,202,74,161,186,89,211,161,188,
  200,128,24,61,20,154,1,189,2,186,61,189,
  71,57,182,187,231,27,190,60,156,21,176,189,
  78,69,57,61,133,97,167,189,247,216,83,61,
  171,24,194,61,186,143,141,189,249,195,176,189,
  194,120,157,189,211,186,24,189,19,45,218,61,
  176,88,153,189,120,46,184,189,29,70,7,189,
  17,61,132,188,182,228,166,189,98,189,195,61,
  12,252,122,188,116,163,145,189,125,81,91,189,
  35,55,95,189,177,249,72,61,230,225,59,61,
  18,149,119,189,83,37,218,60,45,18,186,188,
  166,77,97,188,151,226,142,61,183,52,162,61,
  5,97,139,189,2,243,97,61,30,105,2,189,
  98,92,123,189,29,79,246,60,153,115,69,61,
  183,135,163,189,118,216,3,188,87,229,178,60,
  30,21,161,58,73,26,160,61,229,182,161,60,
  135,50,126,61,1,182,233,187,18,162,147,61,
  8,1,130,61,150,72,155,61,104,97,87,61,
  124,94,179,189,117,163,151,189,241,173,170,189,
  163,152,200,189,131,213,181,61,68,47,148,189,
  11,120,182,60,85,144,145,189,121,217,193,61,
  15,231,150,61,20,106,77,189,123,195,55,189,
  88,151,242,60,174,56,75,188,78,104,142,61,
  55,36,135,58,26,103,194,188,110,139,201,61,
  164,137,131,61,167,223,4,189,68,160,173,189,
  221,222,186,189,32,72,168,187,156,76,250,60,
  128,199,159,189,157,217,51,189,133,32,125,189,
  10,87,148,61,172,25,133,61,174,249,114,61,
  139,211,75,189,205,240,36,61,44,112,192,57,
  1,101,203,187,164,5,231,58,218,154,211,60,
  220,182,103,60,177,96,29,60,234,162,8,61,
  247,82,46,188,206,44,177,188,151,105,149,60,
  143,171,118,61,17,130,166,188,1,101,31,189,
  177,234,35,60,241,188,135,189,164,38,217,61,
  48,190,232,188,76,52,159,189,16,78,162,189,
  13,3,110,61,50,162,76,189,74,86,97,189,
  72,235,88,61,162,192,131,189,93,203,161,59,
  138,79,237,188,53,29,183,61,139,133,172,61,
  121,183,92,189,106,132,153,61,200,103,113,189,
  211,132,23,61,123,222,123,60,103,5,123,61,
  232,167,210,189,63,194,154,188,4,2,31,189,
  170,199,229,188,50,89,131,189,236,134,235,61,
  186,78,182,59,138,189,173,189,138,160,74,188,
  220,110,175,189,212,30,148,61,135,159,119,60,
  123,100,163,189,42,12,229,187,237,67,214,60,
  113,136,20,189,64,241,87,189,81,98,106,61,
  90,3,145,61,116,226,119,189,242,157,81,188,
  219,118,174,60,46,156,45,61,65,249,241,60,
  245,129,223,187,76,89,215,60,50,0,162,189,
  156,173,253,60,199,163,23,189,11,197,197,188,
  116,79,174,189,254,189,50,189,19,90,209,60,
  223,34,61,186,143,50,134,60,182,204,211,61,
  101,160,67,61,127,50,138,61,116,130,169,61,
  41,120,135,187,169,144,222,60,133,181,113,189,
  176,210,176,189,83,101,95,59,56,75,52,188,
  16,229,156,189,28,64,215,188,49,113,143,189,
  83,61,124,61,205,60,158,188,226,44,8,61,
  51,243,23,189,222,53,192,187,237,223,108,61,
  137,93,136,61,28,48,176,189,250,111,131,189,
  162,69,75,61,146,181,166,61,248,197,122,189,
  207,101,168,189,12,155,72,189,221,180,162,189,
  3,151,141,188,44,229,134,189,67,55,29,189,
  190,34,147,60,124,229,22,60,192,129,84,189,
  94,119,154,189,74,130,79,61,26,41,31,61,
  65,88,48,189,219,8,173,189,53,238,29,189,
  80,124,61,60,35,35,129,61,76,210,60,184,
  48,64,127,61,130,196,70,60,20,99,175,61,
  250,246,71,189,169,157,9,189,113,131,157,61,
  147,209,117,60,242,86,50,188,194,151,143,61,
  47,134,68,189,203,116,78,61,235,125,97,189,
  248,140,114,189,244,45,5,189,17,253,174,188,
  221,187,149,189,153,111,32,61,131,158,100,61,
  97,153,9,61,59,235,251,59,38,186,112,59,
  173,220,93,60,179,100,70,61,166,165,47,61,
  30,206,215,188,162,69,194,188,238,73,238,60,
  137,159,181,188,78,214,145,59,155,22,180,61,
  99,188,161,61,1,117,107,189,199,45,163,61,
  166,8,236,188,177,141,240,188,215,74,173,61,
  15,148,21,188,145,175,202,60,152,85,76,59,
  135,210,156,188,235,210,164,189,80,219,101,60,
  130,196,172,188,37,87,62,187,9,151,244,188,
  105,117,136,60,89,216,51,61,249,168,59,61,
  2,15,49,61,12,67,66,189,46,216,145,188,
  220,207,180,61,29,142,95,61,93,46,30,188,
  32,189,179,187,98,32,203,188,11,32,121,61,
  1,208,159,61,36,234,86,61,75,122,243,59,
  105,121,206,188,196,111,164,189,52,190,21,187,
  7,11,204,188,205,129,131,61,185,245,248,188,
  154,136,63,61,147,200,52,189,100,213,56,61,
  180,55,136,61,171,41,43,188,40,38,154,60,
  165,86,202,189,105,230,177,188,201,193,165,189,
  243,80,128,189,112,8,126,189,71,70,189,189,
  209,164,150,188,3,90,5,61,23,195,145,189,
  170,37,57,189,224,165,143,59,149,108,201,188,
  81,222,198,189,142,177,28,60,22,192,37,189,
  152,116,147,189,73,45,48,189,104,212,237,58,
  150,51,147,61,65,168,129,61,198,131,195,189,
  21,165,154,189,244,94,8,61,71,10,149,189,
  132,240,141,189,6,63,10,189,235,72,94,189,
  108,53,136,189,45,89,116,189,51,163,6,61,
  31,163,28,189,94,151,20,189,64,210,139,61,
  240,134,212,61,1,204,203,188,62,27,232,59,
  225,244,160,189,211,41,205,187,215,25,167,189,
  4,35,209,188,8,167,99,188,68,82,28,189,
  25,189,222,187,255,144,117,188,132,245,13,61,
  247,187,187,61,244,34,79,61,254,197,212,187,
  36,208,138,189,198,2,88,60,246,68,178,187,
  28,106,213,61,44,134,72,188,186,44,82,61,
  30,168,83,61,155,51,46,189,25,185,148,61,
  136,243,150,61,192,201,82,189,159,245,10,61,
  254,233,21,60,51,140,206,60,225,61,131,189,
  21,220,145,189,73,62,26,60,28,70,164,189,
  123,34,135,61,103,220,142,61,121,160,34,60,
  132,7,130,61,156,87,166,189,29,50,182,61,
  184,121,55,189,222,64,25,188,12,118,181,189,
  79,202,190,188,15,92,29,188,75,76,141,189,
  24,227,159,187,131,216,5,187,13,180,128,189,
  26,101,134,188,45,159,130,59,135,175,128,61,
  108,253,51,189,7,18,73,189,198,78,215,188,
  246,11,5,61,2,101,80,60,198,31,177,188,
  24,163,164,60,100,185,134,189,189,48,16,189,
  125,171,186,61,12,33,168,189,111,126,62,187,
  126,210,52,61,152,154,121,189,223,200,29,59,
  77,151,123,189,44,132,168,189,69,181,238,60,
  50,63,131,61,150,192,159,189,114,209,2,61,
  28,13,228,60,213,163,124,189,131,92,62,59,
  78,162,13,189,138,124,33,188,114,137,214,189,
  40,56,118,61,108,0,37,59,224,4,192,61,
  47,12,198,189,85,179,11,61,206,18,205,187,
  133,170,193,188,77,16,243,59,161,3,236,61,
  66,154,180,189,29,204,213,60,102,228,54,189,
  35,201,122,189,85,52,240,60,215,204,176,61,
  62,41,75,189,253,40,135,189,220,26,45,61,
  198,158,210,61,195,232,87,60,248,153,156,61,
  154,55,110,187,254,95,165,187,161,169,29,188,
  36,139,82,189,77,13,143,60,246,220,179,61,
  158,108,49,61,99,132,230,188,151,194,179,189,
  234,63,206,61,253,169,32,189,79,23,151,61,
  55,102,41,189,180,82,231,183,153,179,57,59,
  206,149,24,60,246,207,152,189,158,124,35,189,
  130,178,10,189,138,201,191,189,79,238,124,61,
  111,129,197,60,181,10,55,189,182,139,16,59,
  18,4,87,189,188,186,43,189,203,237,184,59,
  189,63,179,61,67,7,178,60,231,62,9,61,
  188,67,210,60,175,145,136,61,101,152,161,189,
  19,129,91,187,243,227,180,187,91,115,81,60,
  123,157,36,189,27,30,169,61,196,225,183,61,
  114,115,167,189,36,225,198,61,39,205,105,189,
  79,224,168,61,176,124,141,189,177,197,184,59,
  87,148,104,61,231,163,140,189,202,143,18,59,
  224,164,176,57,214,93,195,61,209,39,130,189,
  45,222,30,61,64,159,30,61,234,224,166,61,
  25,132,208,60,216,150,47,61,173,32,112,189,
  104,45,79,59,159,12,166,61,204,40,105,189,
  228,95,27,189,113,37,69,61,78,16,161,61,
  36,208,188,61,67,226,92,189,234,193,15,61,
  107,148,85,61,240,46,152,61,141,59,47,189,
  252,24,65,61,243,191,132,60,11,18,58,60,
  208,93,126,189,89,238,163,61,6,14,194,61,
  63,215,215,60,104,40,167,189,161,97,162,61,
  101,123,134,61,113,33,45,189,143,104,138,189,
  58,58,140,188,14,210,103,189,98,95,224,189,
  112,46,28,186,142,134,163,189,119,164,72,189,
  14,33,131,188,67,142,8,61,3,197,159,60,
  236,236,130,61,97,152,196,189,109,132,148,59,
  161,157,128,61,118,26,210,61,27,110,74,60,
  56,203,191,189,93,158,201,188,186,223,4,188,
  27,125,82,61,47,100,205,61,185,229,184,189,
  118,165,118,189,26,88,81,189,54,220,26,60,
  29,207,216,60,134,14,200,61,23,1,164,189,
  252,240,166,60,58,14,21,60,180,63,132,61,
  33,243,107,61,151,192,138,61,32,123,148,61,
  210,121,114,188,127,175,77,61,58,218,85,188,
  148,32,148,61,86,119,32,61,187,53,128,189,
  180,84,79,189,180,116,122,61,164,226,73,189,
  205,94,4,61,30,142,181,60,10,155,186,188,
  77,37,10,189,94,54,173,61,213,189,129,61,
  241,211,39,61,226,220,151,189,183,230,174,189,
  144,23,195,61,32,149,88,60,37,158,201,61,
  11,1,236,188,15,77,35,61,25,11,150,61,
  176,91,24,61,135,168,3,60,157,104,121,189,
  226,238,206,58,46,208,118,189,21,67,161,61,
  3,111,169,59,87,205,196,61,231,142,164,189,
  30,126,190,60,185,235,170,61,225,135,16,61,
  3,40,24,189,70,255,128,60,80,79,145,188,
  129,12,169,188,115,52,169,60,119,245,20,61,
  121,11,21,189,247,5,229,188,88,154,79,61,
  110,191,168,189,138,74,113,59,95,11,22,60,
  161,136,152,189,192,39,9,60,137,179,72,61,
  180,240,187,60,119,244,112,188,96,33,156,189,
  217,112,120,188,71,74,210,188,181,227,30,189,
  185,3,124,61,40,103,141,61,84,118,175,189,
  75,77,115,189,18,18,184,60,168,164,60,60,
  144,201,48,61,34,171,118,61,0,221,142,60,
  108,221,188,188,121,74,198,188,75,108,61,61,
  198,178,130,188,225,103,193,61,167,185,57,61,
  50,66,140,61,232,67,176,61,185,189,160,61,
  94,165,127,189,196,82,175,188,54,179,188,185,
  111,233,123,61,58,219,182,60,86,30,153,61,
  170,1,51,61,108,253,32,61,186,187,207,61,
  140,85,220,188,141,222,87,60,32,252,164,188,
  185,42,171,189,194,139,208,60,217,49,7,61,
  118,138,131,61,224,91,88,189,85,197,44,61,
  88,238,159,61,27,186,4,189,102,195,198,188,
  251,148,165,188,201,220,144,59,93,95,172,61,
  122,130,121,61,166,193,199,61,32,231,111,61,
  170,178,12,189,246,100,174,61,60,156,65,189,
  227,209,62,61,9,68,13,61,246,150,133,189,
  195,252,201,61,145,205,24,61,190,131,140,61,
  165,234,97,188,33,102,105,189,190,142,112,189,
  117,85,180,188,15,12,109,60,113,89,146,61,
  69,120,116,189,236,109,86,189,154,88,149,61,
  229,11,61,189,22,176,87,189,164,71,147,189,
  176,210,191,59,98,238,107,189,172,9,224,58,
  119,202,134,189,215,68,162,61,232,39,89,61,
  251,168,211,189,222,172,84,61,96,2,167,61,
  108,235,10,61,55,71,227,57,206,242,147,60,
  84,63,75,61,239,191,46,189,13,228,252,187,
  68,16,5,189,109,175,23,186,43,3,189,188,
  35,75,195,189,85,91,119,189,126,188,6,60,
  246,203,29,189,152,96,213,60,92,138,78,59,
  8,161,36,189,73,85,183,61,116,238,18,60,
  113,128,4,60,109,173,75,189,43,243,128,61,
  38,211,36,61,145,237,186,61,180,215,24,189,
  115,75,146,61,32,102,121,189,132,139,145,61,
  20,90,151,61,101,6,136,61,143,73,200,188,
  20,202,70,61,218,98,93,61,104,127,125,61,
  167,90,132,189,103,140,252,188,230,127,143,61,
  56,12,70,189,102,153,108,189,216,104,6,189,
  20,4,146,61,75,228,143,189,65,246,154,189,
  127,132,188,61,147,80,196,61,18,244,96,187,
  104,198,163,189,49,75,68,189,134,229,81,61,
  124,167,139,59,98,177,255,188,86,0,172,188,
  9,93,134,61,215,26,170,189,112,197,154,188,
  215,244,57,189,28,175,46,61,119,152,84,60,
  251,195,78,60,197,114,166,189,171,75,156,61,
  34,99,199,187,252,37,176,189,129,246,123,188,
  211,186,88,189,34,191,153,61,178,232,112,189,
  79,66,70,61,54,178,131,61,68,175,133,61,
  33,6,246,188,250,99,115,189,154,113,103,61,
  59,135,81,61,39,61,125,187,43,97,6,61,
  74,245,58,61,27,201,157,61,98,3,191,60,
  28,21,165,61,77,69,82,189,230,225,151,187,
  76,167,43,61,50,235,99,189,154,179,8,60,
  108,159,3,61,213,239,95,188,15,166,64,188,
  232,97,35,189,172,98,27,189,100,210,210,61,
  69,196,139,61,233,235,96,188,11,237,57,60,
  19,181,168,189,157,134,96,188,207,43,6,61,
  32,246,108,188,126,246,53,189,174,96,168,61,
  47,7,58,189,221,212,68,189,7,72,119,61,
  219,241,178,189,220,48,2,60,63,115,186,189,
  14,132,151,61,89,182,20,61,211,52,34,189,
  253,160,203,60,51,74,144,189,193,241,200,189,
  145,56,25,61,55,175,238,60,161,181,204,61,
  153,146,185,60,99,145,79,61,90,39,51,189,
  92,26,154,189,207,250,87,60,8,12,8,61,
  248,180,140,188,198,39,102,60,159,109,87,61,
  0,84,154,61,148,38,90,189,200,181,78,187,
  127,53,177,189,246,237,154,60,190,5,111,61,
  125,140,133,61,138,249,128,189,184,230,167,61,
  85,101,174,189,195,255,8,189,145,116,49,60,
  94,75,141,61,209,6,77,61,18,248,13,61,
  220,191,194,60,102,78,92,61,80,148,7,61,
  221,15,36,60,175,62,240,60,82,232,158,61,
  144,183,31,61,27,71,50,61,247,40,86,188,
  181,143,69,60,173,25,173,61,8,118,128,188,
  197,54,72,189,100,128,152,60,177,83,136,187,
  133,5,176,189,90,16,161,61,40,73,212,188,
  224,219,131,189,246,204,130,189,221,103,103,189,
  32,136,172,189,154,191,130,189,9,135,171,189,
  163,238,137,59,184,232,182,189,77,231,167,189,
  103,195,135,61,254,19,33,61,41,115,153,61,
  210,106,138,61,59,43,114,61,52,214,145,189,
  192,91,214,188,103,172,165,189,134,203,178,60,
  142,246,78,188,15,156,77,61,124,156,62,189,
  16,131,173,60,134,44,1,61,225,64,163,188,
  222,24,223,59,91,39,147,60,15,63,110,59,
  13,210,5,61,226,27,153,61,157,31,69,188,
  115,190,85,61,175,246,133,61,220,158,111,61,
  139,199,165,188,0,46,229,188,250,162,175,189,
  51,194,163,61,248,140,160,61,227,35,206,59,
  21,35,152,189,17,36,2,61,43,166,135,61,
  149,36,138,61,242,21,155,188,56,21,237,187,
  253,241,198,188,21,95,203,60,205,249,90,61,
  186,57,50,61,97,187,130,189,16,27,182,188,
  203,59,149,189,11,87,199,185,105,60,146,61,
  187,125,26,188,103,226,147,61,128,17,33,189,
  224,79,205,187,61,69,11,189,53,213,214,188,
  224,69,157,61,119,90,179,61,188,71,157,61,
  173,243,64,61,153,13,107,61,17,58,165,189,
  18,203,200,189,227,162,138,61,144,204,157,60,
  173,3,163,186,240,187,1,189,123,33,169,61,
  17,125,134,61,56,185,130,61,152,143,60,60,
  106,33,237,60,100,25,54,189,32,38,187,189,
  246,49,53,61,18,105,28,61,184,60,90,189,
  72,103,183,61,191,54,231,188,248,154,167,61,
  19,247,17,189,117,143,40,189,105,208,222,189,
  237,189,16,189,49,253,167,61,220,183,29,60,
  94,207,76,189,209,193,161,187,58,240,204,189,
  160,137,165,189,146,215,176,61,28,159,10,60,
  223,74,122,189,5,255,173,189,170,63,130,61,
  21,22,168,61,57,23,12,61,166,38,60,60,
  7,145,165,189,231,232,16,188,211,78,20,188,
  221,227,166,61,131,214,169,189,195,110,166,188,
  35,142,47,61,254,182,255,60,53,84,167,61,
  150,239,117,189,186,155,165,61,108,44,51,188,
  249,89,79,61,253,160,203,188,206,11,158,188,
  89,217,213,60,38,224,141,61,213,64,139,188,
  25,58,51,61,53,46,159,189,152,1,200,189,
  193,247,147,188,141,205,116,61,91,155,169,188,
  17,180,24,61,33,50,94,189,57,101,188,189,
  115,125,90,61,165,177,126,189,139,80,112,189,
  158,62,128,189,18,75,75,60,3,171,162,189,
  108,112,227,60,63,153,91,189,85,106,208,189,
  61,250,137,61,246,205,136,189,20,177,111,61,
  12,218,13,188,249,211,61,61,1,254,200,188,
  29,65,198,189,85,165,121,189,210,91,0,189,
  166,207,47,61,14,17,244,187,220,236,190,189,
  91,182,43,188,74,0,128,189,233,0,32,61,
  39,4,81,59,53,170,220,60,127,142,145,58,
  48,94,19,189,12,155,75,60,190,139,161,61,
  149,63,16,60,145,152,99,188,15,197,96,61,
  132,248,116,189,137,40,129,61,41,4,201,188,
  83,158,138,188,246,35,194,61,47,151,77,61,
  200,139,119,189,6,247,162,60,5,4,126,61,
  148,218,54,61,90,219,200,61,161,197,92,61,
  51,202,129,189,52,136,12,189,103,240,180,59,
  181,139,163,61,140,210,213,188,19,49,159,188,
  178,170,171,188,29,162,76,189,25,212,199,60,
  53,73,194,59,90,76,116,60,117,27,84,187,
  62,72,59,61,162,26,101,61,154,195,107,61,
  250,219,245,60,93,154,149,189,32,94,31,61,
  19,242,21,60,245,222,53,189,8,162,132,60,
  57,86,177,189,137,50,47,189,195,172,88,188,
  203,214,52,189,234,141,135,189,74,170,142,189,
  150,58,121,189,11,218,138,189,164,13,144,189,
  153,190,255,187,184,252,145,189,193,79,36,188,
  137,107,69,61,246,35,129,189,248,156,162,189,
  97,105,137,61,28,190,137,189,187,50,28,61,
  142,187,46,189,141,155,61,60,251,90,151,60,
  151,164,65,189,130,123,90,61,146,94,6,189,
  44,20,187,189,41,210,49,189,31,183,130,61,
  212,28,199,61,118,29,145,188,57,135,18,189,
  118,225,91,189,62,88,42,189,30,75,47,60,
  198,136,158,188,215,164,58,189,72,137,177,189,
  82,152,108,60,58,230,79,189,210,191,154,57,
  228,206,168,61,81,67,197,61,27,33,184,188,
  182,118,17,61,129,249,195,188,136,56,3,188,
  242,32,195,188,1,98,7,61,86,205,154,189,
  200,111,160,189,77,204,98,61,75,118,37,61,
  160,223,142,61,59,98,156,189,199,107,48,61,
  42,190,208,60,118,241,206,188,245,34,172,189,
  159,143,230,60,53,127,81,187,137,45,190,189,
  35,70,76,189,135,76,185,61,232,234,166,61,
  113,33,211,60,226,67,144,61,31,195,136,61,
  120,8,134,61,89,122,185,61,115,31,144,189,
  37,130,240,60,16,39,33,61,9,84,58,188,
  243,236,155,188,253,2,172,61,196,230,201,60,
  109,48,81,61,244,110,185,189,252,52,7,189,
  243,212,207,188,252,179,181,186,214,51,181,189,
  11,243,206,189,180,213,58,61,230,214,152,189,
  139,171,113,61,218,40,166,189,33,77,174,189,
  52,179,13,189,3,40,178,189,246,118,43,61,
  182,98,232,188,249,113,91,188,185,186,78,189,
  120,188,129,189,83,24,173,188,202,243,137,189,
  13,121,68,60,34,189,175,189,108,250,24,59,
  86,164,165,189,64,2,209,60,104,10,99,61,
  28,238,99,189,112,43,180,60,195,157,247,188,
  204,188,207,187,148,211,150,189,225,97,32,59,
  130,228,213,59,130,204,103,189,121,214,74,61,
  207,119,55,189,230,213,161,189,86,182,116,61,
  144,231,109,61,248,122,38,187,150,131,147,189,
  140,19,108,61,151,1,124,189,174,223,100,61,
  53,134,142,60,244,162,240,189,129,41,166,189,
  207,64,139,61,156,76,49,61,6,150,167,188,
  130,26,128,61,41,105,64,189,12,140,216,60,
  9,28,200,189,64,117,133,189,158,117,169,188,
  182,62,39,61,28,204,43,189,84,217,146,189,
  34,240,213,188,253,65,232,188,11,19,140,189,
  13,16,161,61,176,203,23,189,76,121,158,61,
  189,58,133,187,143,183,174,189,166,251,88,189,
  167,69,81,61,158,108,117,60,98,49,182,189,
  207,156,57,61,142,48,166,61,193,138,226,60,
  0,22,94,60,240,54,68,61,160,101,231,188,
  31,204,203,189,250,42,68,188,16,34,58,189,
  88,85,190,61,228,112,38,61,163,123,245,188,
  170,131,116,61,117,58,97,188,35,150,197,189,
  3,86,33,59,132,169,122,188,37,31,84,188,
  196,173,159,61,172,151,156,189,191,102,209,189,
  202,90,230,188,97,198,86,187,79,27,231,60,
  0,48,173,61,197,228,170,188,71,9,5,189,
  76,112,0,61,189,186,146,189,31,240,80,189,
  177,31,165,61,78,205,186,188,191,184,86,189,
  116,91,227,58,196,56,59,189,104,135,156,61,
  162,208,219,60,41,183,75,188,29,161,6,189,
  205,107,8,60,110,83,53,61,41,202,213,61,
  255,44,193,189,174,133,177,61,19,234,52,188,
  86,186,148,189,222,86,217,61,232,11,209,60,
  67,4,152,60,59,32,187,188,99,183,34,59,
  243,134,45,189,177,110,117,61,61,124,167,61,
  109,67,109,61,127,34,158,189,34,105,63,61,
  127,243,176,188,39,247,152,187,102,97,242,188,
  121,178,142,61,43,132,163,189,252,88,4,60,
  120,19,64,61,215,65,31,189,213,169,36,61,
  187,21,81,189,239,232,53,60,63,73,36,61,
  29,88,197,60,16,209,140,61,198,54,233,60,
  52,105,135,188,199,20,128,61,202,45,29,189,
  172,29,150,189,74,33,39,61,26,192,48,189,
  93,189,141,59,97,121,104,188,85,231,255,188,
  51,90,77,60,46,255,34,61,27,19,85,61,
  242,29,3,61,56,217,31,189,186,129,184,189,
  83,223,75,189,184,247,248,59,244,205,141,189,
  118,12,146,60,178,6,189,188,213,159,154,60,
  160,154,187,189,235,228,127,61,159,93,227,61,
  63,1,233,189,94,7,148,189,53,12,141,61,
  46,239,190,189,121,245,98,189,82,25,234,61,
  209,97,138,61,203,110,183,61,106,106,129,188,
  127,105,133,61,88,10,119,61,123,159,8,61,
  86,50,162,187,232,170,73,61,163,145,123,61,
  20,151,149,61,84,148,108,189,186,222,206,188,
  101,140,4,189,124,73,199,61,49,176,169,189,
  249,107,135,189,40,127,24,189,105,251,46,189,
  205,220,118,61,246,22,143,61,204,242,84,61,
  141,47,176,189,106,18,61,189,190,115,128,189,
  89,63,154,189,127,22,131,189,75,168,162,189,
  77,54,6,189,45,180,49,61,231,95,107,61,
  100,31,132,61,110,148,125,189,164,170,241,60,
  67,66,66,188,243,103,245,188,200,243,113,189,
  231,243,204,189,181,43,179,189,9,111,203,60,
  155,173,166,189,24,178,144,61,175,105,143,189,
  199,33,176,189,22,34,34,189,104,56,134,61,
  229,128,181,189,99,110,37,59,89,73,89,189,
  31,143,156,60,247,16,19,189,10,199,184,189,
  1,241,106,189,139,182,6,61,222,10,138,61,
  51,146,101,189,147,68,119,61,20,206,157,188,
  134,249,202,189,74,117,59,189,123,171,169,61,
  91,187,13,61,214,28,73,61,227,253,180,61,
  123,4,150,61,78,191,17,60,234,178,211,60,
  196,6,4,188,216,131,192,189,68,65,49,189,
  110,134,208,189,33,23,233,188,169,218,38,61,
  220,218,161,186,18,114,145,61,201,57,60,61,
  148,178,220,60,91,47,198,61,0,90,94,188,
  113,96,190,188,206,30,40,189,244,119,19,189,
  174,215,87,188,86,75,12,189,168,83,224,60,
  73,250,131,60,128,149,55,61,52,164,24,61,
  3,117,75,60,163,125,178,61,40,19,4,189,
  11,218,176,61,11,11,146,61,25,48,6,61,
  69,182,175,188,151,216,8,59,255,46,138,61,
  249,222,57,61,41,9,5,186,81,109,182,188,
  32,173,44,189,72,63,121,189,116,219,111,61,
  142,206,209,187,51,56,53,189,247,71,147,61,
  123,104,169,187,121,36,61,186,214,42,165,61,
  11,232,139,61,59,12,37,59,205,221,157,189,
  235,189,98,189,109,9,121,61,167,106,107,189,
  7,40,240,59,129,54,121,59,187,4,39,189,
  93,95,171,61,74,102,22,189,72,137,152,60,
  218,225,153,182,57,60,36,61,1,151,37,61,
  147,17,193,59,85,237,124,61,79,156,113,61,
  131,122,24,61,211,137,165,189,110,19,183,189,
  4,249,201,189,245,101,55,189,239,83,4,188,
  215,84,202,61,125,68,130,189,108,195,147,189,
  149,35,14,189,178,254,39,61,208,106,253,60,
  20,215,195,61,41,119,25,61,160,107,161,189,
  105,173,145,189,155,8,37,189,204,34,194,185,
  130,198,86,61,30,218,216,60,206,75,160,187,
  202,157,53,61,239,207,181,61,95,209,178,61,
  174,61,55,61,90,75,232,60,213,194,136,189,
  84,245,248,60,203,253,41,189,17,40,158,61,
  57,100,228,187,14,40,162,61,41,97,53,61,
  153,153,126,189,68,251,9,60,138,172,245,59,
  138,73,133,61,64,226,196,60,57,207,152,189,
  41,41,149,189,33,236,78,61,38,90,223,58,
  85,112,236,188,204,105,133,61,137,61,152,61,
  223,242,192,61,5,19,250,58,199,228,248,60,
  188,120,33,61,59,110,188,60,57,116,187,60,
  49,197,183,189,223,64,126,61,252,107,130,189,
  245,207,226,61,212,140,118,61,98,231,106,61,
  250,161,159,61,172,118,142,189,98,90,152,189,
  91,98,51,61,244,69,148,55,190,143,187,189,
  121,80,136,61,9,19,207,60,144,97,49,60,
  8,46,84,189,232,242,123,189,77,150,176,189,
  228,50,194,61,16,78,104,189,63,172,99,61,
  210,151,36,61,233,112,213,60,73,15,110,188,
  171,37,148,189,175,69,128,61,205,118,63,61,
  160,149,47,188,22,101,206,189,112,104,175,61,
  236,86,180,60,185,138,23,189,108,101,144,189,
  180,244,235,188,222,156,82,61,7,220,187,61,
  79,111,157,61,182,156,79,60,54,38,159,61,
  28,194,228,188,143,216,189,189,74,246,64,61,
  76,183,239,60,228,210,142,189,7,58,51,61,
  43,172,202,61,234,93,175,61,249,217,85,189,
  82,226,137,188,79,214,184,61,53,208,184,60,
  195,37,156,189,76,116,142,60,165,76,156,189,
  13,250,65,61,231,82,150,189,133,125,141,189,
  19,247,18,61,97,151,88,61,64,229,143,189,
  155,183,143,189,124,88,138,61,236,92,169,189,
  223,211,228,60,18,89,39,189,45,127,147,189,
  40,153,90,189,105,91,144,61,23,83,255,59,
  136,7,17,189,70,213,155,61,27,251,99,61,
  155,184,20,189,2,175,88,61,26,73,183,188,
  184,231,58,189,138,167,155,61,142,92,144,189,
  171,135,169,61,101,163,119,61,83,235,236,188,
  164,26,43,189,94,83,103,189,247,178,22,188,
  115,92,9,61,143,15,159,61,69,250,27,189,
  177,198,166,189,227,46,134,61,60,204,147,188,
  150,236,188,189,11,77,197,188,60,136,53,61,
  176,73,246,188,207,162,89,61,153,254,189,61,
  188,10,10,189,56,101,96,189,220,217,161,189,
  198,109,170,61,146,215,19,188,185,7,196,187,
  29,75,145,61,162,50,235,60,226,79,159,59,
  102,172,47,189,48,158,86,60,183,4,133,189,
  223,19,168,189,197,69,141,61,210,40,89,61,
  156,118,221,61,39,99,168,61,75,66,186,189,
  169,176,253,187,178,97,43,61,122,210,77,58,
  61,203,150,61,111,120,133,59,4,215,114,188,
  221,57,234,60,155,12,156,60,73,45,160,187,
  38,119,133,60,175,93,65,61,165,88,159,188,
  172,195,162,60,16,27,118,188,0,104,148,189,
  107,111,94,61,156,99,52,60,246,187,88,61,
  60,215,41,61,73,22,123,60,116,245,133,61,
  106,168,59,189,85,96,131,61,169,144,13,60,
  140,2,147,189,67,3,30,189,217,98,162,189,
  93,171,45,189,93,121,236,61,122,170,175,189,
  142,170,152,189,149,22,128,60,39,166,50,188,
  234,155,129,189,113,155,130,61,32,165,2,61,
  61,101,75,61,47,124,33,61,91,175,20,189,
  251,130,33,61,231,65,227,61,172,37,110,61,
  201,62,188,61,18,110,134,189,64,234,16,189,
  65,121,107,189,233,235,91,189,9,68,135,188,
  152,247,11,189,151,146,215,59,13,121,162,189,
  102,29,133,61,66,99,110,60,217,248,144,189,
  118,5,209,187,237,25,160,61,119,117,76,61,
  208,167,77,61,253,36,135,189,155,132,149,61,
  253,45,106,189,126,88,239,60,91,119,232,61,
  148,180,144,61,81,62,197,59,88,122,167,188,
  84,254,68,189,0,76,157,61,113,248,196,61,
  140,114,81,61,108,101,67,61,206,223,152,188,
  85,177,184,60,251,161,27,189,74,229,15,189,
  211,14,109,189,111,2,16,61,38,199,0,61,
  153,255,204,189,242,35,170,61,14,106,72,189,
  39,192,25,60,16,117,67,189,177,202,175,61,
  111,191,136,186,136,27,120,189,25,46,44,61,
  109,191,88,189,144,170,41,189,230,207,177,61,
  31,32,24,189,22,77,0,60,13,121,134,189,
  21,205,29,189,26,255,84,189,210,20,201,189,
  10,106,170,189,73,64,38,61,138,59,208,61,
  133,174,170,61,137,182,22,60,24,138,143,189,
  32,142,176,61,134,147,213,189,155,102,126,60,
  55,179,100,61,174,64,27,189,61,175,140,61,
  72,140,94,61,163,85,100,61,255,9,121,61,
  245,165,33,61,50,138,178,60,218,122,213,59,
  198,100,30,61,39,151,154,188,55,164,204,61,
  228,172,36,60,53,166,94,61,210,108,7,189,
  196,132,157,61,244,4,68,61,167,169,205,61,
  149,191,198,188,197,62,15,61,138,131,238,59,
  210,239,179,189,192,14,5,61,156,95,236,188,
  80,44,121,61,218,161,64,189,93,194,128,59,
  204,92,31,61,65,45,128,61,231,224,131,61,
  165,3,111,61,234,231,5,61,207,29,0,189,
  47,44,160,61,65,88,189,188,189,219,166,189,
  123,90,41,189,124,75,135,61,253,108,196,189,
  107,211,65,61,12,106,132,61,33,205,108,60,
  208,15,7,61,166,75,132,189,107,208,216,188,
  202,110,14,61,62,185,56,61,223,162,22,60,
  246,8,169,188,235,112,30,189,245,40,1,61,
  92,118,120,61,10,168,167,189,29,241,150,61,
  228,24,203,189,19,238,75,61,224,224,76,61,
  88,107,102,61,116,76,176,61,28,67,128,61,
  96,58,91,188,25,74,249,59,130,84,137,61,
  74,228,172,189,89,55,80,60,221,118,59,189,
  167,28,156,189,63,46,20,188,183,201,223,188,
  202,108,97,187,34,156,217,60,255,17,74,189,
  84,26,201,188,201,175,70,61,158,239,147,61,
  167,200,76,189,29,189,45,61,183,108,166,189,
  99,16,198,188,197,241,213,60,72,203,15,61,
  126,210,177,61,223,201,187,61,219,226,43,60,
  153,74,104,61,0,193,152,189,1,83,93,61,
  69,234,174,189,60,25,251,59,167,203,126,60,
  131,222,193,61,125,102,107,61,141,190,243,58,
  219,1,25,189,110,153,35,189,77,3,23,60,
  197,5,141,61,42,6,174,189,183,121,78,60,
  193,98,141,60,52,124,32,189,95,101,81,61,
  144,223,170,61,216,135,23,61,98,100,185,61,
  240,98,173,60,129,180,54,58,198,1,4,61,
  113,215,127,61,254,252,178,61,12,42,148,189,
  251,129,97,189,243,169,127,61,70,14,19,189,
  172,33,177,60,151,199,13,189,88,211,200,188,
  57,85,105,189,0,166,114,61,93,59,148,61,
  182,237,61,61,28,149,161,189,8,7,220,188,
  144,233,102,188,137,238,73,61,235,135,155,61,
  250,127,228,60,94,42,18,189,75,169,129,61,
  26,63,170,189,225,71,44,189,247,124,34,189,
  183,220,203,59,85,217,155,61,204,43,84,188,
  52,126,145,61,181,175,164,61,157,233,147,61,
  10,34,216,61,254,215,185,61,209,215,167,61,
  239,167,41,61,193,78,98,61,186,193,34,61,
  162,12,249,61,208,172,200,60,193,139,4,61,
  253,161,192,189,13,91,56,189,245,169,55,189,
  254,26,4,61,27,176,247,188,43,169,157,61,
  35,177,172,189,24,101,58,189,198,35,3,189,
  35,73,191,61,14,199,146,61,108,222,144,188,
  208,173,133,60,31,234,201,189,86,26,72,60,
  34,49,19,61,196,188,105,189,114,104,249,188,
  50,24,129,189,21,35,172,61,76,33,80,189,
  113,33,155,188,50,233,135,188,40,61,63,60,
  167,187,160,61,76,20,219,188,191,127,53,61,
  206,204,30,189,144,150,141,189,30,123,172,188,
  68,31,175,189,182,68,190,189,30,194,53,60,
  168,146,209,61,214,16,127,189,124,207,211,61,
  51,139,73,61,116,20,203,188,205,206,165,61,
  246,173,74,187,170,88,184,61,153,98,89,61,
  70,19,138,188,192,12,39,61,116,182,168,187,
  116,253,200,61,239,31,82,189,64,83,212,60,
  161,87,105,189,140,74,163,61,218,139,203,61,
  100,80,142,189,85,52,17,61,107,34,129,61,
  51,82,176,189,16,150,34,61,80,229,2,188,
  180,152,217,60,37,154,211,60,162,141,157,189,
  163,22,144,61,191,117,102,189,37,57,173,60,
  128,119,169,61,29,123,75,189,38,47,141,61,
  235,175,170,188,125,142,186,189,250,195,217,60,
  75,156,32,189,195,151,143,61,157,164,197,61,
  72,239,18,61,0,209,84,61,143,0,58,61,
  152,60,20,60,23,62,251,188,197,165,146,61,
  115,87,192,188,226,129,139,187,35,228,100,61,
  130,68,123,189,118,126,125,61,216,109,90,61,
  86,223,0,59,204,149,155,61,110,138,68,59,
  232,10,114,61,78,215,13,188,13,57,132,189,
  76,55,217,189,38,178,101,61,77,151,150,189,
  205,105,84,61,105,50,65,189,54,80,155,188,
  56,195,210,60,173,178,162,189,200,135,179,61,
  11,71,34,60,121,179,59,61,41,231,57,188,
  1,66,128,60,202,115,19,189,22,45,248,188,
  253,158,136,61,34,123,153,189,159,163,233,188,
  250,122,13,60,69,69,145,188,116,136,146,61,
  183,155,135,61,112,95,186,189,186,149,223,60,
  224,125,0,60,138,231,40,189,80,240,177,61,
  67,14,136,189,251,173,109,61,252,101,4,60,
  159,110,220,188,72,26,29,188,238,161,160,189,
  212,249,247,60,46,98,149,188,83,148,50,189,
  79,77,145,60,242,141,157,189,23,9,57,61,
  128,96,42,61,152,36,192,187,129,111,192,189,
  38,217,57,189,241,132,146,61,107,1,63,61,
  148,22,159,189,8,210,152,189,87,97,21,188,
  92,111,3,61,42,238,31,61,26,110,43,61,
  130,206,87,189,91,129,156,60,157,218,62,189,
  37,123,138,60,171,17,208,188,170,12,207,188,
  138,86,206,189,134,232,138,61,214,167,214,189,
  114,68,91,189,189,166,160,189,244,251,155,61,
  155,92,229,188,68,31,51,188,98,233,130,61,
  225,120,143,61,206,124,101,189,195,245,109,61,
  21,113,131,189,6,166,250,187,172,130,191,189,
  92,160,211,60,118,142,170,189,233,78,232,61,
  27,83,171,189,215,187,70,189,2,132,223,188,
  107,221,143,61,184,55,153,189,245,176,199,61,
  116,86,193,189,68,1,47,61,228,77,219,189,
  141,175,248,60,113,187,197,188,190,0,75,61,
  160,43,143,189,15,120,159,188,115,50,181,60,
  72,68,231,58,66,178,135,189,251,15,163,189,
  113,134,120,187,225,24,144,61,9,123,232,188,
  250,205,169,189,50,188,19,188,212,183,32,61,
  176,235,126,189,104,208,154,188,70,98,36,188,
  16,192,156,61,174,19,174,61,251,161,143,189,
  22,77,154,189,101,210,132,61,20,128,2,189,
  248,171,13,61,110,211,131,61,142,247,135,189,
  104,129,119,189,176,191,189,189,197,121,26,61,
  216,49,111,189,154,131,2,61,47,114,139,59,
  31,58,89,61,175,93,41,61,26,36,78,61,
  59,67,155,189,186,212,156,61,31,160,76,61,
  230,251,151,59,121,236,194,188,53,59,2,61,
  56,46,110,61,217,96,140,188,97,60,72,61,
  251,60,190,189,241,149,149,189,145,146,145,188,
  99,200,0,189,48,18,172,189,236,234,135,188,
  232,10,176,60,104,225,226,60,33,201,15,61,
  107,58,25,61,59,15,76,60,49,71,100,189,
  77,53,46,189,162,176,210,187,23,49,157,61,
  109,163,16,61,138,110,140,61,138,158,216,61,
  195,199,197,60,204,211,252,188,153,243,50,189,
  209,67,28,61,17,250,96,61,206,195,181,60,
  235,71,95,61,33,130,201,188,162,61,36,189,
  124,5,128,189,69,151,184,60,201,208,192,61,
  192,233,127,189,11,226,57,61,139,6,185,60,
  222,46,35,59,43,216,215,189,241,186,123,61,
  23,114,168,61,109,115,138,188,39,29,143,189,
  31,98,38,60,23,49,31,187,186,35,72,189,
  117,128,8,189,253,199,177,188,18,103,210,189,
  170,191,188,189,117,33,40,60,80,133,24,61,
  54,58,210,189,206,43,226,185,222,54,130,61,
  229,231,167,61,40,23,224,189,56,47,211,188,
  169,5,93,188,163,166,148,61,108,244,3,189,
  168,1,238,60,15,177,217,187,59,245,27,60,
  165,99,46,189,132,137,184,189,126,90,159,61,
  166,42,134,186,80,216,163,60,14,149,98,61,
  120,78,137,60,198,139,33,189,169,61,172,60,
  19,247,105,61,14,99,127,188,184,40,128,61,
  35,56,193,60,145,105,19,61,9,18,105,189,
  119,143,183,61,39,103,220,189,243,108,22,189,
  35,188,125,188,223,145,59,60,49,114,7,189,
  204,234,26,60,206,22,37,61,41,107,13,60,
  68,136,183,188,198,25,27,189,136,149,167,189,
  250,226,241,187,195,11,154,61,129,200,179,58,
  251,42,193,189,107,86,200,60,75,182,229,189,
  47,188,197,61,97,87,69,189,207,227,192,189,
  156,197,167,189,198,241,95,61,198,102,24,189,
  220,28,143,189,99,19,55,189,22,76,29,187,
  200,132,241,60,42,186,202,189,151,23,177,189,
  36,83,97,61,54,203,164,61,216,138,131,189,
  22,89,114,61,255,121,167,61,119,99,211,188,
  145,220,41,61,110,135,240,188,92,109,128,189,
  24,4,114,189,65,223,75,189,86,38,237,58,
  73,109,213,60,127,190,30,61,137,50,49,189,
  15,251,112,61,186,145,201,60,238,198,222,60,
  19,181,176,61,111,202,185,189,62,174,135,61,
  183,235,76,61,243,139,24,187,64,26,229,58,
  90,157,182,189,172,106,204,189,147,201,200,188,
  193,142,1,61,126,160,166,60,211,218,73,61,
  118,210,163,189,164,23,169,61,41,242,34,189,
  30,66,54,189,93,142,173,189,122,172,24,188,
  22,146,7,186,195,194,214,60,133,173,90,61,
  136,161,139,189,88,28,157,61,59,46,193,187,
  107,36,184,60,119,10,187,60,128,31,10,188,
  45,87,15,61,143,200,142,189,209,172,228,60,
  171,248,148,185,107,164,207,189,192,119,26,189,
  86,49,187,189,243,128,137,188,36,143,116,188,
  119,48,142,61,71,19,194,189,75,60,140,61,
  27,131,137,61,128,214,92,189,119,145,121,61,
  132,34,176,189,21,3,183,61,238,172,200,189,
  223,12,146,189,242,113,144,189,218,220,139,60,
  207,86,13,60,235,230,99,189,208,214,117,61,
  223,47,87,189,215,76,176,189,72,215,141,189,
  214,5,204,60,218,54,177,61,20,135,153,61,
  207,25,147,189,88,113,147,189,154,188,169,188,
  216,215,141,61,172,136,96,189,62,147,121,189,
  93,199,64,187,92,199,96,61,64,244,161,189,
  180,21,129,61,8,93,108,189,63,208,14,189,
  204,220,137,189,102,62,153,61,115,215,59,61,
  223,42,178,59,126,167,59,189,18,0,168,61,
  241,51,42,60,210,96,93,59,98,57,92,61,
  119,155,56,188,94,133,91,189,113,183,167,189,
  55,112,63,61,213,237,220,60,119,114,96,61,
  207,191,166,189,157,252,73,60,253,55,137,61,
  212,155,117,189,3,77,39,188,143,52,133,189,
  93,251,86,60,191,219,11,60,27,215,148,61,
  27,66,193,188,226,53,7,189,141,34,139,60,
  232,225,179,188,206,140,136,189,122,217,123,61,
  106,24,79,61,220,46,46,189,91,85,147,189,
  4,79,8,61,178,84,101,61,74,172,150,188,
  102,26,128,61,172,39,177,59,174,94,74,189,
  168,25,87,60,31,200,152,189,114,168,182,61,
  243,204,44,189,241,147,136,189,238,136,160,189,
  1,173,219,187,151,161,82,61,231,93,1,189,
  108,196,57,189,56,41,186,61,234,191,20,61,
  249,134,118,187,45,62,224,60,237,10,16,61,
  97,241,12,60,242,61,203,188,137,58,54,61,
  137,244,37,61,78,73,163,188,77,65,134,189,
  30,76,9,61,156,156,180,188,50,192,107,60,
  53,143,101,60,19,206,70,189,156,7,142,60,
  129,56,176,189,168,31,29,189,67,228,142,189,
  172,68,143,61,51,63,131,59,220,47,80,61,
  100,68,85,189,209,119,101,61,131,27,72,61,
  121,229,29,61,210,210,168,61,169,70,169,61,
  39,92,107,189,166,160,74,189,167,112,169,188,
  190,91,115,189,17,89,53,189,110,155,9,59,
  186,72,166,60,20,69,136,189,228,19,159,189,
  147,84,83,61,149,134,145,189,175,164,241,187,
  189,235,177,61,116,145,44,61,248,225,44,189,
  8,95,252,188,68,112,10,189,207,255,165,188,
  153,31,131,61,58,41,128,189,235,168,163,187,
  196,101,54,61,4,248,140,61,135,238,61,61,
  171,159,148,61,126,148,228,59,17,26,185,188,
  156,158,236,188,159,158,34,189,230,211,199,189,
  152,177,129,61,248,155,248,187,167,223,168,61,
  15,105,33,61,219,212,240,59,73,243,187,60,
  164,11,47,189,211,252,161,189,37,178,79,188,
  128,83,191,189,159,176,7,61,174,74,189,189,
  46,7,166,189,177,27,138,61,32,13,161,61,
  74,110,137,61,55,252,187,61,28,210,212,188,
  95,127,142,60,191,193,128,189,204,154,76,188,
  175,174,244,59,215,162,8,61,33,92,204,189,
  38,93,136,188,130,18,134,61,54,161,66,189,
  242,69,175,189,104,58,155,61,107,126,247,60,
  169,183,243,188,63,66,144,189,233,57,18,189,
  0,158,20,61,178,42,253,187,167,176,53,61,
  130,62,185,61,186,30,156,61,213,191,172,61,
  64,152,50,61,172,201,165,61,96,126,160,61,
  250,84,206,61,216,152,36,187,230,37,192,61,
  189,220,75,189,200,109,129,61,227,83,243,188,
  35,5,131,189,59,173,221,61,109,51,84,189,
  22,244,146,61,18,255,51,61,120,211,51,61,
  207,94,193,188,224,180,250,188,189,168,139,188,
  74,250,14,189,243,17,51,58,205,151,130,61,
  151,168,175,61,100,222,205,61,100,101,137,189,
  3,199,246,187,145,1,17,189,249,135,108,59,
  31,199,173,189,133,33,30,61,62,62,200,61,
  34,109,57,189,224,8,69,61,189,140,48,59,
  234,28,5,188,130,60,54,60,2,83,78,189,
  251,30,158,189,14,157,192,189,12,123,52,61,
  100,112,79,189,87,142,175,61,43,150,18,188,
  90,79,182,61,199,156,83,188,177,248,12,61,
  123,26,111,189,210,17,5,61,198,54,61,189,
  151,93,91,61,184,100,148,61,184,233,99,61,
  146,175,190,187,141,23,87,61,112,113,216,60,
  89,4,190,61,64,68,218,189,150,198,20,189,
  253,88,9,189,15,160,141,188,18,9,103,61,
  101,50,171,61,142,128,229,187,207,178,86,61,
  77,11,77,61,190,137,48,61,128,124,118,189,
  194,243,80,189,75,79,135,189,255,151,254,60,
  106,173,79,61,159,83,168,188,226,119,121,189,
  83,189,85,61,71,221,2,189,140,206,39,189,
  150,104,144,61,115,77,17,189,45,122,251,188,
  43,15,63,61,191,54,167,189,103,111,132,186,
  144,140,138,61,185,203,244,188,208,139,142,61,
  88,129,243,188,232,250,148,189,16,95,210,61,
  218,55,127,61,70,228,0,189,229,6,198,61,
  145,161,77,60,157,118,55,59,64,146,65,61,
  165,3,240,60,26,34,156,189,129,86,87,188,
  202,79,27,188,9,221,168,189,174,97,184,61,
  206,194,122,61,2,80,170,61,23,109,125,61,
  216,25,146,61,169,40,24,187,224,128,186,61,
  22,103,70,189,57,227,155,61,206,0,53,188,
  149,144,56,189,54,72,11,61,2,73,166,61,
  157,63,108,188,51,191,151,61,157,96,56,61,
  241,245,75,189,94,116,210,189,207,98,97,61,
  194,204,223,61,232,65,106,60,177,154,169,61,
  41,12,16,60,231,197,159,61,218,92,167,189,
  225,69,63,60,180,223,134,61,3,26,80,61,
  62,219,187,189,168,160,251,188,161,7,185,61,
  154,26,155,187,254,217,174,61,4,149,16,189,
  70,35,183,189,49,157,78,59,33,46,52,189,
  189,113,122,61,129,226,10,189,220,181,95,61,
  155,231,17,59,211,40,143,189,152,233,157,60,
  166,126,164,61,86,178,163,61,128,183,105,184,
  180,4,20,189,243,94,210,189,119,189,10,61,
  99,80,39,61,71,31,201,61,170,97,104,188,
  132,188,139,188,1,206,220,189,107,252,202,61,
  129,171,43,60,195,219,178,61,128,107,199,61,
  195,130,194,61,242,138,212,60,142,236,135,185,
  212,33,138,189,116,229,97,189,133,59,228,188,
  47,22,235,60,123,72,151,61,32,211,130,189,
  29,165,135,189,42,221,210,187,196,204,64,61,
  88,6,32,189,252,202,41,189,236,167,225,60,
  52,94,52,189,152,59,208,61,194,254,61,61,
  216,198,171,189,205,248,70,186,138,26,239,60,
  172,76,140,188,87,74,83,60,150,149,168,189,
  121,233,2,189,250,55,168,60,79,225,133,61,
  56,156,214,188,163,147,181,61,71,134,19,61,
  149,70,91,61,141,25,106,60,234,30,161,61,
  217,131,255,59,64,148,200,188,219,58,44,58,
  66,240,147,61,148,160,228,60,179,61,119,189,
  235,25,122,61,230,65,171,61,68,116,160,60,
  244,199,137,61,191,194,91,61,250,45,117,61,
  34,105,118,189,158,32,222,60,166,81,136,189,
  128,172,215,59,181,17,122,61,150,49,78,61,
  43,141,34,60,84,227,47,189,198,234,35,61,
  238,221,183,188,209,60,64,189,30,245,54,189,
  247,65,57,61,45,154,100,61,105,154,97,188,
  46,81,59,61,28,18,1,189,228,243,176,61,
  166,222,6,61,195,22,180,61,36,96,108,189,
  11,151,114,189,33,236,152,61,93,132,166,189,
  13,129,108,189,8,86,67,189,51,175,81,189,
  61,84,32,189,254,124,28,189,106,194,117,189,
  214,151,90,189,49,93,63,189,151,19,153,61,
  0,170,55,61,119,16,193,189,145,77,129,189,
  11,1,122,189,124,116,162,60,28,236,149,61,
  50,135,151,189,163,46,99,188,76,33,134,60,
  156,137,134,61,191,225,19,61,56,233,167,189,
  24,44,7,189,142,167,245,60,103,20,92,61,
  250,78,255,60,108,132,155,61,13,33,12,60,
  211,8,1,61,23,255,163,59,173,243,184,59,
  4,210,219,59,151,25,17,60,1,126,149,189,
  47,229,242,188,56,62,37,189,183,69,106,61,
  24,12,158,189,0,71,90,61,115,166,187,188,
  104,207,169,61,41,46,255,60,153,231,43,189,
  156,0,192,187,206,42,124,189,83,59,143,187,
  89,132,89,189,40,232,165,187,233,14,97,187,
  235,138,140,61,28,136,113,61,138,237,37,189,
  52,30,124,60,219,75,95,188,68,195,31,61,
  7,210,3,61,135,52,160,61,57,165,150,61,
  155,156,67,189,39,44,42,61,107,110,135,188,
  54,127,29,189,104,96,216,185,208,201,231,60,
  34,23,130,189,114,32,94,189,112,103,83,189,
  9,74,126,187,157,217,157,189,212,105,169,187,
  243,28,152,61,174,221,246,59,136,210,154,61,
  129,12,77,61,97,113,137,61,60,156,236,60,
  115,42,56,60,113,205,165,61,80,253,25,187,
  53,52,167,61,166,118,7,60,253,29,131,61,
  100,208,192,187,236,125,43,189,232,141,141,61,
  214,66,204,189,17,161,110,189,132,91,148,188,
  110,16,126,188,52,190,175,189,170,209,167,189,
  199,139,172,60,212,115,115,60,19,139,135,59,
  240,90,150,61,20,252,176,61,218,77,69,189,
  190,88,67,60,94,105,33,57,166,127,89,61,
  192,67,93,58,251,109,233,188,222,138,218,60,
  17,168,18,189,104,75,182,189,117,126,96,61,
  78,41,201,61,40,132,160,189,188,163,251,188,
  95,117,0,61,164,201,139,60,81,68,187,189,
  235,142,107,189,31,134,171,61,87,175,164,60,
  8,11,27,189,250,14,130,189,204,69,123,189,
  4,13,117,61,20,115,141,187,48,122,78,189,
  63,71,106,61,7,226,100,189,136,122,123,61,
  165,177,39,60,139,203,53,189,26,154,3,61,
  227,96,193,188,34,3,141,189,76,206,145,61,
  16,25,35,189,241,199,135,188,210,155,145,189,
  141,206,128,189,46,183,30,60,240,72,205,188,
  132,188,172,61,248,53,44,61,75,252,140,61,
  217,215,23,61,42,189,184,60,178,102,90,188,
  132,156,175,187,107,74,213,61,122,182,149,189,
  83,231,69,61,128,142,46,59,113,64,153,61,
  25,103,89,189,35,154,56,55,224,32,175,189,
  147,55,118,189,52,232,6,188,18,198,226,189,
  243,5,135,189,249,165,91,188,177,254,54,189,
  87,121,51,61,128,175,55,188,114,235,184,60,
  184,3,3,189,245,103,17,60,73,15,59,61,
  46,15,153,189,133,45,74,61,178,7,78,61,
  222,69,19,188,123,36,200,61,102,6,162,61,
  196,114,40,189,235,187,62,61,154,123,86,61,
  74,82,150,59,56,94,39,61,131,224,167,189,
  153,234,172,189,238,225,105,189,190,209,210,189,
  11,255,134,61,42,161,196,188,165,97,158,61,
  58,51,213,59,91,190,153,61,226,234,182,189,
  27,236,165,189,74,114,154,189,175,30,54,189,
  156,199,151,61,177,150,107,189,73,19,68,61,
  4,176,51,189,30,213,146,189,204,159,184,59,
  181,252,179,189,72,145,129,61,149,255,43,189,
  160,157,158,189,227,54,48,60,82,60,241,187,
  235,148,173,189,92,64,103,188,240,249,112,189,
  228,94,253,60,46,58,159,61,100,123,172,189,
  85,198,148,61,42,45,174,189,27,135,138,189,
  183,191,86,61,30,67,1,61,214,13,123,189,
  157,28,193,60,1,231,251,188,80,149,33,189,
  108,236,139,187,152,213,173,58,137,47,127,189,
  1,93,89,189,43,93,151,188,48,200,194,187,
  50,40,240,188,87,19,137,61,102,120,155,61,
  150,191,106,189,41,72,40,61,221,53,173,61,
  34,184,121,61,199,234,143,61,180,106,126,189,
  201,183,64,61,55,197,148,61,111,24,136,189,
  237,13,195,187,130,160,110,60,103,10,151,189,
  133,71,136,61,52,208,3,61,19,173,173,188,
  247,252,111,189,43,90,141,189,7,60,221,188,
  190,106,52,188,37,105,10,61,59,53,32,61,
  192,196,168,189,225,138,127,188,27,10,142,61,
  221,150,86,189,233,21,148,188,11,78,184,61,
  117,9,253,60,138,250,134,61,75,193,151,189,
  249,118,53,189,114,243,25,189,101,236,44,188,
  82,100,215,189,107,56,19,61,13,131,85,189,
  243,56,194,61,14,53,148,59,99,42,202,60,
  56,126,4,61,131,146,9,61,209,58,142,189,
  210,245,62,189,67,60,149,188,185,151,114,61,
  228,65,85,189,169,105,166,189,185,34,232,61,
  234,118,93,61,113,82,201,188,199,69,51,61,
  166,163,213,189,152,89,19,189,101,6,68,60,
  69,201,7,188,95,255,45,60,87,244,86,189,
  56,215,219,189,172,152,135,61,24,110,134,59,
  122,84,225,187,28,20,12,60,75,212,190,188,
  68,79,42,60,242,40,5,61,23,91,185,60,
  15,143,142,189,86,149,16,61,211,66,140,188,
  241,171,138,188,55,56,123,189,124,235,152,189,
  181,51,228,188,99,125,217,189,47,34,183,60,
  237,228,182,189,20,57,185,189,158,13,31,61,
  176,25,185,189,233,100,149,61,1,30,154,189,
  139,187,44,189,29,73,165,189,195,80,125,188,
  245,191,131,189,69,14,22,189,235,153,162,60,
  232,2,80,61,212,69,229,60,126,221,105,188,
  189,134,215,188,109,19,170,189,68,183,67,189,
  33,149,8,60,24,5,188,189,147,182,133,61,
  161,24,116,189,4,79,94,189,209,22,83,61,
  214,149,20,189,116,12,131,188,249,13,181,189,
  43,31,37,189,101,98,139,59,95,87,233,189,
  95,209,47,60,187,228,24,61,67,89,19,61,
  177,60,36,61,207,200,184,61,84,124,2,61,
  124,58,4,189,190,97,219,60,159,83,212,189,
  211,26,145,189,185,38,203,188,77,53,145,61,
  249,251,84,189,105,131,209,189,134,117,149,60,
  163,56,138,189,227,113,122,189,136,123,223,60,
  217,133,187,60,96,114,178,189,187,142,135,61,
  123,31,141,189,155,57,152,189,60,26,17,188,
  244,222,144,61,32,210,153,189,19,183,197,189,
  44,125,207,189,126,97,182,189,16,174,209,189,
  235,86,217,59,237,118,116,188,210,29,2,61,
  130,13,204,189,8,252,65,189,168,228,198,189,
  236,67,124,61,143,98,37,189,10,94,252,59,
  70,242,10,60,215,198,158,189,66,186,22,188,
  93,136,203,188,180,223,14,187,185,111,162,189,
  160,249,200,189,152,131,37,188,116,69,189,189,
  119,147,56,61,153,201,85,189,222,163,176,59,
  115,180,53,61,91,65,110,188,21,251,217,189,
  39,172,87,61,72,206,51,188,217,193,74,189,
  136,66,196,188,121,87,173,189,119,102,131,189,
  227,118,90,59,180,168,240,189,65,116,151,61,
  148,159,2,61,131,85,3,188,128,13,32,189,
  130,221,157,189,136,6,169,61,154,114,89,61,
  63,135,135,188,185,47,221,188,249,34,149,189,
  43,226,136,61,131,163,36,61,122,229,175,187,
  176,58,39,189,246,105,185,189,152,171,144,188,
  112,173,78,61,28,242,198,61,144,117,168,61,
  124,152,205,189,74,20,105,61,107,237,87,189,
  184,108,113,189,71,84,223,59,203,81,17,60,
  210,156,168,189,205,51,222,188,74,133,150,189,
  78,132,138,189,79,64,213,60,202,201,100,61,
  186,12,161,189,66,151,127,189,88,25,93,61,
  251,155,132,61,31,127,22,189,101,196,138,61,
  32,160,156,188,96,93,214,60,254,146,214,189,
  122,2,244,59,60,84,132,189,104,58,120,61,
  202,58,176,189,130,165,46,61,45,200,61,61,
  150,232,16,61,51,142,82,61,192,182,185,188,
  85,214,122,189,142,57,112,189,30,197,126,189,
  2,169,67,61,174,131,12,189,255,137,156,188,
  134,78,197,189,6,159,172,61,187,50,183,189,
  73,12,65,61,122,153,53,61,181,87,43,189,
  5,180,183,189,114,220,186,61,212,73,151,60,
  94,20,194,188,7,0,178,59,165,171,154,59,
  67,224,133,61,193,12,153,58,31,158,158,189,
  27,154,178,188,170,204,112,61,19,241,95,189,
  237,178,205,189,182,24,171,61,245,8,203,189,
  117,123,205,61,68,48,156,61,131,103,125,189,
  74,208,174,60,73,197,230,188,110,18,170,189,
  144,165,169,61,23,50,189,61,240,167,203,60,
  91,10,140,189,112,18,191,61,247,190,8,189,
  118,93,183,60,101,134,108,61,158,149,89,61,
  17,25,221,60,239,156,110,188,123,168,159,61,
  88,95,122,61,103,101,78,61,193,159,236,60,
  241,130,193,189,43,72,199,188,98,96,55,187,
  159,49,234,60,203,219,44,189,252,65,125,189,
  119,31,101,189,49,59,223,61,2,93,231,188,
  207,216,182,60,230,88,131,59,207,63,112,189,
  157,143,212,189,69,107,216,60,109,161,156,189,
  182,122,87,189,175,3,138,189,107,23,82,188,
  183,39,156,186,15,204,151,61,49,155,136,188,
  198,249,244,60,191,152,236,60,249,177,4,61,
  105,145,151,61,61,218,209,186,237,166,48,189,
  20,199,154,189,98,126,216,61,173,198,75,61,
  68,162,194,61,71,146,50,189,128,188,204,60,
  164,8,188,61,15,96,192,59,106,23,137,61,
  178,8,10,189,76,229,141,61,174,250,212,60,
  39,225,18,61,2,15,8,59,43,49,228,188,
  193,41,6,61,208,175,108,189,103,70,190,61,
  230,114,63,189,94,177,50,61,219,255,131,189,
  46,145,141,59,153,129,144,61,88,29,181,60,
  5,120,48,189,106,127,97,189,4,81,118,61,
  214,13,108,189,97,32,76,61,155,245,148,61,
  21,8,160,61,210,201,211,61,112,187,24,61,
  7,199,57,61,219,80,3,188,132,184,150,61,
  252,179,138,189,56,247,3,61,222,155,13,61,
  193,125,167,189,152,70,78,189,140,63,64,61,
  89,94,228,59,131,14,26,59,47,173,33,189,
  139,25,192,61,170,3,133,189,55,172,110,61,
  65,177,58,189,231,124,209,60,97,230,224,61,
  68,17,218,61,38,233,69,61,137,134,212,61,
  1,77,120,61,153,105,27,189,144,215,181,61,
  210,83,118,61,42,1,187,188,245,174,137,61,
  10,224,199,189,56,134,223,61,41,220,128,61,
  48,176,209,61,143,65,146,61,116,106,182,187,
  68,64,169,189,96,122,218,61,6,47,148,61,
  219,164,179,61,206,145,150,60,207,102,207,61,
  205,101,158,189,93,176,241,188,14,164,228,59,
  172,79,30,60,23,250,8,189,153,107,2,61,
  56,68,146,189,139,74,78,189,229,132,191,188,
  186,134,150,61,184,252,146,187,15,153,106,61,
  241,154,74,61,204,146,173,60,109,207,113,189,
  209,231,172,188,113,73,140,59,211,75,125,189,
  167,149,57,61,56,170,198,61,76,88,183,61,
  212,5,25,187,75,202,172,60,86,72,152,189,
  114,78,194,188,113,222,190,61,204,220,29,188,
  143,98,155,189,48,153,223,187,222,203,131,189,
  216,67,12,61,111,73,225,61,34,206,115,61,
  91,28,125,61,145,107,141,59,90,1,248,188,
  224,154,45,189,7,60,147,188,2,150,79,61,
  211,137,171,61,162,237,139,61,35,151,91,61,
  136,199,73,61,62,170,118,60,198,65,152,61,
  95,232,25,61,96,80,42,61,65,123,56,189,
  157,52,29,189,178,21,174,61,171,229,237,60,
  160,227,139,189,24,23,43,61,155,230,106,188,
  72,44,233,186,222,96,110,189,61,186,102,187,
  220,194,0,61,239,17,68,188,218,241,255,188,
  252,13,148,61,134,131,13,61,240,150,162,188,
  194,32,224,60,220,83,104,188,92,248,246,60,
  26,95,94,61,127,48,93,60,86,218,220,60,
  117,106,97,187,83,109,200,60,7,81,53,60,
  104,36,59,189,115,140,84,61,213,29,70,61,
  98,162,156,188,184,48,179,188,106,160,122,189,
  69,47,124,61,109,178,141,189,153,223,166,61,
  197,90,28,189,152,9,169,189,100,94,202,60,
  1,37,128,61,121,16,187,60,140,68,165,60,
  90,189,101,61,93,234,203,189,179,39,202,188,
  140,206,177,189,197,128,186,189,127,52,226,60,
  32,122,252,188,126,165,200,60,177,243,201,61,
  109,237,245,60,78,111,146,189,34,49,164,61,
  232,77,42,59,65,219,122,189,137,27,191,61,
  180,28,165,189,18,224,251,189,242,51,104,189,
  191,243,103,61,11,235,147,189,65,7,186,61,
  114,96,23,189,89,6,34,60,181,52,187,188,
  241,122,199,61,31,15,135,188,228,36,44,189,
  128,239,22,61,126,68,134,189,131,124,144,189,
  90,130,77,61,22,179,131,61,86,82,177,61,
  66,31,200,189,231,107,135,189,198,82,175,189,
  163,166,212,61,10,249,144,189,160,151,4,61,
  163,103,151,61,196,204,33,61,88,130,136,189,
  69,126,129,189,102,27,196,61,48,254,210,61,
  159,183,195,189,227,71,37,189,81,227,222,60,
  177,147,13,188,74,149,65,61,253,208,166,61,
  154,131,125,60,205,185,56,189,177,120,151,61,
  39,218,74,60,18,48,97,61,38,158,250,188,
  32,72,129,189,236,163,200,189,32,150,135,189,
  192,230,163,189,169,25,102,189,136,11,211,61,
  75,95,208,189,166,51,90,189,243,146,73,61,
  13,220,208,61,95,79,165,189,123,217,130,187,
  32,217,213,189,44,206,206,189,24,255,105,61,
  69,167,49,61,240,161,175,188,173,54,209,61,
  20,250,78,61,61,77,144,189,206,10,164,189,
  122,34,137,189,225,114,207,60,236,93,75,61,
  76,54,224,60,196,221,207,186,124,177,83,61,
  227,41,232,61,249,166,212,188,3,252,250,188,
  186,98,245,58,19,47,126,58,156,60,38,189,
  0,61,182,61,10,67,89,61,250,186,151,60,
  225,91,131,189,7,211,226,60,113,71,196,189,
  217,222,32,189,22,59,24,61,174,119,162,189,
  132,40,157,61,58,102,56,60,42,36,162,189,
  207,63,165,189,54,50,173,61,34,128,104,188,
  191,145,220,188,183,223,18,187,96,70,61,189,
  18,176,248,59,4,227,211,60,203,1,148,61,
  109,245,226,188,64,56,167,189,234,209,12,61,
  144,63,93,189,34,96,142,61,209,30,191,188,
  251,197,143,61,177,17,171,187,125,221,55,61,
  168,151,133,61,125,207,144,61,3,139,184,189,
  233,4,133,61,126,210,151,61,60,112,40,61,
  127,151,77,187,86,4,19,185,171,174,128,189,
  211,83,49,189,199,100,145,61,215,88,138,189,
  88,193,150,60,44,22,18,60,170,183,49,189,
  244,15,247,188,116,76,172,187,191,28,168,61,
  253,105,78,189,127,105,163,61,179,128,169,61,
  215,116,102,61,221,142,162,61,158,9,169,61,
  121,239,149,189,9,19,66,188,49,250,123,61,
  124,114,228,60,71,219,43,59,23,32,95,60,
  44,178,60,61,220,54,167,61,143,38,157,60,
  182,91,154,61,34,82,87,189,110,132,191,61,
  225,148,160,189,165,215,34,189,239,138,87,61,
  240,61,138,61,235,176,184,61,182,26,91,189,
  207,159,205,61,75,17,158,189,189,224,117,61,
  250,152,234,59,27,78,190,189,58,142,168,188,
  105,89,192,59,253,19,206,61,122,150,99,61,
  87,88,61,189,159,5,202,188,138,149,173,61,
  80,171,199,61,245,60,230,186,238,65,76,188,
  1,63,142,60,38,140,208,187,229,16,11,61,
  245,188,150,61,188,91,51,61,221,103,157,61,
  156,221,126,60,194,104,190,188,37,221,183,60,
  65,13,142,61,56,250,93,189,191,90,15,189,
  16,236,53,189,185,80,129,189,24,198,186,61,
  216,23,7,60,128,51,203,61,197,126,225,60,
  106,143,117,189,248,43,16,189,52,245,17,61,
  198,143,65,59,160,177,3,59,151,143,34,189,
  28,96,163,188,30,171,169,61,166,95,191,60,
  165,28,131,61,131,160,193,60,159,14,156,189,
  151,95,20,60,191,203,190,188,231,111,247,57,
  209,26,58,61,69,118,120,188,62,156,250,186,
  191,59,64,61,22,141,159,189,223,159,133,61,
  196,178,196,60,175,36,190,188,255,88,157,60,
  143,209,122,61,175,92,8,189,161,175,140,189,
  238,192,194,189,231,6,135,61,221,156,3,189,
  132,158,147,189,108,198,37,189,79,42,84,61,
  49,167,34,61,14,16,48,61,11,77,168,188,
  227,211,19,61,17,198,204,189,58,177,237,188,
  163,95,143,188,214,193,156,61,158,254,7,61,
  110,112,74,60,152,32,189,189,34,57,137,187,
  245,41,120,189,219,152,165,61,236,44,18,61,
  242,102,3,189,218,16,130,61,48,70,189,189,
  219,220,16,188,126,210,60,61,243,163,10,61,
  158,157,148,189,116,254,198,189,180,28,181,61,
  104,70,193,187,143,128,133,61,181,0,1,188,
  212,40,92,61,201,177,133,189,248,72,35,188,
  232,219,113,189,120,196,31,189,86,219,46,60,
  149,20,103,60,160,232,28,61,98,1,54,60,
  70,176,48,61,47,180,23,61,213,37,149,61,
  11,72,57,60,237,234,236,60,249,126,191,60,
  114,178,168,61,159,165,159,188,104,188,59,188,
  182,213,17,189,71,81,127,61,116,40,146,189,
  49,230,129,189,182,241,40,189,245,229,244,187,
  130,66,200,188,103,116,163,61,69,115,19,189,
  222,53,128,61,166,24,106,189,15,33,174,188,
  49,243,22,60,124,109,70,189,185,125,136,60,
  46,218,43,61,168,213,118,189,224,196,114,189,
  11,179,143,189,16,49,172,189,76,161,132,61,
  3,119,177,188,212,78,196,60,244,39,165,61,
  169,152,225,61,41,143,2,60,104,165,223,60,
  35,228,93,61,134,147,156,61,14,95,53,59,
  238,132,69,61,39,104,23,61,129,174,32,61,
  49,118,82,61,97,92,120,189,194,191,127,189,
  62,203,130,189,85,40,68,59,115,72,92,189,
  104,193,47,189,99,196,117,61,196,19,161,59,
  161,192,18,61,141,195,90,60,143,14,145,61,
  108,6,192,60,206,100,144,189,161,141,0,189,
  71,168,93,189,163,92,185,61,171,165,57,189,
  39,10,157,187,213,242,167,189,168,248,24,189,
  176,132,40,189,229,147,83,61,148,4,134,188,
  26,97,186,186,169,229,185,189,225,15,132,188,
  242,59,161,189,161,153,194,61,244,143,131,61,
  13,0,58,61,73,130,151,189,23,103,80,189,
  129,98,161,61,167,96,147,61,123,214,158,189,
  51,32,51,61,184,183,100,189,84,162,39,189,
  203,128,215,60,180,87,30,61,251,237,25,188,
  15,73,34,189,43,25,148,188,140,162,169,189,
  47,183,4,189,17,95,199,187,255,83,156,189,
  220,223,94,189,56,206,141,61,51,3,166,187,
  199,163,174,61,223,140,134,189,36,241,71,60,
  177,85,182,60,239,177,63,188,44,22,212,61,
  58,72,150,189,109,179,173,61,152,133,133,59,
  0,81,102,188,107,1,133,61,77,251,99,189,
  133,69,120,189,169,89,188,61,121,72,77,61,
  180,81,151,189,155,221,190,188,28,200,143,188,
  227,40,162,188,196,171,82,189,139,220,174,61,
  115,194,159,59,191,76,156,61,64,176,187,61,
  97,74,10,187,210,205,126,189,85,45,150,61,
  78,254,90,61,151,234,166,188,153,204,182,59,
  105,92,143,61,153,57,71,60,92,249,156,60,
  62,153,202,188,67,47,93,61,156,219,161,61,
  110,116,162,189,90,168,62,61,178,249,41,189,
  185,155,37,189,189,220,83,189,243,23,113,59,
  194,63,156,61,12,94,180,61,189,142,210,60,
  137,132,59,61,98,214,136,189,22,194,226,59,
  7,18,25,60,163,106,77,189,98,87,72,61,
  130,12,54,189,27,93,165,189,18,211,12,61,
  123,6,119,189,224,31,152,61,126,121,204,188,
  140,52,128,189,121,140,132,61,52,32,171,61,
  209,147,129,189,240,38,181,188,239,62,221,188,
  23,246,135,189,186,232,155,189,167,73,34,188,
  183,54,117,189,50,40,128,60,100,41,104,61,
  140,33,172,189,36,159,192,189,180,177,211,59,
  59,2,163,189,18,163,17,189,27,3,140,189,
  75,160,177,61,117,97,32,61,44,244,167,61,
  10,240,55,188,182,252,27,187,63,139,73,61,
  164,136,196,59,72,38,200,60,32,244,150,189,
  217,188,124,188,23,172,29,188,116,220,143,61,
  24,43,198,61,117,222,217,188,249,43,142,60,
  239,196,63,61,182,103,159,61,88,95,210,61,
  50,71,83,61,0,161,52,189,156,19,16,189,
  143,143,175,189,70,193,213,61,107,72,171,189,
  210,239,170,189,137,119,41,189,117,112,44,189,
  162,6,143,189,26,113,144,60,83,159,111,61,
  7,51,119,61,157,137,196,188,11,130,150,189,
  114,79,201,189,200,11,35,189,176,4,133,189,
  120,37,184,61,8,241,0,61,183,65,42,60,
  175,242,163,61,95,140,158,189,88,186,101,61,
  63,218,115,189,222,179,23,185,106,78,210,187,
  13,190,166,60,223,35,70,61,41,191,91,60,
  92,138,106,61,240,107,169,61,63,21,138,189,
  168,84,59,189,199,210,106,60,170,200,165,188,
  72,77,210,60,122,105,215,188,137,94,105,188,
  188,151,58,186,41,217,146,189,22,62,145,61,
  73,227,95,189,47,34,167,60,27,171,147,188,
  174,217,95,61,234,148,214,61,244,191,158,59,
  131,161,150,61,243,38,84,58,184,138,156,61,
  18,167,42,60,172,223,68,61,129,52,93,60,
  224,185,0,189,50,52,184,61,24,131,81,189,
  187,189,164,60,255,229,172,189,53,42,133,61,
  221,130,48,61,240,202,18,60,123,120,185,188,
  32,41,57,189,228,76,142,61,184,51,50,61,
  188,239,55,189,74,87,41,61,11,247,48,189,
  104,249,159,189,19,120,71,61,27,41,154,60,
  19,85,217,60,212,33,62,61,166,24,14,60,
  45,222,154,61,147,44,143,189,106,149,46,61,
  175,255,193,61,188,224,21,189,135,211,147,60,
  134,5,149,188,223,221,11,188,66,47,156,61,
  137,219,80,61,127,19,182,189,207,99,134,61,
  147,40,47,189,201,196,167,61,129,7,186,61,
  115,9,202,61,11,46,232,60,223,211,133,60,
  249,186,17,61,0,74,159,188,131,240,183,61,
  176,68,37,189,84,205,45,61,125,114,107,188,
  108,220,148,61,103,197,186,189,203,44,3,189,
  115,232,171,189,74,140,175,61,209,188,96,189,
  54,201,46,189,128,139,15,61,85,21,137,189,
  65,26,176,188,60,94,208,188,85,215,168,189,
  110,138,173,61,111,9,144,59,230,114,219,61,
  201,136,238,60,239,149,135,61,117,7,48,59,
  206,26,187,188,10,98,202,189,209,155,157,61,
  18,127,163,189,17,248,26,189,5,217,200,189,
  92,100,17,60,217,40,101,61,199,150,20,61,
  18,115,144,60,80,116,32,61,175,199,128,189,
  34,174,188,189,161,247,225,189,35,224,188,61,
  180,215,203,60,9,40,148,60,37,132,201,189,
  172,234,44,189,198,210,137,61,159,148,148,189,
  24,230,59,61,68,179,188,189,27,226,151,59,
  59,75,119,61,228,127,7,188,130,31,56,60,
  114,70,106,60,81,110,148,60,139,175,73,189,
  72,93,186,61,27,79,197,189,180,26,172,189,
  47,236,143,188,4,160,140,60,6,56,131,60,
  247,188,5,60,88,17,112,61,151,135,43,60,
  123,228,167,189,245,226,124,61,123,13,110,61,
  102,225,158,60,181,220,163,189,175,195,1,60,
  98,92,247,188,34,227,202,61,69,86,53,189,
  54,132,151,60,186,78,240,60,187,205,130,188,
  21,201,43,61,66,55,80,61,47,52,150,189,
  245,187,28,188,87,191,39,61,99,212,180,189,
  48,243,114,189,246,55,126,188,26,154,21,187,
  23,89,87,188,73,113,143,61,169,249,9,61,
  119,203,215,59,6,33,164,61,100,171,122,61,
  103,53,52,189,253,211,74,189,236,99,134,61,
  106,197,210,60,40,178,132,61,81,65,167,189,
  15,240,52,188,22,17,141,188,222,136,130,61,
  40,17,123,189,146,214,83,61,169,56,86,189,
  139,100,130,61,91,160,145,61,21,130,77,61,
  86,122,145,61,240,12,42,61,232,126,209,188,
  239,30,179,61,149,54,153,189,4,101,144,61,
  22,136,202,188,213,128,52,61,178,15,8,189,
  158,82,209,61,16,17,15,189,90,210,71,61,
  246,132,213,189,69,91,85,189,152,93,18,189,
  246,181,55,188,130,219,185,187,14,44,201,187,
  51,129,161,60,111,251,170,61,218,240,61,60,
  193,158,167,60,197,142,190,189,194,169,78,188,
  73,54,190,60,4,202,124,61,123,161,19,189,
  79,217,152,61,229,222,114,189,42,132,207,189,
  214,99,110,61,83,193,20,189,67,64,80,60,
  125,8,164,188,144,198,149,189,219,10,98,188,
  65,158,134,61,68,34,97,189,70,74,17,188,
  116,246,242,187,175,95,162,189,137,126,100,60,
  118,74,21,61,209,33,200,188,206,122,165,189,
  234,75,80,61,210,5,146,188,238,180,107,61,
  65,99,235,60,38,96,246,188,39,20,78,61,
  143,145,139,61,93,5,202,188,154,185,204,61,
  134,223,158,189,87,184,33,60,217,47,20,188,
  35,51,200,188,223,171,250,60,151,13,167,188,
  230,70,224,188,178,63,15,61,204,22,159,61,
  87,236,10,61,175,183,165,61,211,62,166,189,
  107,199,3,59,221,86,255,187,136,236,145,61,
  188,181,206,61,148,60,3,189,169,223,40,61,
  173,152,150,61,154,96,158,186,165,237,239,188,
  103,94,164,189,104,25,150,61,96,137,95,189,
  221,45,166,188,142,99,178,188,229,0,177,189,
  159,21,162,189,2,156,11,189,217,142,134,61,
  20,131,85,61,92,97,64,61,87,2,147,61,
  91,27,5,189,14,198,145,60,113,176,119,61,
  148,128,52,189,237,169,241,187,152,96,146,189,
  5,46,5,189,233,113,134,61,30,109,35,61,
  191,30,25,61,100,130,148,61,129,191,244,188,
  44,249,131,189,209,97,177,189,203,127,137,61,
  41,131,184,61,82,250,223,61,225,120,140,189,
  28,46,79,188,178,211,135,189,198,180,214,61,
  65,217,151,61,245,247,131,189,180,224,38,61,
  71,11,99,60,70,253,157,61,232,172,68,61,
  171,41,210,188,53,35,170,189,216,77,213,189,
  94,56,40,61,217,55,148,187,178,95,52,189,
  100,55,98,189,82,117,227,61,9,238,82,189,
  107,216,153,189,91,223,39,189,198,144,162,61,
  167,124,164,61,200,145,180,189,254,136,231,188,
  127,19,98,60,242,185,131,61,132,34,126,188,
  74,28,139,61,102,29,19,61,169,66,0,189,
  131,209,79,61,212,241,170,188,127,122,39,61,
  147,253,218,61,247,236,171,189,60,21,136,61,
  195,227,41,189,225,243,161,61,100,231,29,61,
  177,233,226,60,46,68,188,189,3,89,42,60,
  108,239,196,188,235,221,221,186,216,17,156,61,
  201,49,148,189,209,219,163,61,168,158,103,189,
  57,54,91,59,185,117,226,187,133,6,248,188,
  75,18,50,61,197,59,172,189,118,242,188,187,
  99,106,217,60,99,233,143,189,249,184,137,188,
  136,107,73,61,89,82,152,188,108,210,19,189,
  149,239,177,61,232,216,127,189,251,98,7,189,
  117,5,209,188,222,34,156,61,116,115,56,189,
  73,100,199,186,141,191,174,188,52,245,55,189,
  4,214,202,187,19,150,53,189,227,93,178,60,
  94,245,167,189,222,117,71,189,248,86,185,188,
  157,127,95,61,210,79,157,60,109,138,171,60,
  176,40,181,61,165,84,188,61,74,131,163,188,
  178,107,86,61,157,58,173,189,3,100,141,61,
  24,17,112,189,227,137,141,189,208,165,184,60,
  199,185,176,189,140,189,249,60,187,31,126,189,
  211,201,127,61,35,55,208,188,240,149,12,189,
  44,53,188,189,212,230,222,189,102,243,157,188,
  47,202,54,189,15,198,104,61,70,30,81,58,
  218,94,143,189,24,221,12,61,71,120,155,189,
  12,69,99,61,112,77,34,188,187,206,102,189,
  233,43,144,189,178,103,49,189,109,159,222,188,
  130,237,83,189,63,219,177,61,127,176,135,189,
  219,216,152,187,31,87,87,61,58,220,149,189,
  134,122,64,189,119,66,8,59,158,244,154,189,
  142,39,157,61,192,11,202,189,197,69,80,188,
  68,28,167,189,27,96,70,60,93,72,3,59,
  3,138,19,61,234,203,156,187,66,74,189,186,
  8,163,95,189,248,231,152,60,122,6,189,188,
  233,72,50,59,130,226,25,61,213,251,151,61,
  228,88,163,188,21,74,125,61,91,146,18,61,
  84,222,132,60,140,73,130,189,231,235,175,61,
  229,49,83,61,212,129,153,60,62,126,128,60,
  76,69,137,189,17,29,142,61,245,110,157,61,
  193,245,125,189,239,195,147,61,123,121,161,189,
  246,112,146,188,67,216,43,189,187,105,190,188,
  176,183,180,189,210,72,12,189,158,15,6,61,
  214,173,119,61,154,110,224,188,86,211,202,186,
  67,103,160,61,19,51,206,188,107,27,85,61,
  19,58,155,61,138,103,64,188,154,136,134,189,
  222,12,23,59,27,16,115,60,161,31,11,61,
  227,52,221,61,181,236,160,60,90,123,11,189,
  163,147,136,59,20,168,148,189,75,10,136,61,
  154,120,46,189,82,116,182,188,162,222,127,60,
  167,92,66,61,199,174,166,189,102,38,75,61,
  57,81,6,188,155,45,49,61,130,10,37,189,
  185,175,172,61,61,47,76,189,12,45,3,189,
  208,232,68,187,178,182,54,61,135,252,14,61,
  230,18,65,60,255,4,27,189,113,150,210,61,
  22,201,141,58,3,36,162,61,186,212,157,189,
  254,205,144,61,27,239,95,61,156,22,39,188,
  240,117,195,61,140,115,116,189,220,71,201,60,
  86,125,67,187,105,85,139,61,245,231,158,59,
  224,54,180,60,180,48,54,61,28,47,147,61,
  54,249,129,189,250,139,83,188,32,107,120,60,
  45,131,69,60,36,168,152,61,58,167,59,61,
  207,7,217,186,59,161,1,189,49,207,98,61,
  72,103,215,61,16,226,43,61,192,246,52,188,
  116,161,34,60,154,233,111,187,176,217,159,188,
  103,243,45,60,38,6,53,189,192,71,108,188,
  155,169,92,188,139,132,133,61,75,108,159,189,
  91,174,74,189,200,77,244,188,133,141,104,59,
  33,160,20,60,223,71,161,189,33,75,230,188,
  226,6,24,61,171,192,238,187,98,37,190,189,
  97,84,169,188,226,9,184,189,233,178,200,61,
  227,94,165,60,184,128,69,61,235,206,154,61,
  36,12,47,61,89,137,203,60,12,91,172,59,
  24,162,128,189,7,209,213,60,125,179,223,188,
  35,44,160,189,82,160,94,189,223,251,229,61,
  20,111,1,61,148,85,201,61,147,86,169,61,
  32,219,85,60,48,176,158,188,4,158,71,61,
  244,220,103,60,161,79,134,61,253,169,171,189,
  96,62,138,61,128,67,62,189,225,201,202,188,
  28,113,181,61,238,171,161,188,144,76,208,188,
  213,62,81,189,3,66,78,61,199,148,127,189,
  220,104,132,189,70,55,207,60,187,213,62,187,
  73,219,18,189,22,38,178,60,179,38,143,61,
  150,61,226,61,193,61,127,61,83,187,145,189,
  42,157,115,60,158,89,220,189,115,36,99,189,
  143,7,69,60,204,180,6,60,116,41,16,188,
  140,34,172,61,250,136,36,189,98,119,202,60,
  186,237,188,61,229,214,134,60,136,147,82,187,
  154,107,182,61,7,7,78,61,173,235,191,188,
  235,52,135,189,254,235,165,189,165,232,128,61,
  65,73,34,189,167,101,152,61,38,37,191,61,
  109,242,1,188,123,212,166,189,43,36,124,188,
  205,213,5,189,253,11,139,60,172,229,71,189,
  172,105,226,61,195,160,150,61,157,58,223,60,
  93,52,160,189,43,8,217,189,48,42,217,188,
  113,136,119,189,170,110,12,60,109,98,113,188,
  12,250,86,189,4,177,222,60,98,218,159,61,
  111,8,86,61,70,171,208,60,143,236,105,189,
  196,175,184,188,252,160,59,61,69,69,146,58,
  222,52,173,61,206,109,67,60,101,187,161,61,
  113,244,126,61,222,88,164,189,207,167,217,60,
  210,241,91,189,47,67,181,61,190,52,61,189,
  64,107,45,189,19,83,42,188,8,123,202,60,
  40,174,129,61,29,0,180,189,102,247,31,61,
  111,184,190,60,17,248,43,61,70,129,218,61,
  240,100,206,188,158,13,181,189,70,162,130,61,
  104,70,164,189,215,225,23,61,174,158,14,61,
  165,126,125,61,122,85,43,189,159,110,61,189,
  115,214,202,186,37,44,66,61,117,181,91,189,
  3,24,87,189,226,88,182,189,163,209,64,61,
  143,98,79,189,3,109,108,61,78,253,250,188,
  43,53,144,189,37,91,156,189,89,197,146,188,
  83,170,128,189,34,106,170,189,31,241,134,61,
  144,134,94,188,204,230,3,61,54,161,210,60,
  12,236,0,187,89,24,50,189,144,19,108,60,
  120,64,204,188,3,204,142,61,151,129,146,188,
  214,81,135,60,236,7,228,189,60,51,109,188,
  121,117,57,189,202,164,46,61,72,48,192,189,
  76,40,232,188,226,166,62,189,232,163,185,61,
  114,26,181,188,210,21,252,188,17,154,120,189,
  165,179,175,189,242,215,14,59,138,67,155,61,
  39,220,221,60,54,162,55,189,176,40,193,61,
  3,226,89,61,82,133,102,61,1,135,244,60,
  74,154,218,188,3,150,48,189,169,40,84,189,
  183,51,141,61,54,133,132,59,77,194,170,189,
  39,37,212,60,168,97,130,189,210,226,27,189,
