// Automatically generated from model_quant.tflite
const unsigned char model[] = {
  28,0,0,0,84,70,76,51,20,0,32,0,
  28,0,24,0,20,0,16,0,12,0,0,0,
  8,0,4,0,20,0,0,0,28,0,0,0,
  152,0,0,0,24,1,0,0,96,154,0,0,
  112,154,0,0,208,166,0,0,3,0,0,0,
  1,0,0,0,16,0,0,0,0,0,10,0,
  16,0,12,0,8,0,4,0,10,0,0,0,
  12,0,0,0,28,0,0,0,60,0,0,0,
  15,0,0,0,115,101,114,118,105,110,103,95,
  100,101,102,97,117,108,116,0,1,0,0,0,
  4,0,0,0,104,255,255,255,9,0,0,0,
  4,0,0,0,8,0,0,0,111,117,116,112,
  117,116,95,48,0,0,0,0,1,0,0,0,
  4,0,0,0,150,101,255,255,4,0,0,0,
  12,0,0,0,107,101,114,97,115,95,116,101,
  110,115,111,114,0,0,0,0,3,0,0,0,
  92,0,0,0,44,0,0,0,4,0,0,0,
  184,255,255,255,13,0,0,0,4,0,0,0,
  19,0,0,0,67,79,78,86,69,82,83,73,
  79,78,95,77,69,84,65,68,65,84,65,0,
  220,255,255,255,12,0,0,0,4,0,0,0,
  19,0,0,0,109,105,110,95,114,117,110,116,
  105,109,101,95,118,101,114,115,105,111,110,0,
  8,0,12,0,8,0,4,0,8,0,0,0,
  11,0,0,0,4,0,0,0,19,0,0,0,
  109,105,110,95,114,117,110,116,105,109,101,95,
  118,101,114,115,105,111,110,0,14,0,0,0,
  68,153,0,0,60,153,0,0,36,153,0,0,
  4,153,0,0,244,151,0,0,228,150,0,0,
  212,0,0,0,204,0,0,0,196,0,0,0,
  188,0,0,0,180,0,0,0,148,0,0,0,
  116,0,0,0,4,0,0,0,114,102,255,255,
  4,0,0,0,96,0,0,0,12,0,0,0,
  8,0,14,0,8,0,4,0,8,0,0,0,
  16,0,0,0,40,0,0,0,0,0,6,0,
  8,0,4,0,6,0,0,0,4,0,0,0,
  1,0,0,0,235,3,0,0,12,0,24,0,
  20,0,16,0,12,0,4,0,12,0,0,0,
  221,247,181,209,102,39,128,70,2,0,0,0,
  2,0,0,0,4,0,0,0,6,0,0,0,
  50,46,49,57,46,48,0,0,222,102,255,255,
  4,0,0,0,16,0,0,0,0,0,0,0,
  0,0,0,0,0,0,0,0,0,0,0,0,
  250,102,255,255,4,0,0,0,16,0,0,0,
  49,46,49,52,46,48,0,0,0,0,0,0,
  0,0,0,0,232,91,255,255,236,91,255,255,
  240,91,255,255,244,91,255,255,38,103,255,255,
  4,0,0,0,0,150,0,0,147,201,61,205,
  44,208,240,56,255,175,216,100,208,221,28,55,
  17,180,15,115,225,91,206,8,229,251,41,91,
  248,250,183,179,62,59,138,10,66,129,123,239,
  61,50,224,74,11,230,29,6,122,214,67,252,
  231,220,16,132,7,243,32,221,60,14,206,218,
  68,52,114,187,247,93,194,51,76,242,104,248,
  252,119,209,22,74,95,47,112,237,250,54,211,
  103,219,227,30,1,23,199,221,223,46,15,177,
  31,211,32,154,42,184,64,97,3,63,64,8,
  38,193,38,155,234,241,164,190,221,63,52,204,
  40,3,72,154,253,252,64,31,64,156,69,176,
  189,222,226,168,41,216,231,168,200,248,189,31,
  211,183,196,187,77,87,54,46,94,241,223,198,
  252,166,9,250,61,58,56,15,186,10,225,9,
  29,90,62,244,246,179,18,32,190,93,53,156,
  238,181,227,242,12,229,50,168,249,239,48,225,
  195,175,185,228,230,175,244,205,73,208,176,150,
  160,187,68,39,8,46,204,22,25,20,238,208,
  43,203,201,184,254,32,11,35,11,39,17,17,
  62,192,253,77,147,7,114,70,10,21,241,236,
  65,171,169,10,17,2,99,251,34,177,49,0,
  101,185,237,187,194,224,212,214,24,218,210,39,
  84,63,150,209,39,140,168,156,63,244,224,13,
  38,28,186,49,202,205,203,183,172,66,167,18,
  47,55,37,253,168,149,12,47,15,226,198,211,
  200,173,221,204,48,244,202,150,44,78,5,70,
  181,211,178,242,79,251,188,25,184,19,52,23,
  53,73,88,8,42,25,228,241,155,14,178,3,
  63,197,174,56,90,244,94,41,8,190,196,90,
  183,87,39,223,64,66,242,90,49,193,157,231,
  14,3,35,246,7,246,222,178,193,170,29,228,
  192,28,229,15,238,69,186,34,255,226,250,224,
  191,38,4,15,85,252,82,249,215,87,234,55,
  90,231,230,8,250,239,16,255,180,178,71,247,
  95,82,234,49,28,62,82,27,44,93,29,221,
  34,12,166,185,56,54,84,12,58,175,247,9,
  47,59,48,109,148,172,90,208,192,74,51,181,
  71,34,227,106,79,79,59,50,75,227,70,198,
  212,34,217,53,21,151,2,239,30,65,48,163,
  185,189,12,184,58,225,28,200,22,110,254,234,
  172,199,251,197,56,255,169,61,185,51,152,4,
  225,164,163,108,200,20,17,16,61,244,190,24,
  39,16,216,178,169,85,86,245,23,240,71,204,
  227,255,182,48,195,156,56,81,179,60,218,179,
  197,44,195,63,224,196,254,53,0,85,57,94,
  206,192,235,113,69,192,3,225,2,44,168,192,
  173,217,240,1,65,211,82,245,95,221,203,213,
  185,214,231,203,31,91,64,231,229,242,66,33,
  195,214,41,182,39,80,91,58,254,36,175,234,
  104,12,83,213,43,9,72,155,217,3,59,230,
  244,86,187,30,211,144,196,114,21,211,189,4,
  78,173,207,181,181,198,183,5,11,14,18,4,
  2,182,72,47,225,212,27,62,85,56,110,205,
  222,47,69,11,252,12,56,236,243,20,183,233,
  208,216,57,215,244,69,41,181,11,71,23,213,
  58,26,100,7,24,127,247,50,37,231,237,222,
  166,69,31,245,12,233,207,25,165,70,246,224,
  183,218,87,54,94,169,78,70,193,38,233,45,
  211,203,23,24,15,211,71,29,5,81,230,247,
  202,84,5,203,65,43,46,196,222,250,65,86,
  33,185,233,82,214,47,178,208,47,71,100,201,
  99,69,208,246,203,93,97,83,172,181,246,40,
  253,198,57,22,225,83,190,95,201,238,191,66,
  222,255,76,215,7,215,20,189,28,7,97,180,
  48,241,242,226,1,0,204,216,216,39,197,47,
  110,240,48,88,66,17,193,202,214,18,246,178,
  205,12,254,4,223,192,75,207,17,237,99,45,
  235,88,141,15,91,18,169,237,184,2,101,16,
  40,48,66,4,14,241,189,210,187,224,183,255,
  49,93,205,252,63,27,254,162,168,176,174,206,
  11,27,180,238,225,168,245,221,194,27,41,77,
  72,88,249,179,231,251,21,164,14,211,24,205,
  66,5,231,167,63,192,48,24,225,160,89,7,
  70,37,146,244,254,55,165,21,255,247,84,56,
  13,50,0,86,234,227,18,62,62,23,190,244,
  201,245,178,161,242,61,90,248,25,156,5,38,
  184,67,219,17,68,174,175,67,248,31,166,56,
  214,240,242,173,86,179,28,41,39,84,217,155,
  192,25,201,68,243,32,44,168,82,217,7,196,
  185,59,197,218,161,59,73,1,181,234,187,151,
  244,216,191,9,200,58,155,55,6,226,226,164,
  4,78,185,57,68,239,246,52,22,162,235,172,
  41,222,187,50,226,171,155,8,212,44,78,48,
  251,175,16,62,154,196,243,36,55,74,249,183,
  53,6,235,209,211,22,34,45,8,33,239,85,
  67,252,236,194,60,212,255,198,70,21,34,49,
  192,15,164,75,62,80,155,23,194,7,228,65,
  26,157,247,51,182,15,59,78,192,155,30,150,
  162,230,213,75,51,195,244,190,154,194,36,41,
  37,38,34,224,214,188,87,50,248,208,52,22,
  244,217,43,41,170,54,164,36,85,51,163,88,
  188,33,153,17,28,183,2,2,2,157,52,3,
  195,6,175,209,206,175,80,164,242,87,68,243,
  37,236,77,202,165,227,199,56,159,59,241,224,
  230,245,39,58,86,9,12,228,219,47,8,233,
  162,200,28,195,185,185,84,87,245,198,205,221,
  56,158,18,236,253,79,175,81,253,30,227,187,
  218,32,172,180,249,160,56,164,250,190,180,32,
  235,254,153,74,83,11,22,164,36,85,208,87,
  235,210,208,249,68,203,231,207,43,55,251,252,
  79,53,61,12,8,18,212,97,226,179,243,178,
  48,218,50,228,49,161,71,191,64,224,103,27,
  133,93,203,255,71,211,42,232,4,129,69,241,
  209,197,174,215,35,29,84,55,175,13,97,232,
  85,215,166,205,164,250,46,164,86,188,181,107,
  64,11,195,91,210,45,5,195,208,190,224,210,
  62,212,182,166,182,85,26,89,242,243,10,72,
  155,80,85,89,225,73,84,24,59,210,251,8,
  155,234,79,182,254,12,34,34,74,72,234,165,
  157,89,207,43,6,67,17,3,230,11,209,58,
  199,201,112,100,232,187,255,16,86,207,110,61,
  240,32,72,174,216,14,255,230,13,167,211,190,
  210,205,92,28,229,87,13,254,105,181,218,8,
  24,6,226,202,77,87,50,225,77,41,225,192,
  223,201,223,81,66,216,205,221,51,41,236,12,
  57,49,243,97,32,51,184,43,26,37,1,97,
  51,176,157,153,214,50,19,171,246,92,237,24,
  189,231,157,178,53,48,82,26,22,149,51,175,
  171,9,167,247,65,230,44,85,208,234,74,175,
  22,156,180,222,13,91,69,45,50,204,30,73,
  211,56,44,5,65,19,97,47,28,32,46,197,
  223,63,204,96,210,149,216,180,204,193,18,51,
  204,0,64,81,234,73,226,86,35,193,71,31,
  95,30,253,34,175,150,28,64,159,221,147,201,
  19,215,254,152,155,18,221,89,220,51,230,45,
  210,92,24,218,166,234,184,228,207,14,49,81,
  165,47,244,221,219,76,8,251,19,227,12,247,
  167,251,30,242,232,226,186,4,11,66,215,25,
  228,2,211,97,43,201,6,184,247,194,80,186,
  95,194,35,20,11,79,82,210,180,8,196,50,
  233,251,14,168,216,168,51,17,42,86,91,148,
  164,201,188,220,254,235,201,209,233,238,218,38,
  234,154,200,161,169,86,237,182,156,56,236,71,
  184,218,92,47,72,174,83,83,198,194,218,10,
  17,93,218,53,59,37,173,154,67,198,176,147,
  217,1,210,173,88,29,199,160,169,206,71,37,
  21,17,62,199,85,73,46,16,195,61,0,48,
  84,23,191,81,84,40,71,232,224,181,195,187,
  31,71,222,236,28,165,241,191,184,44,174,157,
  209,237,241,46,184,80,41,36,169,240,192,157,
  84,245,83,243,162,44,1,250,203,159,227,13,
  167,247,210,22,30,75,244,25,240,164,65,152,
  164,176,188,216,177,61,196,214,158,70,160,80,
  179,11,163,2,33,195,244,151,35,231,208,246,
  219,63,65,220,26,4,4,84,4,76,180,156,
  158,161,223,76,84,56,81,85,237,38,47,234,
  178,36,62,27,61,175,99,177,35,19,218,191,
  55,222,8,181,178,211,89,207,197,177,155,46,
  211,47,42,87,32,178,228,242,181,249,15,21,
  189,75,45,219,31,200,228,88,178,111,183,227,
  1,190,111,100,96,190,246,27,66,59,250,91,
  211,237,201,100,154,225,84,25,61,220,85,72,
  226,242,205,224,103,52,230,101,50,172,21,89,
  180,57,248,92,112,225,186,75,84,14,191,221,
  237,85,26,99,121,211,37,196,27,112,76,246,
  69,112,246,245,157,102,213,35,164,75,36,230,
  212,169,5,173,9,252,14,199,98,219,154,198,
  174,154,179,226,215,6,66,53,68,217,28,167,
  75,81,105,250,7,32,251,55,219,27,80,172,
  150,168,89,4,72,81,242,179,111,253,18,171,
  58,156,96,68,248,36,37,180,240,167,84,165,
  130,212,45,82,18,225,3,16,209,158,60,24,
  193,187,154,48,205,124,102,148,78,253,180,27,
  44,169,29,55,26,108,248,236,237,190,49,78,
  2,12,188,174,44,32,106,145,2,127,142,238,
  114,227,168,170,98,198,1,205,230,93,234,6,
  107,33,3,187,141,66,164,225,168,152,65,245,
  182,170,253,70,16,90,198,189,82,229,215,212,
  101,215,70,88,80,214,14,80,70,14,108,43,
  251,225,248,74,165,77,46,132,242,187,174,79,
  98,88,83,65,228,71,92,151,203,165,10,218,
  188,68,169,85,143,30,67,164,191,89,118,231,
  84,240,58,17,253,217,90,25,155,163,104,48,
  238,87,88,212,250,23,205,73,185,12,190,247,
  8,112,234,16,211,206,22,90,107,108,86,11,
  219,123,80,37,224,57,96,170,39,182,50,64,
  39,120,215,25,219,48,93,58,240,172,105,48,
  82,159,52,238,111,103,123,19,201,240,50,219,
  227,47,242,44,78,245,173,120,197,216,67,87,
  200,76,240,188,159,105,166,94,59,118,169,230,
  212,236,233,243,61,78,159,192,202,178,201,65,
  127,62,149,56,219,51,26,112,204,14,31,240,
  239,119,66,39,17,221,217,29,81,190,181,84,
  243,114,4,91,120,144,77,45,245,122,196,166,
  206,159,36,98,115,70,112,6,19,202,22,98,
  60,56,61,75,219,0,118,244,19,80,223,236,
  33,252,246,186,250,50,105,110,211,185,204,137,
  97,218,214,113,96,200,242,7,4,23,246,22,
  23,193,214,207,160,55,210,198,87,248,92,204,
  175,90,241,74,40,15,165,209,46,204,201,80,
  244,217,170,189,249,82,68,13,90,53,200,27,
  92,27,218,254,210,15,80,88,61,209,188,183,
  95,163,65,126,32,106,204,159,96,177,52,248,
  117,219,59,254,29,211,41,161,94,252,20,166,
  116,237,178,163,221,206,32,115,166,229,158,7,
  68,158,134,175,153,156,195,85,206,37,13,56,
  91,81,155,252,197,132,173,230,145,185,58,12,
  92,98,66,4,99,78,30,153,21,18,156,80,
  5,7,14,75,2,232,37,80,32,76,8,221,
  108,179,131,121,9,195,176,196,80,236,27,84,
  242,43,54,63,168,195,252,235,92,203,200,251,
  204,9,37,30,84,153,247,38,200,85,247,101,
  38,191,73,187,85,199,8,69,211,40,204,127,
  242,29,104,195,38,217,190,32,217,174,13,62,
  62,78,116,201,86,83,235,97,201,15,1,19,
  174,101,61,179,247,105,171,178,224,37,49,60,
  234,202,203,183,238,182,180,230,82,170,191,185,
  165,6,223,163,243,168,36,30,65,237,203,204,
  100,229,147,86,42,149,39,197,148,191,35,25,
  32,206,25,252,15,215,9,219,14,51,65,186,
  173,90,162,183,29,14,213,87,234,57,104,77,
  22,26,69,108,215,214,68,157,233,78,94,165,
  165,78,19,26,161,22,219,232,102,14,90,68,
  8,58,75,99,95,100,13,220,71,123,213,82,
  38,225,36,46,193,191,12,73,226,247,234,182,
  94,223,229,194,213,170,221,55,4,91,52,75,
  6,199,56,81,78,90,40,84,23,213,67,176,
  157,77,91,42,199,58,96,232,241,100,84,56,
  57,4,66,19,210,193,179,168,173,231,189,97,
  204,197,48,199,191,174,89,237,202,3,184,16,
  97,4,30,211,216,182,3,50,40,19,179,147,
  168,180,42,80,156,221,77,12,207,192,207,71,
  227,20,87,72,163,181,201,9,72,21,80,29,
  7,36,21,46,194,73,192,228,244,197,224,70,
  93,52,219,232,108,172,30,37,104,152,176,37,
  230,31,85,38,77,1,42,5,199,150,167,193,
  204,107,2,173,186,82,170,6,100,73,160,27,
  59,244,197,196,170,30,80,52,242,171,100,35,
  168,163,112,16,39,217,215,30,95,35,173,181,
  74,176,59,50,30,253,61,204,209,205,49,80,
  34,203,68,194,2,65,255,97,221,183,40,221,
  44,236,110,229,160,180,30,67,214,197,71,223,
  31,6,68,219,16,108,28,27,98,4,105,210,
  56,207,20,244,185,232,199,193,101,103,56,245,
  69,234,35,93,155,106,89,95,42,225,24,35,
  192,182,107,74,181,112,147,84,116,64,252,218,
  235,79,61,59,107,230,216,82,222,9,101,111,
  39,58,18,166,177,11,77,228,90,17,213,185,
  196,62,19,50,215,238,19,199,188,187,160,95,
  155,35,95,162,219,104,245,188,168,201,19,177,
  165,110,81,163,191,218,208,171,114,13,42,16,
  178,226,104,208,28,113,222,241,238,58,253,224,
  228,2,9,36,202,175,226,89,28,91,90,16,
  155,70,49,153,105,217,40,242,221,233,8,47,
  31,245,192,161,76,7,50,242,36,192,75,206,
  200,215,84,247,157,22,57,163,41,30,216,234,
  31,255,80,173,233,34,48,55,254,80,186,82,
  209,48,240,237,47,74,189,45,182,224,221,176,
  232,2,225,224,159,87,246,59,249,208,199,71,
  26,84,96,98,155,68,102,34,166,170,75,29,
  191,12,252,44,231,56,146,46,213,197,6,10,
  149,163,250,244,85,90,83,219,151,244,159,237,
  26,216,170,183,193,20,170,135,230,36,199,251,
  234,237,219,158,228,179,42,156,22,99,248,62,
  26,208,243,118,45,247,44,194,85,10,68,155,
  35,150,215,88,55,58,34,218,73,14,58,255,
  83,181,84,14,45,3,220,93,159,46,252,45,
  192,253,46,224,74,246,167,42,216,35,105,158,
  37,37,76,1,223,224,153,87,8,14,91,99,
  11,19,218,153,101,230,178,60,56,40,38,54,
  35,68,82,246,229,36,157,10,41,159,58,181,
  14,98,214,202,26,175,76,79,209,55,183,80,
  203,253,81,43,60,72,34,228,3,19,196,79,
  84,116,30,249,225,247,17,233,151,45,47,162,
  149,167,27,182,196,208,201,202,20,60,35,225,
  26,238,146,190,246,185,213,251,212,8,127,14,
  242,196,70,192,187,168,104,225,44,47,202,21,
  253,209,2,55,40,2,6,253,87,68,173,69,
  77,244,61,102,49,29,78,234,233,231,212,99,
  236,221,91,167,239,247,9,52,51,180,1,104,
  162,90,119,84,200,202,181,42,216,169,236,255,
  206,159,24,185,144,232,173,183,239,71,189,15,
  79,206,15,225,71,247,22,80,209,179,182,247,
  165,143,10,165,215,75,195,53,26,103,186,213,
  83,194,4,30,190,176,96,75,102,214,4,202,
  17,198,206,36,11,197,54,144,214,219,172,110,
  180,18,28,177,162,23,216,199,196,185,207,182,
  50,212,216,248,76,245,66,13,184,18,64,71,
  159,148,109,84,158,43,239,219,209,63,90,51,
  181,217,198,68,174,246,240,241,34,195,53,91,
  93,168,254,224,176,216,221,39,206,196,31,175,
  34,19,24,60,154,66,187,170,179,190,227,185,
  102,52,208,33,204,73,57,177,196,189,184,73,
  40,5,44,241,163,227,183,2,10,71,205,24,
  24,47,45,58,164,30,65,8,98,219,2,198,
  47,226,245,63,61,47,165,24,171,49,165,217,
  77,252,248,220,170,101,213,204,230,31,206,255,
  205,59,252,175,237,172,244,37,198,234,81,41,
  211,221,21,250,64,178,238,197,235,32,222,27,
  243,225,232,200,213,186,225,4,251,54,23,21,
  249,28,59,167,57,60,101,239,234,30,70,234,
  55,6,30,19,170,80,162,234,110,238,46,242,
  69,148,238,20,213,174,189,225,238,217,14,180,
  229,230,179,185,152,215,162,70,212,254,217,224,
  66,36,15,73,254,101,84,23,193,88,5,239,
  70,227,54,99,153,223,88,182,27,89,185,35,
  75,9,69,65,63,108,205,210,66,191,212,204,
  171,85,50,33,45,250,81,79,199,227,74,66,
  192,2,28,193,11,80,31,78,62,49,154,40,
  82,82,92,9,227,56,238,243,234,191,118,70,
  82,197,173,244,235,13,34,42,46,17,203,157,
  139,230,224,82,51,43,250,226,156,171,66,73,
  50,222,201,53,207,175,215,102,195,132,56,78,
  62,180,71,139,71,105,19,51,68,154,90,161,
  59,210,220,176,235,34,179,206,156,0,190,166,
  228,21,175,163,145,5,9,62,184,113,68,135,
  98,145,131,252,176,150,31,89,176,118,163,191,
  188,20,145,199,78,133,24,178,14,173,176,189,
  84,152,229,99,54,142,88,153,4,213,137,218,
  109,16,48,24,15,144,41,27,219,253,209,221,
  166,66,9,200,195,197,109,5,19,91,224,241,
  54,42,230,250,96,244,88,8,150,158,169,171,
  95,199,186,89,223,26,176,175,15,180,218,34,
  113,195,229,184,165,57,50,28,254,27,82,90,
  248,41,29,224,138,237,51,173,162,20,176,195,
  2,59,186,22,88,25,49,29,173,208,139,177,
  129,29,96,132,223,12,6,251,233,166,191,248,
  191,4,40,95,76,167,247,50,218,55,190,234,
  92,171,98,88,195,218,194,226,13,72,78,184,
  190,106,74,77,106,189,12,199,45,229,57,98,
  71,11,74,253,93,59,221,33,51,156,40,118,
  166,166,32,100,229,177,4,204,173,53,20,254,
  12,249,99,248,72,204,79,160,83,76,204,222,
  144,7,125,51,217,249,165,109,218,74,44,0,
  136,46,242,242,227,242,30,6,235,6,55,246,
  245,179,111,246,196,58,186,2,75,80,157,38,
  193,252,235,200,52,255,134,64,250,21,28,87,
  94,101,167,44,94,120,40,163,60,184,1,42,
  135,67,169,16,63,187,174,73,14,38,158,225,
  195,160,255,30,45,10,180,198,232,92,81,88,
  199,218,172,56,241,106,86,51,51,47,172,215,
  215,216,84,38,189,79,54,52,210,24,214,255,
  211,36,89,149,109,160,209,106,246,219,253,76,
  5,157,117,221,71,219,26,26,188,140,67,221,
  4,181,76,185,15,182,243,223,120,225,245,156,
  91,212,194,193,160,89,93,223,84,239,231,184,
  23,5,12,198,190,83,18,243,96,61,63,165,
  87,198,89,205,98,198,187,120,24,175,4,82,
  19,114,199,167,39,107,149,196,97,178,247,54,
  136,19,221,73,6,102,58,168,58,178,168,219,
  50,241,99,36,197,22,171,159,169,48,218,168,
  84,217,93,144,37,5,66,1,63,83,120,218,
  141,246,157,237,187,101,28,187,240,246,84,108,
  65,196,104,62,79,119,96,201,121,155,16,181,
  144,45,238,38,247,26,167,232,165,52,229,44,
  190,162,244,49,113,170,250,61,14,33,8,236,
  233,105,194,225,28,17,242,196,84,242,32,107,
  24,70,80,76,195,32,140,217,99,171,235,120,
  154,39,239,135,33,198,173,176,99,58,61,157,
  245,175,102,195,186,94,17,54,106,4,79,63,
  249,178,14,94,49,65,49,78,161,6,226,186,
  224,207,156,207,45,192,231,252,178,239,156,255,
  17,214,66,6,15,1,27,210,185,21,11,140,
  13,211,168,31,205,203,208,225,192,13,216,90,
  158,65,45,12,16,226,66,210,154,178,67,165,
  187,129,37,29,183,182,3,162,186,82,88,73,
  167,14,23,10,227,200,240,87,69,156,117,189,
  3,83,153,84,45,217,95,174,46,52,9,138,
  11,57,179,90,168,7,141,95,209,94,70,222,
  68,19,182,205,210,39,186,114,186,211,102,25,
  18,105,81,21,90,204,52,193,202,211,253,186,
  29,115,29,52,29,154,177,245,66,108,2,59,
  118,113,167,48,106,38,109,245,13,235,168,175,
  198,84,246,72,90,34,32,234,239,32,182,90,
  84,95,22,75,94,202,151,83,109,243,180,93,
  171,184,246,191,215,58,156,221,212,98,213,179,
  202,95,51,218,254,201,178,4,70,145,194,89,
  184,218,12,184,204,47,68,52,242,10,188,17,
  28,10,170,175,195,218,233,193,224,183,28,183,
  200,245,52,14,196,194,16,180,74,77,159,56,
  165,183,235,103,165,7,62,42,66,148,157,113,
  223,182,205,150,164,3,76,195,209,101,36,28,
  228,7,36,170,4,16,92,81,206,6,48,211,
  218,148,231,237,154,72,228,153,175,233,36,210,
  81,55,81,58,62,66,27,50,79,161,185,83,
  44,181,232,43,163,26,194,209,118,181,19,212,
  187,61,166,230,12,96,83,93,19,35,59,205,
  160,222,99,246,183,193,144,227,18,94,250,171,
  58,238,229,53,200,228,62,242,214,255,169,248,
  228,36,66,26,3,67,210,191,122,191,160,79,
  183,85,50,174,215,33,241,15,110,230,75,225,
  231,218,219,223,58,177,238,175,204,56,200,113,
  174,18,0,78,18,205,155,60,51,226,173,195,
  172,182,0,190,237,231,213,159,0,31,173,46,
  19,43,194,54,178,114,10,236,69,171,75,224,
  28,191,244,2,3,82,35,183,210,252,71,75,
  68,228,166,186,160,194,5,13,7,175,187,202,
  150,55,242,89,99,62,101,226,12,5,95,23,
  234,96,198,196,221,91,76,104,116,240,151,224,
  213,42,93,157,50,193,7,89,214,93,99,54,
  242,198,201,242,158,255,28,48,221,142,59,190,
  226,90,223,223,231,230,102,175,34,224,65,248,
  4,35,23,229,163,13,215,209,174,232,200,32,
  34,240,186,50,152,82,248,19,178,21,204,0,
  242,177,249,52,64,168,249,102,33,254,192,32,
  187,58,86,95,230,90,235,162,25,100,213,243,
  201,95,87,151,23,214,70,219,49,8,54,28,
  212,45,225,237,193,242,20,193,222,201,206,32,
  20,76,109,45,240,212,93,21,109,23,82,199,
  79,58,118,25,234,161,211,240,7,223,68,12,
  178,141,41,114,252,174,171,226,58,84,134,97,
  106,96,19,69,31,94,45,203,13,10,243,91,
  4,41,255,20,39,206,7,191,239,221,233,13,
  177,42,98,178,16,97,106,199,110,180,2,205,
  111,194,234,155,38,98,11,61,9,184,68,15,
  15,14,46,8,80,54,45,58,206,8,149,1,
  133,96,73,170,214,229,148,7,22,21,19,43,
  46,83,26,200,12,29,227,9,181,108,246,198,
  47,232,67,30,159,201,238,93,153,108,96,45,
  46,236,29,68,56,1,206,178,254,159,5,65,
  101,39,148,206,214,167,155,86,174,98,27,215,
  34,153,168,22,87,60,199,167,250,237,222,238,
  209,220,115,72,239,43,45,232,38,94,199,85,
  166,166,5,83,191,13,53,66,172,49,202,185,
  174,211,50,54,203,64,57,218,104,51,39,205,
  168,50,106,2,104,68,254,221,2,176,205,68,
  214,191,244,208,189,232,221,179,226,246,240,195,
  85,109,59,221,168,108,197,92,65,146,233,224,
  146,229,101,219,44,47,185,229,35,43,217,96,
  199,19,221,214,109,187,212,71,65,100,234,245,
  21,177,202,231,235,160,34,9,157,231,178,76,
  237,160,164,27,226,145,82,175,140,57,4,196,
  250,184,37,251,83,180,89,229,8,54,158,143,
  54,193,176,60,47,8,100,26,245,191,55,237,
  175,62,175,178,64,5,80,23,42,61,69,149,
  219,231,131,199,64,57,189,93,143,177,252,243,
  212,235,169,224,1,83,85,81,148,46,195,176,
  92,239,233,45,101,66,73,181,168,92,160,181,
  245,17,152,189,89,216,33,243,190,186,217,241,
  154,227,208,72,212,55,216,60,28,192,207,161,
  70,37,199,171,195,247,55,198,172,233,248,137,
  197,7,226,31,50,250,238,55,227,254,81,213,
  43,51,182,232,208,209,159,38,41,32,190,183,
  49,159,161,193,2,210,240,94,247,187,230,205,
  50,195,134,231,245,58,32,24,47,83,56,185,
  222,84,18,250,212,237,239,73,159,32,40,239,
  25,154,59,29,102,45,229,238,49,26,196,168,
  46,12,205,184,235,248,242,4,55,212,162,146,
  171,183,34,33,227,213,196,233,62,42,205,33,
  8,53,243,192,12,51,23,91,48,201,188,60,
  149,159,55,233,160,5,221,83,3,14,61,81,
  219,223,185,162,180,58,29,51,199,249,182,55,
  252,220,248,57,27,168,173,155,136,8,240,129,
  238,163,163,77,218,17,62,73,46,148,57,29,
  8,222,190,32,228,210,154,1,59,64,156,140,
  33,223,219,194,83,233,91,74,153,79,91,229,
  36,183,171,68,179,3,177,239,5,58,30,83,
  215,98,230,53,36,63,32,24,57,34,206,177,
  157,176,166,74,82,69,197,83,80,229,206,6,
  81,178,50,242,199,193,15,242,178,0,185,152,
  82,80,225,18,51,188,78,4,131,101,117,71,
  52,91,198,187,149,150,33,190,46,89,43,186,
  8,94,63,66,227,200,162,64,62,226,74,234,
  59,104,183,158,127,16,31,82,236,240,9,221,
  245,188,51,149,106,176,90,203,208,81,21,25,
  1,82,112,73,104,87,251,48,86,217,183,218,
  251,82,109,71,51,228,160,25,39,222,47,96,
  81,96,243,175,50,39,164,62,21,215,94,70,
  76,168,24,210,234,3,60,168,70,196,31,218,
  70,215,5,38,37,12,151,247,3,53,31,206,
  225,163,105,81,234,99,83,101,63,225,189,195,
  150,201,199,75,17,187,183,253,252,29,83,211,
  0,242,73,201,90,211,153,66,215,50,104,148,
  0,169,219,98,178,38,57,62,223,221,110,30,
  208,204,244,108,235,3,248,174,21,49,159,170,
  254,165,192,89,88,214,186,187,137,107,188,8,
  76,155,205,12,67,157,247,218,164,188,177,201,
  96,243,1,181,206,19,66,19,70,11,201,204,
  234,141,52,221,81,6,41,239,61,24,84,246,
  3,79,160,173,158,201,50,151,23,178,215,222,
  174,161,211,35,32,70,23,56,135,105,75,224,
  68,59,75,18,41,154,182,152,248,178,66,177,
  213,176,186,255,150,199,109,140,226,105,142,99,
  231,55,172,201,194,35,73,148,41,209,187,61,
  61,152,14,91,159,219,30,223,229,180,182,234,
  8,235,13,61,194,157,196,87,6,40,245,218,
  64,160,153,25,64,243,109,69,16,175,155,12,
  67,187,206,234,186,63,186,158,192,111,154,235,
  8,61,64,199,17,241,253,197,231,56,61,4,
  120,187,2,222,39,183,202,168,161,104,0,241,
  249,142,182,113,18,179,50,47,197,117,218,198,
  115,36,194,0,27,18,230,15,184,195,203,27,
  250,220,8,46,229,214,98,218,38,81,199,190,
  118,36,204,9,150,59,51,221,77,82,39,156,
  48,32,54,239,69,57,252,64,168,164,180,19,
  220,164,93,192,89,231,169,139,218,182,58,236,
  35,26,210,117,182,153,226,141,35,111,217,64,
  77,66,20,228,85,212,197,209,27,197,71,77,
  2,16,223,67,58,148,245,55,227,183,64,168,
  104,245,147,240,46,209,54,186,211,239,78,60,
  211,226,193,8,28,76,100,21,214,250,210,83,
  71,151,227,224,152,16,43,3,148,46,237,85,
  87,155,0,225,204,247,175,209,219,70,20,15,
  240,155,46,212,245,238,105,204,22,199,12,55,
  50,192,76,189,168,96,84,246,243,46,156,191,
  25,165,148,173,219,61,11,222,59,88,193,206,
  210,218,24,189,250,61,177,192,73,232,94,211,
  21,161,215,80,213,150,110,59,211,43,49,238,
  79,197,172,245,46,21,178,57,239,190,141,12,
  89,88,239,240,213,57,49,6,218,106,36,27,
  198,4,62,117,199,186,122,5,143,239,180,235,
  94,50,243,77,251,171,72,33,253,57,252,43,
  237,167,88,77,222,212,39,229,88,224,245,120,
  218,81,102,253,106,222,62,93,87,73,127,230,
  58,198,72,105,184,231,197,81,22,194,210,231,
  180,1,124,80,100,240,200,237,65,32,70,193,
  149,176,4,162,106,253,47,16,42,0,92,32,
  151,77,92,184,209,49,220,107,88,53,227,209,
  67,190,106,77,208,27,144,203,7,224,80,67,
  244,215,237,20,40,157,74,17,101,54,221,211,
  32,23,88,66,83,182,148,23,178,81,95,18,
  62,44,26,171,65,152,81,190,141,199,49,70,
  236,205,40,147,171,163,228,58,89,185,239,22,
  213,246,89,217,18,252,36,232,75,30,30,51,
  5,250,162,7,60,188,197,231,181,103,1,227,
  25,231,177,77,23,172,117,177,1,92,161,44,
  33,221,64,27,39,155,193,91,154,192,187,209,
  157,208,229,31,87,29,56,159,71,0,66,77,
  36,39,231,53,89,185,100,7,59,227,226,31,
  23,93,154,3,157,8,18,79,39,23,32,232,
  26,0,175,203,245,1,44,214,58,111,154,245,
  215,20,200,41,194,92,252,82,201,243,150,22,
  40,20,16,23,79,243,106,183,178,91,235,51,
  181,157,69,7,148,192,73,149,25,110,163,230,
  54,14,255,208,148,20,64,172,88,22,45,11,
  72,72,62,67,68,240,197,56,188,81,184,247,
  46,58,73,200,204,34,2,232,178,94,158,92,
  193,6,173,106,218,77,38,153,181,63,208,47,
  76,190,163,54,35,158,229,74,213,19,69,200,
  243,67,179,26,193,208,24,180,236,9,148,48,
  110,202,98,18,88,193,109,195,236,38,80,96,
  43,225,96,85,211,168,76,208,82,186,27,62,
  201,11,17,9,221,58,13,147,210,69,161,49,
  241,48,36,95,231,206,43,91,39,7,16,32,
  192,185,75,174,190,224,183,2,23,199,87,198,
  71,161,61,222,235,238,109,66,75,168,17,150,
  56,40,172,74,47,12,70,80,183,236,238,97,
  234,168,165,174,169,40,244,58,242,217,158,2,
  232,220,223,253,16,19,66,81,69,168,231,239,
  35,4,76,87,142,157,68,146,9,186,217,187,
  58,161,181,36,22,45,23,39,14,47,213,186,
  207,9,185,251,222,24,178,157,8,111,64,90,
  96,54,84,100,42,200,76,184,174,214,60,182,
  80,195,47,213,203,246,16,20,13,209,185,11,
  178,179,222,239,168,241,59,240,234,248,212,203,
  60,193,35,41,255,58,63,74,34,176,64,174,
  235,241,79,251,31,167,35,233,237,33,224,235,
  53,212,242,184,168,235,253,239,195,181,228,242,
  205,81,201,240,209,81,213,168,211,85,189,16,
  39,36,193,25,79,14,170,229,214,73,30,228,
  195,226,248,106,214,102,5,62,237,45,45,245,
  246,99,196,166,219,76,235,22,7,201,44,206,
  74,18,83,250,10,75,228,254,222,177,218,109,
  167,101,49,46,255,104,242,250,38,26,75,23,
  164,6,91,231,93,73,208,208,33,138,22,179,
  129,219,34,162,212,15,192,252,95,141,223,254,
  24,67,248,173,17,191,177,38,55,53,239,41,
  57,212,44,16,152,32,95,45,200,178,2,162,
  57,11,55,91,3,178,94,203,137,179,91,198,
  83,63,82,253,216,138,101,166,200,183,40,80,
  191,187,58,225,203,25,16,182,243,30,174,52,
  13,205,75,53,195,249,223,221,230,169,202,193,
  156,43,243,171,41,98,199,190,100,214,18,84,
  117,173,199,51,66,246,80,1,191,173,80,118,
  246,91,187,81,245,112,232,157,99,247,252,41,
  249,71,185,238,14,166,20,184,56,84,193,255,
  12,248,212,0,215,221,6,69,59,235,222,216,
  205,221,149,61,31,191,51,38,243,212,20,46,
  239,43,254,101,204,139,44,63,160,63,85,243,
  70,4,42,181,195,233,191,95,50,207,220,10,
  221,106,229,101,218,232,171,177,207,47,254,244,
  76,238,200,119,203,30,249,192,33,50,193,193,
  14,60,133,230,200,165,0,40,231,70,209,147,
  83,166,70,168,87,54,248,201,48,213,160,39,
  47,165,172,66,39,251,92,31,188,33,71,8,
  5,237,1,173,194,55,46,31,254,17,215,159,
  184,68,178,239,7,60,33,198,36,159,29,210,
  210,172,160,155,0,14,13,52,35,65,161,183,
  8,108,211,244,192,63,212,104,91,199,230,245,
  202,64,243,252,92,156,74,187,157,232,73,173,
  63,86,175,233,3,30,61,34,89,217,221,36,
  231,67,92,171,241,8,198,244,212,70,179,72,
  61,193,177,73,44,52,219,51,146,22,52,253,
  107,179,41,106,83,6,229,3,152,181,53,176,
  48,155,48,75,81,209,202,29,215,103,207,236,
  167,36,202,21,186,67,86,36,173,93,205,48,
  218,71,68,59,33,75,100,56,167,46,49,242,
  246,213,241,166,58,151,19,23,25,23,184,239,
  7,175,207,21,193,1,75,239,203,4,246,183,
  94,209,192,93,213,142,233,179,79,222,191,235,
  60,202,202,2,235,26,172,92,190,53,173,86,
  196,36,30,183,54,183,183,195,33,94,10,147,
  20,232,185,32,41,229,74,192,208,80,96,81,
  32,47,10,166,90,27,81,24,154,77,102,210,
  104,63,77,72,190,199,181,46,50,95,47,202,
  9,55,64,73,190,16,218,234,177,206,2,146,
  166,23,188,222,66,82,225,45,143,54,30,166,
  9,155,223,8,65,214,190,51,191,64,245,140,
  17,17,51,58,171,180,225,160,58,251,242,180,
  82,73,86,226,3,177,103,102,194,198,252,96,
  188,166,91,223,85,72,199,36,46,66,237,46,
  238,225,200,217,183,93,240,110,242,189,59,224,
  173,17,77,174,232,144,213,38,248,199,241,50,
  222,197,154,70,50,7,92,95,233,144,196,27,
  71,81,77,97,196,18,216,179,52,76,87,202,
  219,26,189,43,80,21,214,104,138,214,55,81,
  217,188,91,244,203,32,102,82,1,192,223,190,
  8,248,37,85,82,57,41,36,23,151,141,173,
  15,46,214,78,2,87,227,79,91,211,17,15,
  155,135,86,44,41,49,232,75,235,83,187,28,
  93,190,38,75,149,227,27,251,56,117,240,179,
  191,177,171,49,229,60,10,149,240,241,246,67,
  24,23,194,65,26,217,25,39,171,115,47,238,
  86,176,155,86,96,18,62,92,205,84,88,213,
  16,141,217,238,88,192,204,35,152,121,255,64,
  212,64,78,208,77,8,220,9,242,184,207,195,
  52,80,1,36,89,160,192,100,29,1,218,124,
  234,81,103,29,193,97,186,92,22,22,250,157,
  166,245,109,36,25,25,192,164,77,141,4,106,
  206,31,252,176,220,165,255,230,62,48,219,39,
  105,247,194,203,22,26,253,200,1,219,234,56,
  251,51,214,8,90,39,151,118,178,206,9,179,
  192,70,199,83,39,25,28,108,244,224,11,30,
  74,221,196,27,89,217,223,224,200,50,210,0,
  191,79,124,195,251,222,146,225,114,100,209,169,
  73,225,97,26,210,110,64,35,84,152,17,38,
  102,81,39,89,95,203,32,96,85,163,67,99,
  92,73,113,198,116,166,80,51,41,67,46,243,
  104,1,88,230,25,30,53,38,51,162,42,64,
  218,161,2,69,27,112,70,249,211,8,49,69,
  44,176,171,195,5,255,29,177,109,68,96,115,
  255,90,92,73,244,214,144,159,95,194,183,208,
  99,199,46,238,0,12,34,6,93,181,239,97,
  73,46,32,186,91,88,71,66,16,240,197,228,
  166,53,101,232,255,249,100,161,114,250,5,171,
  173,181,19,26,160,239,231,71,173,21,28,169,
  145,103,222,242,173,56,91,50,14,189,11,22,
  56,247,214,24,25,106,247,162,12,143,224,248,
  250,66,177,90,197,209,106,52,19,224,179,99,
  105,200,37,27,95,201,157,198,185,195,96,127,
  219,178,214,238,193,213,23,254,122,88,211,26,
  209,236,168,67,100,195,246,231,160,102,238,246,
  79,54,212,46,21,187,28,246,227,46,79,185,
  60,59,224,251,194,36,104,34,246,0,96,165,
  172,219,208,2,249,96,249,228,199,25,210,124,
  247,201,4,15,222,97,62,79,44,191,192,126,
  225,240,26,243,91,173,94,34,45,185,210,82,
  21,59,239,210,167,113,164,100,79,184,205,255,
  27,8,199,210,246,34,163,56,89,13,9,96,
  55,172,192,210,90,92,27,49,172,255,215,223,
  199,117,199,101,221,162,25,182,37,4,218,8,
  60,231,173,22,199,33,212,182,216,89,89,20,
  252,86,52,230,80,152,29,219,10,249,185,129,
  198,211,229,167,245,134,44,30,178,28,207,8,
  215,202,42,11,244,195,241,248,76,241,46,55,
  253,51,216,187,43,53,206,162,199,229,42,32,
  189,201,187,210,157,83,197,145,5,13,75,93,
  178,233,48,187,31,91,3,169,95,10,98,198,
  38,85,175,53,102,62,202,4,26,50,61,32,
  252,3,171,92,25,172,64,115,220,233,226,55,
  106,29,68,178,253,191,208,109,187,67,89,178,
  94,106,64,164,233,196,40,48,252,87,215,184,
  243,124,91,158,216,75,60,9,163,69,237,80,
  50,58,75,104,74,5,85,70,232,245,219,144,
  60,86,194,27,167,241,200,62,86,214,73,90,
  229,52,177,20,184,71,16,212,44,222,252,78,
  24,101,37,88,35,214,162,37,242,144,6,67,
  15,86,48,5,35,222,151,102,230,23,171,77,
  82,10,46,158,12,32,195,53,207,253,77,76,
  243,87,165,173,235,231,53,85,247,237,74,218,
  83,67,1,224,247,113,175,196,217,174,169,65,
  72,152,42,51,227,170,68,183,180,51,10,171,
  162,81,44,100,83,68,90,53,10,234,87,216,
  32,68,41,91,69,217,81,174,2,227,147,28,
  53,5,9,243,158,55,220,91,255,234,11,212,
  232,246,175,224,227,236,236,173,3,19,37,106,
  184,9,2,60,201,222,104,38,105,234,209,243,
  177,183,247,55,245,253,250,97,216,103,163,106,
  94,184,251,172,67,110,3,58,253,155,176,36,
  220,34,236,223,11,108,58,103,213,11,103,182,
  96,46,227,190,3,226,228,29,62,14,195,91,
  197,215,185,14,177,208,78,214,255,47,229,23,
  37,15,9,148,44,21,100,206,204,214,70,57,
  208,38,203,213,147,197,48,152,113,60,147,81,
  159,43,189,0,34,105,245,231,215,222,60,255,
  12,32,200,236,193,67,30,198,49,190,51,53,
  23,67,20,39,228,35,163,226,181,61,57,40,
  85,249,1,17,17,12,176,176,12,240,151,164,
  38,155,38,153,43,164,30,35,164,233,47,63,
  50,147,106,228,220,171,195,6,24,146,158,104,
  196,218,72,248,227,177,98,245,44,231,11,116,
  200,212,103,174,105,103,163,187,61,16,76,208,
  46,60,46,163,40,181,204,228,97,86,86,89,
  79,157,106,188,7,237,201,176,178,201,7,45,
  249,4,160,160,212,201,25,235,105,182,72,8,
  33,19,167,146,7,229,191,207,100,66,181,37,
  203,213,50,12,154,209,92,245,97,204,98,32,
  157,216,3,246,5,244,166,31,178,255,31,68,
  10,81,20,57,244,98,190,101,221,197,60,18,
  161,64,243,102,103,224,79,77,56,120,5,224,
  50,97,229,127,23,6,126,61,83,3,85,58,
  57,8,7,33,78,206,72,95,8,37,169,217,
  229,216,227,214,37,209,164,115,92,165,195,6,
  172,236,103,16,9,197,250,120,40,156,249,44,
  52,214,31,49,245,21,217,106,245,221,89,180,
  47,243,12,67,85,52,233,14,198,66,47,200,
  139,120,237,139,71,83,217,102,223,251,110,235,
  32,191,216,166,89,197,249,16,62,24,51,229,
  221,164,192,56,28,222,176,60,21,193,255,11,
  241,61,178,187,43,22,235,253,233,7,153,9,
  79,85,23,188,25,231,17,21,244,166,229,21,
  230,23,220,196,39,202,234,200,92,231,174,93,
  15,83,20,255,27,71,255,254,188,245,252,208,
  224,81,5,0,35,231,196,155,37,115,6,19,
  33,55,31,241,161,221,78,74,41,3,11,211,
  55,17,64,18,199,48,178,237,144,81,218,145,
  192,230,175,184,249,232,68,142,66,250,9,230,
  62,68,239,43,251,137,61,172,160,64,4,199,
  43,217,227,223,200,175,167,173,209,51,236,205,
  11,226,24,223,34,3,1,181,254,44,224,31,
  20,172,210,186,212,251,36,206,41,49,3,81,
  34,40,32,97,159,215,83,89,84,18,66,241,
  161,6,58,23,223,83,59,25,37,221,207,74,
  1,23,153,205,105,9,22,97,198,221,97,222,
  175,85,45,43,234,71,187,58,73,62,32,37,
  48,160,245,21,19,48,46,228,164,16,3,79,
  94,232,181,67,192,225,223,54,5,236,105,43,
  6,0,187,79,228,71,242,177,211,114,78,36,
  38,64,150,79,51,147,83,235,56,13,165,161,
  192,26,36,9,102,13,5,0,84,41,173,228,
  234,194,166,176,236,225,211,184,13,48,233,51,
  73,197,161,233,241,214,188,235,60,21,213,21,
  180,106,33,88,67,1,215,54,93,206,63,147,
  194,233,215,6,179,183,51,31,237,172,235,27,
  52,85,57,102,254,161,79,245,172,71,177,21,
  30,62,188,193,182,250,98,162,234,71,161,28,
  18,24,216,198,28,182,75,40,150,238,47,57,
  212,225,250,49,249,172,107,200,223,231,89,229,
  225,247,7,55,47,203,45,163,199,21,1,17,
  204,57,62,204,7,42,242,191,34,208,165,9,
  187,89,21,218,216,90,246,12,19,252,69,240,
  211,173,83,213,226,37,46,8,4,22,92,218,
  21,159,7,10,209,58,28,46,51,0,201,5,
  102,94,227,217,199,25,102,41,147,29,244,169,
  78,253,61,53,23,8,70,208,71,94,104,192,
  36,69,65,224,78,210,236,14,158,69,24,85,
  117,188,254,182,32,163,53,50,147,69,67,181,
  81,217,227,250,226,250,97,229,196,32,243,204,
  240,233,240,200,98,208,44,225,196,114,187,5,
  21,8,244,202,243,240,110,85,201,233,85,25,
  48,10,255,1,177,59,87,51,247,94,239,53,
  73,8,101,7,30,228,26,4,7,195,86,213,
  161,120,220,27,3,182,20,80,46,238,95,122,
  6,14,227,65,240,45,206,244,214,255,127,112,
  174,192,68,224,16,198,156,61,43,147,83,124,
  32,116,62,49,27,127,142,212,181,145,209,245,
  236,22,22,11,217,226,216,15,113,52,182,166,
  217,92,224,174,250,49,37,99,4,205,172,63,
  225,217,235,194,218,98,224,240,214,93,163,228,
  114,26,180,96,99,46,200,50,65,87,82,109,
  98,192,97,71,230,210,2,163,178,11,71,191,
  17,235,253,186,22,197,215,40,47,252,88,199,
  68,255,186,23,33,217,109,90,82,10,46,16,
  199,187,65,9,28,248,10,241,75,27,221,110,
  91,249,251,217,74,200,5,254,3,12,197,53,
  242,179,2,248,201,244,46,148,51,220,177,189,
  187,194,229,26,67,10,28,185,60,80,63,221,
  59,47,46,233,243,244,15,204,139,32,178,142,
  57,69,240,76,59,84,79,3,151,159,192,70,
  246,234,172,202,231,56,195,97,242,82,1,62,
  81,25,60,201,12,83,38,29,73,160,63,56,
  188,58,43,167,244,9,216,44,44,195,6,174,
  237,162,70,204,24,71,61,33,22,148,86,149,
  86,22,139,247,103,189,204,204,224,148,93,29,
  170,44,141,50,71,26,46,181,224,242,246,2,
  31,160,47,143,72,205,203,94,54,223,44,40,
  59,229,251,62,182,24,153,214,14,158,52,33,
  10,19,16,185,37,226,175,59,235,92,146,180,
  152,80,241,3,248,87,233,53,67,159,68,146,
  87,158,40,155,40,242,12,40,228,94,148,246,
  57,53,187,147,28,197,50,47,213,143,35,234,
  36,249,178,186,87,26,15,252,72,208,217,137,
  227,58,228,6,51,179,24,68,169,248,175,46,
  93,80,41,199,185,59,79,42,11,172,16,171,
  53,212,161,158,5,178,179,245,27,42,245,32,
  214,97,84,6,222,1,255,39,220,199,242,13,
  39,42,237,76,6,64,20,248,194,8,222,22,
  44,219,193,44,211,157,79,215,47,186,10,227,
  66,160,241,34,209,35,53,57,39,244,167,177,
  60,13,197,148,87,13,74,68,248,146,222,140,
  147,183,186,72,164,228,68,241,215,162,171,87,
  95,153,22,23,159,221,215,50,141,220,96,50,
  18,237,224,175,204,78,64,63,213,90,252,197,
  156,32,42,11,190,217,245,24,207,26,156,223,
  36,80,88,89,183,25,154,239,157,207,62,177,
  244,163,50,53,25,141,177,24,28,38,87,177,
  8,167,66,1,187,225,180,248,225,151,7,242,
  0,48,186,43,159,80,252,159,24,10,72,162,
  214,89,7,38,203,158,151,175,204,194,166,26,
  188,232,199,221,157,45,75,250,59,230,11,33,
  33,243,192,101,96,60,16,226,141,116,2,180,
  18,3,235,237,223,40,192,79,22,46,232,216,
  202,176,49,12,42,188,9,143,84,232,143,242,
  23,92,30,181,252,25,243,192,226,33,63,69,
  198,82,231,225,47,171,49,212,60,127,19,144,
  84,212,219,186,215,12,29,71,1,168,62,12,
  233,45,151,183,241,91,206,189,164,76,192,85,
  28,76,14,171,225,37,178,22,233,54,218,199,
  51,90,17,65,251,101,18,109,14,227,243,105,
  166,57,163,206,114,10,172,113,240,14,48,208,
  183,104,197,212,243,255,177,207,242,203,186,55,
  240,189,32,190,37,227,230,90,4,193,225,78,
  185,39,172,30,176,173,25,195,51,38,198,7,
  219,240,163,40,196,163,6,205,163,74,195,189,
  245,105,207,21,181,35,229,162,208,251,34,38,
  191,227,206,52,22,30,235,43,33,181,239,42,
  28,204,10,61,233,31,196,204,96,46,198,48,
  10,244,160,110,209,90,211,50,201,191,64,35,
  180,217,172,200,15,76,6,232,81,197,228,191,
  199,255,160,188,54,45,73,158,10,61,144,76,
  89,84,203,168,154,21,173,157,62,230,51,188,
  205,238,93,40,195,205,94,64,193,44,145,67,
  210,57,109,24,219,58,242,187,200,1,58,49,
  103,195,222,0,238,211,250,164,180,104,181,31,
  13,1,196,63,247,254,34,16,30,93,78,38,
  97,41,216,50,83,244,236,92,2,252,30,81,
  222,80,106,106,20,178,21,31,195,20,239,169,
  64,145,81,183,252,10,247,211,161,51,249,182,
  218,152,10,246,19,60,91,1,212,90,91,201,
  87,21,252,61,234,173,243,47,216,81,50,107,
  249,1,75,209,199,163,84,188,204,101,76,1,
  234,92,22,1,69,64,91,29,181,231,27,77,
  202,71,27,210,176,227,26,146,226,254,86,20,
  103,67,5,189,18,33,225,200,9,186,167,241,
  202,173,189,78,231,93,163,40,18,34,229,240,
  192,62,198,226,173,95,64,82,7,17,177,189,
  64,35,7,98,12,232,183,236,37,201,187,27,
  243,212,9,5,35,209,219,6,54,21,197,163,
  238,42,89,78,58,59,220,245,219,222,157,77,
  46,31,37,236,209,209,18,152,92,96,34,182,
  6,176,100,72,46,207,230,81,201,80,230,158,
  97,186,229,223,88,190,0,27,17,200,183,89,
  252,247,67,185,25,77,251,66,180,13,250,211,
  76,59,248,40,4,38,200,249,100,244,86,95,
  35,32,48,166,92,194,254,192,229,34,58,84,
  98,15,43,89,147,26,227,16,86,164,151,91,
  50,249,161,185,41,60,80,41,87,218,255,56,
  9,207,1,214,241,159,167,93,247,167,208,2,
  185,11,1,70,199,35,188,167,244,204,254,216,
  167,83,192,185,180,50,180,210,30,248,167,236,
  213,27,79,77,6,251,65,98,253,166,8,31,
  166,204,4,6,70,88,79,225,79,238,22,85,
  100,229,36,220,57,29,150,8,4,49,1,213,
  71,214,129,240,70,153,7,77,239,203,38,38,
  18,83,149,216,206,218,202,204,42,70,137,238,
  201,174,237,199,24,67,196,213,75,119,255,42,
  186,102,229,0,17,54,117,83,70,113,210,7,
  243,180,194,193,19,68,63,15,40,83,248,207,
  9,241,231,155,156,31,166,151,211,56,215,208,
  15,219,24,95,94,101,159,188,63,206,66,177,
  24,229,223,93,165,214,189,70,98,181,92,222,
  79,190,70,50,4,12,42,225,121,45,227,197,
  158,213,10,221,78,198,76,238,161,61,67,173,
  46,194,218,190,23,185,235,163,221,160,149,43,
  148,28,169,151,9,28,65,233,67,203,213,28,
  163,174,1,74,38,244,82,105,45,124,39,234,
  25,228,17,80,76,180,184,160,14,28,84,218,
  14,71,209,91,56,186,74,9,144,73,64,253,
  100,173,164,193,17,170,254,110,182,169,89,38,
  97,61,153,190,188,106,65,194,188,163,195,95,
  22,149,222,78,97,44,158,72,234,8,149,72,
  100,250,178,14,198,15,201,147,86,228,2,0,
  230,19,64,97,84,15,211,108,72,46,195,29,
  24,166,39,83,36,243,239,179,95,215,158,29,
  57,239,157,1,65,87,102,212,9,221,98,178,
  56,0,45,165,87,243,156,214,69,39,213,10,
  214,63,54,163,154,221,64,59,5,252,218,101,
  211,22,202,199,54,36,207,211,20,1,89,216,
  192,44,155,179,197,111,76,57,162,84,50,26,
  14,103,198,113,226,62,31,192,81,214,66,231,
  19,161,242,155,87,67,108,168,104,227,99,44,
  104,4,254,42,253,24,38,77,250,224,52,224,
  212,73,16,193,164,178,102,167,252,23,56,231,
  48,18,103,223,79,14,52,219,48,61,206,254,
  108,104,211,153,16,12,0,233,44,235,65,107,
  187,20,168,170,83,150,102,199,70,220,221,253,
  115,153,187,230,4,150,114,49,170,210,53,107,
  251,94,54,210,19,232,237,32,218,43,185,18,
  101,168,211,32,80,198,113,240,93,241,253,234,
  10,211,213,85,110,61,198,90,231,53,236,46,
  92,76,15,71,254,10,30,21,14,5,226,20,
  236,249,199,15,187,44,236,12,164,16,245,36,
  109,67,80,45,14,247,201,91,179,93,7,6,
  56,19,57,23,172,220,182,219,83,153,28,163,
  246,251,226,32,54,30,215,85,169,26,194,80,
  84,222,20,243,72,188,197,92,105,102,80,69,
  13,173,102,206,176,191,155,108,151,154,193,231,
  77,221,228,153,48,73,175,96,248,115,224,104,
  46,5,236,211,61,59,64,18,247,18,242,174,
  156,194,173,54,174,163,198,235,206,0,192,249,
  76,217,72,236,214,63,69,40,31,249,58,93,
  219,204,12,173,164,15,245,38,161,198,87,7,
  173,38,184,253,210,17,167,172,229,108,167,208,
  200,201,238,232,165,178,71,17,181,57,149,47,
  180,210,3,201,194,152,250,229,61,186,181,190,
  53,162,32,83,57,49,80,143,45,55,144,19,
  29,69,11,5,70,24,14,27,184,160,227,235,
  96,157,188,75,245,29,228,59,177,102,224,236,
  98,89,218,91,199,141,247,13,15,21,87,157,
  104,57,26,246,33,211,9,87,216,171,8,75,
  51,192,209,242,228,13,170,29,243,158,236,179,
  198,229,1,206,0,219,224,247,77,25,168,240,
  48,45,94,179,239,10,180,188,96,212,106,241,
  47,112,94,169,217,21,250,56,49,192,68,251,
  181,212,93,60,119,14,136,109,5,142,223,230,
  213,229,210,194,14,200,161,189,228,3,177,2,
  212,25,113,153,209,215,252,220,213,219,177,57,
  90,42,92,167,217,209,12,177,208,195,192,235,
  95,20,87,207,52,230,57,98,127,10,202,90,
  185,179,101,60,113,222,39,221,101,145,37,113,
  226,219,245,36,232,116,156,45,106,177,82,52,
  41,178,252,47,42,194,183,80,220,90,12,0,
  154,180,76,206,216,46,168,247,98,14,189,96,
  45,236,61,66,232,54,255,45,147,188,159,49,
  33,67,135,60,221,27,193,212,244,245,23,239,
  255,213,206,53,55,64,53,195,8,75,6,252,
  171,164,130,61,24,251,157,199,130,9,183,192,
  171,235,74,187,91,134,37,192,188,31,230,11,
  39,31,169,27,97,249,51,218,202,78,77,240,
  50,89,56,154,247,30,85,252,59,239,44,29,
  71,251,253,225,35,162,246,63,20,148,67,44,
  209,168,216,193,151,166,254,11,153,43,175,195,
  28,88,252,250,168,163,25,28,240,183,12,130,
  255,3,57,181,20,227,82,178,236,34,65,206,
  51,35,148,64,213,166,237,166,182,146,193,224,
  17,82,51,207,75,244,70,229,154,72,99,19,
  232,13,70,34,22,134,240,242,201,45,7,63,
  229,56,227,49,26,213,9,53,71,166,173,185,
  208,67,212,22,32,2,190,166,248,206,185,181,
  195,209,222,66,21,234,156,23,54,172,224,178,
  64,226,205,7,202,203,199,167,193,0,164,253,
  161,1,23,214,216,237,190,75,61,37,197,188,
  247,57,4,225,34,187,158,66,217,69,246,199,
  198,199,70,245,81,193,65,164,9,21,166,137,
  214,65,33,12,196,228,175,94,64,209,83,193,
  167,217,29,66,73,147,240,252,68,65,46,240,
  12,81,208,40,240,25,204,208,63,222,241,41,
  53,172,169,76,242,169,65,1,240,186,84,199,
  31,67,36,14,97,154,239,12,1,240,57,141,
  16,226,251,0,10,151,252,249,5,117,204,191,
  56,21,242,26,26,250,78,32,30,193,47,11,
  233,150,88,10,111,106,162,161,174,3,182,19,
  186,20,224,39,225,185,193,59,115,130,217,196,
  4,22,156,34,218,3,176,21,72,24,178,176,
  145,19,35,217,160,201,242,197,26,108,153,48,
  2,190,195,189,250,244,11,94,62,236,101,173,
  183,46,80,214,54,53,75,168,98,206,243,17,
  255,158,38,61,210,252,35,169,89,236,221,108,
  245,67,185,52,222,118,79,104,40,82,5,243,
  170,212,206,93,66,76,106,249,222,71,45,220,
  166,234,86,42,106,231,145,169,254,41,160,114,
  87,251,184,66,32,156,93,202,61,187,37,34,
  52,42,189,185,81,255,4,53,51,166,211,233,
  60,82,85,145,149,200,55,237,18,221,211,65,
  110,151,232,175,100,227,178,182,21,232,250,184,
  9,28,145,125,106,248,33,16,219,161,198,184,
  182,63,210,227,96,176,10,19,34,59,19,179,
  105,254,159,193,181,57,61,203,199,225,5,49,
  72,164,151,86,73,23,149,11,17,65,40,205,
  254,208,211,111,186,241,239,230,182,37,9,208,
  103,32,137,14,76,90,172,54,48,44,31,53,
  150,3,214,16,3,254,143,67,213,232,186,62,
  110,34,17,91,142,43,196,164,94,190,218,35,
  60,218,134,108,222,190,82,192,209,120,21,53,
  240,208,58,210,79,213,231,147,63,214,153,180,
  228,201,34,86,62,99,44,170,223,214,181,7,
  51,41,205,15,16,214,84,214,137,188,200,225,
  31,12,76,116,186,144,223,37,66,177,35,61,
  200,175,21,71,35,22,56,139,35,174,170,43,
  222,64,181,106,47,195,127,171,151,219,169,221,
  225,84,192,186,220,222,228,157,236,222,247,78,
  181,225,129,253,36,55,46,224,181,60,194,220,
  14,88,100,55,43,149,91,21,237,113,197,78,
  31,29,150,21,237,188,201,39,48,72,79,189,
  169,233,99,195,251,219,99,58,62,247,62,48,
  158,18,86,25,102,196,230,205,1,79,72,183,
  241,207,8,32,104,37,111,161,156,185,134,206,
  61,226,34,63,176,234,251,186,197,230,200,35,
  241,199,31,216,93,19,86,39,21,19,178,185,
  117,62,134,213,57,172,13,87,152,175,81,9,
  3,69,29,60,150,86,175,55,210,244,60,204,
  118,158,137,110,235,131,13,32,197,161,98,27,
  227,255,87,204,5,197,84,29,157,89,231,56,
  222,217,5,6,144,155,170,155,74,13,22,229,
  157,212,133,199,26,50,173,84,242,211,167,67,
  203,251,174,30,246,229,244,211,5,35,68,75,
  25,80,240,105,135,29,125,221,8,213,255,254,
  22,88,250,161,217,153,1,176,255,239,205,21,
  18,55,8,71,184,160,198,247,49,81,160,79,
  157,245,252,167,189,9,162,193,176,226,65,218,
  235,224,225,235,10,253,243,71,75,110,29,88,
  64,233,57,165,18,218,111,34,41,18,239,221,
  44,7,73,82,199,28,32,222,175,99,104,213,
  64,69,213,26,68,199,176,248,243,175,8,18,
  6,66,14,1,206,80,16,24,23,53,36,227,
  30,104,36,20,58,6,159,187,222,209,8,146,
  67,60,203,142,57,60,186,230,74,129,35,154,
  198,168,211,93,158,88,198,176,73,51,152,77,
  20,255,253,195,65,100,221,184,81,53,69,47,
  42,150,48,20,192,250,249,67,198,44,181,166,
  166,42,36,38,101,186,223,38,220,42,26,159,
  8,13,100,35,35,10,86,102,71,176,113,116,
  175,79,80,177,185,16,208,169,254,58,249,69,
  38,113,211,26,88,25,221,235,32,195,41,231,
  250,76,19,116,226,30,207,85,195,20,209,72,
  222,230,108,86,43,46,59,54,239,84,226,75,
  104,203,158,159,202,5,73,192,12,229,176,202,
  45,49,164,27,107,213,21,53,81,191,43,57,
  158,50,180,217,169,84,161,111,174,63,85,197,
  18,10,140,85,95,85,61,21,187,194,85,255,
  217,44,249,203,71,40,246,209,9,9,5,66,
  25,255,204,51,53,109,194,196,3,74,169,244,
  210,189,239,39,249,248,50,18,187,2,103,5,
  8,151,82,30,252,11,172,213,7,1,92,224,
  29,189,196,97,101,23,253,77,175,3,228,23,
  153,190,245,244,111,166,65,209,180,239,18,50,
  98,247,62,1,19,57,15,74,140,136,187,229,
  46,0,20,237,241,235,140,97,59,237,162,85,
  94,58,26,89,8,61,19,112,142,217,99,50,
  80,159,247,156,194,48,186,172,101,80,60,98,
  2,188,162,158,71,199,161,252,176,97,12,80,
  96,173,213,172,18,2,59,154,221,164,90,62,
  55,86,66,13,102,211,163,27,90,0,187,102,
  157,154,75,175,194,250,230,44,93,242,166,180,
  148,253,210,204,108,74,229,24,59,252,219,78,
  44,252,174,85,77,221,75,153,174,224,223,83,
  1,77,41,181,83,88,43,203,209,31,13,43,
  255,221,63,166,109,148,38,185,167,218,3,185,
  231,40,19,10,35,56,46,195,45,194,105,64,
  56,209,167,13,51,209,9,175,28,47,210,208,
  140,233,40,155,37,21,236,220,219,69,41,6,
  57,2,216,34,98,53,3,174,74,83,11,190,
  78,244,199,29,75,172,41,40,19,225,14,12,
  181,252,90,2,55,179,11,96,88,23,249,45,
  155,7,16,194,185,156,175,103,176,60,100,8,
  76,12,169,0,64,170,64,61,191,11,198,101,
  49,213,149,152,185,145,146,224,245,46,193,210,
  84,177,185,167,97,54,68,168,102,93,72,20,
  242,187,45,205,192,3,137,18,68,50,171,52,
  222,102,200,27,174,170,95,182,179,12,232,195,
  50,137,53,177,224,59,229,60,243,64,228,220,
  201,221,21,248,55,72,241,238,206,194,72,159,
  82,35,79,184,199,231,111,191,45,1,165,217,
  14,200,250,97,146,220,35,233,233,185,198,248,
  107,154,197,34,156,255,239,212,153,233,21,152,
  186,19,194,106,8,216,248,220,129,198,28,185,
  237,202,53,33,28,227,50,23,228,187,241,176,
  54,39,17,246,159,227,24,80,59,10,221,244,
  209,175,155,3,35,2,222,189,187,22,152,157,
  239,171,154,65,242,148,29,231,134,242,186,200,
  237,42,24,3,224,33,14,10,141,148,202,232,
  76,189,236,56,158,82,193,231,198,74,250,206,
  67,151,180,190,207,186,66,82,179,4,8,48,
  246,10,253,55,31,71,55,192,76,228,205,198,
  68,236,180,55,220,218,243,13,212,38,46,75,
  56,44,59,180,18,223,24,16,16,168,232,36,
  188,225,222,66,99,113,25,12,37,55,249,56,
  195,245,29,244,223,98,74,177,211,252,65,22,
  47,195,56,253,234,108,32,60,192,201,62,95,
  232,226,17,12,59,45,178,105,195,190,101,64,
  168,237,44,222,193,10,33,53,206,219,84,44,
  0,199,180,210,223,27,166,29,209,212,72,252,
  88,241,23,214,76,209,187,112,23,178,184,98,
  48,86,190,253,174,236,46,181,45,108,80,244,
  22,60,209,246,28,93,230,186,63,23,14,228,
  77,52,212,0,65,8,5,209,57,63,255,178,
  186,80,60,23,206,99,179,197,17,20,39,247,
  163,86,59,251,246,162,196,44,16,83,195,164,
  46,13,76,54,233,3,6,43,255,174,205,199,
  247,254,29,191,100,6,24,0,0,164,83,5,
  14,1,169,85,48,183,162,12,86,66,10,241,
  10,226,194,60,204,216,174,172,75,69,22,28,
  89,248,11,232,178,246,67,27,92,43,60,50,
  88,90,9,32,63,162,29,17,6,55,188,232,
  173,67,203,173,246,5,156,51,247,68,39,32,
  244,13,3,0,30,255,34,92,190,8,169,187,
  54,82,221,19,66,68,18,94,186,213,17,92,
  239,197,190,167,79,60,176,230,246,175,227,218,
  167,14,96,234,208,55,34,58,90,245,240,26,
  93,170,18,89,50,220,37,227,69,238,22,166,
  53,66,204,25,25,38,212,244,0,216,17,88,
  43,222,24,214,16,224,187,171,164,3,30,90,
  162,39,224,238,224,79,36,83,186,4,210,217,
  75,176,0,207,176,198,206,25,74,70,22,64,
  39,69,173,31,248,195,56,75,172,229,194,200,
  210,34,195,82,237,240,19,250,94,229,79,74,
  73,242,241,91,62,169,82,99,201,59,175,222,
  71,250,205,82,181,198,29,23,53,82,238,63,
  67,183,91,158,93,36,179,224,228,44,238,87,
  192,225,175,233,18,177,37,43,178,5,251,63,
  206,240,234,215,248,236,17,10,212,49,54,40,
  186,247,242,253,7,254,170,76,131,188,228,244,
  64,96,42,162,200,230,224,171,142,224,200,50,
  170,50,73,87,33,21,81,66,42,202,182,142,
  109,26,230,65,237,138,55,216,136,21,85,133,
  190,20,170,247,25,21,193,206,223,226,58,191,
  139,14,157,187,252,28,173,97,2,193,201,178,
  37,254,183,153,71,171,6,47,37,231,175,58,
  235,218,227,194,209,195,79,76,66,164,155,69,
  64,167,136,149,205,68,55,96,132,46,233,80,
  62,184,53,68,196,129,166,35,37,80,36,155,
  90,20,149,157,40,161,223,145,165,227,214,166,
  49,12,151,3,4,144,12,194,69,112,43,216,
  55,226,211,68,238,176,225,30,19,172,97,255,
  44,56,240,250,157,219,97,151,59,96,253,76,
  84,152,55,195,167,77,142,244,255,146,15,26,
  232,155,193,58,192,248,188,86,170,245,172,181,
  248,46,33,22,84,67,217,137,7,162,170,237,
  255,25,39,82,83,251,113,54,200,15,194,114,
  21,97,83,180,20,82,209,11,74,105,105,78,
  157,201,36,206,45,229,79,84,77,248,78,10,
  188,176,56,86,78,117,105,71,194,12,114,238,
  187,160,231,235,166,228,190,53,120,186,177,17,
  186,198,231,148,189,63,65,121,8,177,18,193,
  4,84,60,238,232,39,237,218,184,183,80,31,
  206,164,196,246,198,109,62,255,196,6,120,14,
  215,181,206,148,53,215,161,12,114,143,50,164,
  179,101,201,234,120,164,87,190,43,25,207,98,
  248,243,107,91,206,195,34,91,163,43,172,204,
  192,107,234,87,227,219,10,22,87,14,211,179,
  87,58,166,21,90,245,68,81,105,202,248,99,
  15,89,202,12,160,227,192,29,205,143,227,245,
  166,26,100,194,252,225,236,95,97,2,114,69,
  90,223,212,96,99,229,4,6,125,216,7,179,
  158,254,100,35,14,15,201,98,190,95,233,61,
  214,72,223,17,49,82,26,161,115,49,252,241,
  149,28,202,108,107,211,230,108,114,232,56,95,
  195,78,70,175,107,65,235,111,166,37,212,0,
  110,250,239,41,87,13,39,43,186,24,55,111,
  0,116,50,90,237,249,15,31,74,9,95,201,
  194,29,216,82,119,171,217,222,98,57,61,121,
  33,194,162,152,102,72,244,52,46,162,170,114,
  83,97,251,43,72,93,233,26,99,18,77,9,
  95,15,116,69,206,245,172,57,230,58,234,212,
  37,2,12,168,74,231,228,93,99,214,206,255,
  73,76,185,100,50,115,39,75,254,232,173,8,
  196,22,4,204,80,8,146,58,125,99,117,16,
  143,233,179,87,200,197,64,14,235,33,201,204,
  3,230,240,210,178,60,231,187,184,63,107,236,
  28,161,126,45,119,18,207,15,187,242,9,219,
  193,179,5,232,70,39,169,145,87,65,194,66,
  117,75,45,31,62,64,23,29,239,45,202,231,
  57,179,65,250,76,218,184,94,113,17,19,74,
  237,63,45,237,255,214,34,239,111,11,187,193,
  199,26,187,57,62,182,1,29,207,135,38,92,
  157,226,204,154,124,23,36,4,211,151,217,84,
  87,60,202,49,67,115,15,232,61,3,232,180,
  81,160,90,14,161,248,239,157,254,97,82,71,
  56,72,96,201,64,28,30,224,12,233,45,16,
  234,194,189,74,192,36,190,144,33,18,8,234,
  104,75,214,179,87,201,97,172,96,106,184,213,
  175,161,169,66,204,31,213,18,31,229,71,6,
  175,234,192,36,184,35,154,202,233,251,233,22,
  52,20,101,82,208,35,237,80,188,251,253,54,
  229,73,228,47,87,99,5,0,39,233,102,83,
  222,236,173,178,98,75,73,152,15,49,187,44,
  26,153,155,44,182,212,9,70,92,201,233,26,
  132,193,46,253,224,168,34,75,243,0,180,237,
  132,223,24,238,236,240,20,168,129,55,87,16,
  243,21,30,93,39,222,59,82,224,243,96,142,
  42,251,76,206,107,64,85,97,7,93,205,245,
  67,189,19,118,109,141,246,164,10,63,85,37,
  69,32,202,101,227,83,195,59,69,8,88,51,
  35,68,241,38,170,208,47,153,200,192,9,154,
  183,78,90,173,159,135,67,67,1,48,95,55,
  62,82,72,40,2,187,62,28,2,18,10,63,
  168,9,73,167,32,138,241,84,18,65,32,63,
  205,144,204,237,46,185,91,66,227,200,252,190,
  30,37,75,61,87,174,86,72,20,60,7,135,
  62,233,33,8,202,88,29,45,243,190,33,249,
  207,54,19,81,66,168,207,93,87,11,35,230,
  52,67,169,246,22,7,45,215,165,91,3,77,
  9,225,143,248,59,161,147,169,199,233,79,208,
  217,71,68,170,232,215,33,92,224,59,241,200,
  237,73,6,11,255,208,182,186,163,184,7,150,
  30,158,217,3,38,197,255,13,188,73,242,191,
  71,48,234,98,173,195,104,203,171,148,87,211,
  236,183,46,167,49,213,59,61,189,40,40,216,
  167,52,40,58,86,159,243,41,88,32,159,59,
  227,143,245,219,185,66,74,216,152,72,206,81,
  31,225,235,56,212,74,71,253,145,50,84,169,
  162,197,69,103,168,201,250,251,141,34,67,46,
  29,54,166,222,26,157,203,166,207,58,16,221,
  240,166,189,20,9,86,4,218,21,225,167,169,
  179,225,139,59,46,9,59,222,142,191,230,12,
  253,230,228,68,95,171,95,240,176,212,38,217,
  249,50,163,75,90,219,183,58,208,253,3,39,
  40,34,188,1,30,17,212,144,75,100,175,175,
  255,185,56,42,159,38,5,163,207,44,251,179,
  3,193,56,190,212,82,155,49,183,155,7,79,
  169,94,243,170,232,194,98,200,34,56,237,32,
  100,13,182,97,103,171,226,189,22,201,209,198,
  132,189,73,76,165,155,195,15,11,77,64,248,
  242,246,174,214,81,214,84,243,196,229,182,242,
  27,214,176,237,173,240,215,22,70,209,234,207,
  9,171,241,50,248,175,81,69,224,207,218,137,
  109,0,159,206,80,205,72,187,192,6,160,7,
  82,198,69,42,185,85,236,196,45,254,244,37,
  232,5,84,160,90,237,85,248,54,53,254,213,
  159,93,50,31,220,26,156,49,125,158,184,37,
  219,39,11,237,171,17,160,188,81,157,255,53,
  197,184,51,98,237,201,175,115,239,75,231,98,
  241,232,79,187,233,106,190,209,59,246,51,224,
  35,164,38,31,111,1,224,68,107,23,109,255,
  21,208,46,169,60,236,70,203,27,252,97,90,
  6,27,184,21,32,167,207,230,37,218,100,77,
  169,205,248,206,45,0,27,103,108,245,18,203,
  36,177,215,61,207,2,168,79,183,228,219,171,
  14,169,231,82,42,183,84,95,65,10,30,244,
  58,155,1,83,64,115,76,218,127,173,171,230,
  217,254,45,11,9,33,41,152,177,74,46,34,
  4,22,115,9,10,9,93,78,0,83,73,214,
  193,253,17,70,188,39,244,81,172,32,203,98,
  212,12,15,89,145,55,96,13,252,173,211,233,
  209,227,63,93,62,62,250,5,11,165,50,108,
  164,159,41,3,17,221,244,84,184,182,231,99,
  221,141,90,223,156,245,9,165,61,176,1,0,
  15,159,164,191,58,238,95,158,174,55,6,199,
  67,195,252,51,224,159,38,176,156,65,37,106,
  188,255,205,56,190,23,42,4,226,164,49,37,
  27,69,37,195,24,215,252,248,228,108,229,76,
  166,17,191,210,146,247,66,68,105,245,173,13,
  175,87,19,190,227,9,1,174,0,40,24,18,
  222,94,107,159,76,42,34,23,163,11,23,66,
  215,42,76,215,74,227,90,166,205,196,160,203,
  93,188,50,232,17,1,164,203,73,32,246,69,
  180,15,234,92,70,210,14,73,196,38,153,199,
  110,45,70,79,73,106,89,78,43,239,204,216,
  39,57,16,4,198,23,171,37,180,45,206,104,
  56,150,164,99,196,12,186,241,108,1,66,52,
  45,162,60,255,31,211,220,3,39,215,8,70,
  32,30,207,213,247,185,16,39,54,219,18,52,
  59,178,157,175,158,211,31,92,233,111,62,55,
  30,35,197,170,69,171,197,170,1,218,189,167,
  110,248,51,159,144,233,50,1,192,215,149,100,
  163,30,193,28,63,108,198,79,159,172,43,188,
  57,193,74,40,25,63,223,225,155,9,44,222,
  231,207,178,92,212,209,37,208,89,177,77,191,
  90,140,52,43,82,60,42,244,250,184,93,100,
  85,85,203,52,14,69,171,39,232,200,62,179,
  21,202,151,178,208,4,65,255,27,75,17,40,
  224,213,150,34,145,82,150,54,35,49,203,221,
  217,64,251,50,201,52,184,169,136,206,228,59,
  33,19,204,188,129,231,197,180,204,165,175,44,
  210,162,248,79,152,252,204,211,18,8,175,30,
  186,42,144,5,153,246,244,254,151,192,232,179,
  48,153,22,87,154,75,200,209,31,246,46,15,
  103,18,154,8,98,5,60,190,70,165,37,92,
  151,187,247,234,12,7,177,171,25,28,48,203,
  182,218,237,48,186,28,160,94,203,3,35,190,
  232,24,198,54,179,200,11,234,245,36,14,167,
  231,63,234,244,84,232,229,216,31,201,182,92,
  252,0,200,151,201,244,253,55,57,203,188,165,
  66,246,230,170,82,149,220,7,201,140,217,29,
  197,35,160,205,95,225,212,172,243,169,191,12,
  140,33,210,234,92,176,227,212,157,57,244,35,
  4,5,245,52,232,225,167,200,55,87,180,52,
  92,52,195,108,99,72,236,203,65,8,183,67,
  72,246,234,93,225,231,73,179,60,228,12,233,
  82,237,227,89,221,59,7,195,74,45,44,210,
  64,2,6,202,247,32,193,203,11,0,178,32,
  157,205,192,20,246,102,85,75,176,220,151,214,
  6,179,173,72,13,102,94,154,207,223,43,3,
  175,37,80,232,28,210,200,87,99,22,74,70,
  40,46,33,245,167,168,172,225,253,53,232,29,
  233,86,90,165,158,228,172,80,202,185,36,187,
  251,221,4,180,82,237,235,32,86,80,11,52,
  22,14,188,168,13,19,187,16,167,51,225,3,
  47,223,252,39,87,210,169,178,228,218,64,190,
  251,8,55,219,175,63,255,56,225,56,84,223,
  234,229,202,255,36,208,42,166,246,169,170,171,
  255,42,55,226,9,34,217,187,185,60,159,227,
  73,27,49,97,1,215,64,163,101,97,25,170,
  221,234,8,16,2,74,53,224,199,179,165,84,
  198,19,94,50,1,242,5,242,222,38,170,210,
  99,166,80,61,68,202,228,154,172,10,68,101,
  176,203,172,71,165,187,55,202,68,240,60,213,
  162,211,244,70,186,231,80,11,70,176,58,215,
  253,29,15,187,17,41,71,175,2,47,250,252,
  41,63,75,181,250,212,160,185,79,254,200,60,
  180,65,180,255,31,239,86,177,186,81,5,27,
  79,18,212,253,237,45,211,33,240,21,166,72,
  182,190,64,220,236,205,171,204,79,184,199,101,
  36,45,48,72,201,184,66,158,54,79,216,12,
  10,215,26,6,82,203,65,46,99,96,80,33,
  224,153,172,177,232,255,186,241,99,172,191,30,
  26,173,110,230,213,19,35,20,101,209,87,25,
  38,2,23,246,221,219,250,242,194,242,86,47,
  163,239,30,5,16,53,204,57,87,181,151,174,
  91,200,166,42,63,221,91,75,167,33,3,235,
  137,75,252,37,233,89,95,47,58,237,75,75,
  208,37,35,247,83,10,206,191,25,180,82,244,
  72,4,186,232,145,227,236,74,24,6,154,225,
  181,191,211,160,129,55,89,8,201,65,218,227,
  86,180,70,9,245,200,52,33,66,97,239,241,
  37,6,169,26,208,12,75,244,192,23,93,178,
  206,103,72,218,79,235,195,192,209,100,45,76,
  11,101,152,151,55,234,45,239,49,49,236,56,
  184,27,8,95,190,216,60,207,41,161,219,218,
  69,255,209,250,1,9,247,63,238,168,174,97,
  185,30,97,148,207,49,253,66,46,26,15,177,
  13,251,201,220,249,187,154,96,6,241,113,102,
  91,17,148,69,5,7,227,166,196,140,172,253,
  144,95,246,224,82,246,22,174,156,223,248,150,
  90,215,247,17,118,236,59,170,132,63,242,166,
  15,194,5,170,200,176,239,56,14,47,208,171,
  27,65,83,149,23,116,188,65,18,192,219,216,
  229,78,245,174,233,253,228,24,115,222,76,251,
  58,214,67,33,11,175,226,163,237,111,36,239,
  4,27,50,238,156,178,169,50,251,221,163,198,
  235,189,0,27,247,206,174,211,241,39,168,52,
  221,230,48,90,179,24,102,31,173,205,94,64,
  34,98,105,17,96,188,233,62,241,105,194,70,
  157,225,112,246,97,47,55,83,199,59,248,7,
  108,207,62,3,196,8,104,15,160,241,206,122,
  202,15,85,149,240,96,235,247,161,45,5,13,
  179,202,82,160,190,206,192,68,186,31,154,69,
  206,154,76,193,82,179,84,190,246,200,162,238,
  102,253,12,203,230,86,224,170,211,183,224,238,
  212,214,223,179,235,64,216,150,53,173,218,71,
  45,159,48,65,190,183,99,222,230,77,83,183,
  114,4,103,85,149,4,116,175,92,81,35,172,
  158,60,16,32,74,75,224,75,163,11,62,52,
  159,222,249,16,236,89,68,163,68,161,235,193,
  67,156,88,150,215,191,205,93,105,250,232,226,
  211,16,23,210,163,5,254,6,15,244,90,202,
  13,137,172,37,192,218,227,156,194,57,40,94,
  22,6,31,26,136,98,235,19,33,205,236,27,
  19,90,189,66,183,234,219,61,39,40,93,103,
  76,212,211,19,167,219,109,60,72,85,160,234,
  111,213,103,205,224,198,10,38,63,45,236,115,
  72,55,238,191,101,49,217,2,48,50,211,26,
  8,87,166,47,156,109,159,192,244,115,246,75,
  73,46,160,241,39,95,202,75,70,99,62,216,
  205,206,112,103,24,209,201,143,84,210,249,44,
  205,220,209,171,18,49,97,40,213,74,63,185,
  160,136,14,217,185,59,54,16,220,229,165,225,
  104,83,172,181,35,33,250,250,201,247,244,190,
  190,182,219,59,161,253,8,143,114,55,153,115,
  117,211,222,67,21,195,183,64,95,85,230,241,
  103,58,24,165,229,212,240,48,0,65,34,80,
  220,197,227,173,69,32,26,64,202,238,75,224,
  86,67,95,85,251,215,94,194,222,167,172,224,
  149,220,20,36,69,162,144,92,31,171,43,233,
  255,1,24,66,217,120,249,216,229,190,13,237,
  232,9,94,168,68,77,65,74,207,35,205,170,
  12,3,58,191,184,71,23,246,201,171,88,96,
  4,250,180,70,146,108,8,191,193,88,208,193,
  101,63,104,157,151,177,24,204,94,58,83,20,
  232,58,221,30,163,100,57,216,195,82,187,176,
  18,149,36,33,52,37,24,198,58,205,29,27,
  2,55,248,25,146,15,12,151,4,195,241,160,
  188,69,26,190,217,198,251,22,91,192,17,206,
  6,237,187,22,0,201,98,185,18,183,235,6,
  175,233,22,97,225,234,104,220,202,194,43,42,
  115,28,185,105,185,218,251,182,52,196,28,75,
  168,156,60,184,254,196,85,16,77,22,88,145,
  22,218,35,62,143,143,172,220,8,19,168,75,
  252,76,249,220,208,21,33,59,186,19,166,240,
  75,201,160,241,171,25,17,62,50,191,239,97,
  149,39,140,241,61,235,173,249,88,169,239,161,
  169,102,15,71,213,21,208,185,86,25,182,80,
  249,188,164,140,29,218,10,203,148,57,50,241,
  92,206,216,180,63,65,22,23,215,207,2,180,
  39,33,61,18,38,243,220,76,87,26,17,53,
  84,216,194,220,6,94,201,177,9,55,229,74,
  108,114,224,182,18,179,255,120,31,23,6,229,
  245,187,225,238,192,71,254,27,158,201,74,43,
  1,64,69,224,127,66,38,1,183,54,78,93,
  190,212,248,11,234,167,17,223,156,189,23,40,
  24,243,9,177,71,233,203,201,20,62,246,214,
  160,3,71,195,237,166,248,220,84,48,123,254,
  220,190,199,107,40,246,210,210,19,201,0,210,
  195,20,51,36,62,94,202,64,156,50,102,30,
  39,11,103,30,216,68,174,81,239,237,126,81,
  42,53,233,89,72,43,23,180,36,189,102,168,
  94,67,56,232,185,151,208,178,47,189,120,208,
  188,175,90,171,112,103,223,87,11,253,23,153,
  238,40,242,10,174,233,8,110,226,30,76,43,
  236,5,44,53,248,12,200,127,92,159,4,104,
  69,224,202,177,120,190,170,5,76,42,96,250,
  228,178,82,64,91,52,71,14,236,200,5,45,
  252,210,48,234,224,38,97,42,72,223,66,63,
  57,20,158,222,209,190,110,26,160,253,18,246,
  181,78,195,46,217,160,11,64,204,64,250,72,
  53,120,36,98,92,30,53,230,230,105,121,43,
  215,110,228,8,84,171,49,245,227,245,217,238,
  35,91,47,217,22,58,102,213,10,7,50,220,
  235,172,214,62,85,194,51,239,255,41,214,34,
  210,185,170,247,74,213,213,109,22,70,205,187,
  195,8,178,252,227,244,207,6,223,9,196,89,
  229,37,82,183,190,249,248,199,75,147,244,60,
  247,141,209,92,234,129,206,189,72,76,184,41,
  68,132,167,57,163,173,45,21,6,29,60,16,
  31,164,174,93,155,136,212,247,250,69,131,156,
  186,168,166,127,136,211,247,41,243,51,223,224,
  228,214,229,35,54,173,42,238,33,35,203,54,
  14,106,213,240,241,166,33,251,183,255,40,183,
  3,116,77,32,13,107,146,49,71,252,86,37,
  75,53,238,76,90,163,54,195,250,189,71,51,
  230,86,0,152,186,36,231,53,225,45,17,49,
  217,119,214,142,18,176,203,66,210,198,202,247,
  2,75,49,161,211,184,0,27,47,52,164,236,
  249,240,239,223,69,169,143,223,54,69,60,92,
  82,96,169,81,168,1,167,214,172,138,40,3,
  192,36,50,189,171,217,215,231,31,165,38,209,
  97,102,194,207,9,175,73,60,60,190,222,107,
  54,189,14,196,248,39,229,63,23,107,39,119,
  180,171,104,186,64,68,107,170,126,202,90,239,
  56,41,38,45,224,122,188,46,121,47,85,67,
  184,158,83,76,170,43,68,179,101,17,28,173,
  29,205,178,32,249,102,204,48,200,36,147,172,
  188,96,84,44,159,57,67,214,216,222,210,247,
  249,70,249,0,182,18,237,179,175,36,168,208,
  231,48,160,181,62,95,13,26,8,169,202,251,
  223,23,210,195,230,1,216,88,82,64,63,35,
  226,6,3,7,64,244,161,235,69,95,206,203,
  58,185,190,198,172,213,82,219,252,98,185,74,
  108,74,6,254,42,255,204,16,231,48,194,60,
  208,156,159,94,27,17,72,142,12,4,65,181,
  62,3,254,76,184,67,24,162,91,71,26,48,
  200,195,7,246,66,53,241,146,226,196,94,38,
  157,35,40,20,175,1,184,236,232,244,178,174,
  61,212,227,253,70,60,11,30,175,101,95,44,
  55,1,71,29,179,218,172,237,30,101,215,13,
  194,16,96,8,71,75,26,188,18,85,249,49,
  10,82,171,49,239,30,82,5,15,41,62,189,
  170,153,21,47,37,221,9,48,220,103,46,57,
  100,5,8,60,39,237,202,76,96,87,17,1,
  1,25,22,79,238,82,44,201,61,209,28,241,
  48,62,29,159,80,72,227,196,222,56,213,38,
  210,198,187,168,232,106,0,174,175,81,222,174,
  232,211,48,90,197,189,234,42,250,184,209,178,
  228,160,156,198,151,225,81,249,77,245,26,87,
  90,226,230,12,53,3,5,38,211,195,46,159,
  232,74,231,19,28,171,75,193,197,165,207,42,
  229,58,71,230,6,244,160,142,73,230,142,67,
  247,76,87,61,149,235,3,202,76,212,49,212,
  164,49,32,169,207,209,65,58,163,161,50,87,
  6,166,200,17,226,90,188,160,98,163,73,126,
  241,83,177,44,197,90,40,225,215,11,73,200,
  160,58,0,189,73,179,2,27,8,247,203,34,
  28,183,71,36,210,103,145,205,42,15,42,204,
  194,227,228,200,30,188,43,229,14,192,243,56,
  135,254,3,132,55,94,231,63,99,204,237,5,
  37,7,102,221,151,13,57,219,44,229,206,39,
  186,250,179,91,141,60,61,15,8,27,73,33,
  43,147,170,224,142,232,163,90,29,33,25,167,
  76,215,193,193,151,26,102,97,200,171,91,203,
  184,252,79,174,44,165,28,5,238,193,219,168,
  62,221,74,213,219,49,68,250,254,49,155,193,
  162,30,209,226,77,156,214,87,36,245,153,113,
  86,144,106,115,238,60,214,40,168,17,233,35,
  195,237,214,5,153,118,205,71,94,64,54,244,
  54,237,254,3,153,209,255,151,160,90,214,238,
  118,203,252,184,4,108,166,222,95,221,115,42,
  96,224,149,95,46,82,175,235,255,238,187,168,
  98,108,53,248,182,36,49,75,170,21,238,58,
  161,71,29,61,53,29,225,213,34,234,208,223,
  98,29,61,162,57,91,148,169,87,9,61,91,
  243,96,61,79,212,178,219,170,221,84,179,53,
  83,236,183,237,16,227,49,242,45,82,234,73,
  207,65,218,159,65,6,164,48,49,148,171,219,
  172,61,180,8,179,40,205,103,41,32,194,49,
  54,47,250,239,5,47,24,211,179,204,156,86,
  35,86,166,102,120,190,20,198,40,202,189,42,
  234,82,201,186,229,181,16,105,54,207,236,237,
  113,163,152,110,96,23,70,69,149,200,248,249,
  219,112,25,225,119,34,25,169,163,209,168,47,
  54,90,83,47,177,166,102,118,230,96,47,208,
  42,88,56,199,248,243,244,225,157,195,188,36,
  24,19,205,167,68,54,229,57,168,235,77,212,
  197,63,47,245,230,152,165,55,138,236,255,195,
  251,60,67,78,238,202,111,1,246,59,199,175,
  65,91,38,234,90,35,225,182,64,240,117,130,
  191,114,8,53,197,32,13,21,87,36,203,168,
  3,236,63,166,198,48,255,87,17,94,219,192,
  249,186,220,23,18,195,17,79,162,76,109,241,
  175,211,11,7,157,205,250,15,25,254,168,198,
  28,221,71,41,104,155,163,233,66,72,244,77,
  25,248,242,158,96,32,254,47,130,204,105,143,
  226,5,188,206,235,157,4,186,180,211,176,138,
  183,40,42,170,71,189,109,198,239,104,1,222,
  234,91,84,10,113,28,45,242,159,62,218,77,
  231,62,138,185,233,181,114,224,30,11,13,4,
  95,211,76,229,175,224,15,193,174,63,244,151,
  83,159,129,109,248,92,177,89,41,15,216,57,
  255,169,153,60,121,224,99,90,5,181,116,214,
  114,220,75,64,120,230,114,191,82,216,211,63,
  21,251,61,205,196,93,45,217,11,55,69,115,
  142,99,188,191,1,184,181,178,216,199,197,16,
  147,20,13,251,194,132,5,177,76,9,26,0,
  243,222,208,206,190,182,90,160,137,235,177,27,
  14,247,138,112,68,175,106,213,14,164,131,144,
  49,178,2,92,230,229,122,203,151,246,24,23,
  83,141,29,60,110,197,92,181,3,77,83,129,
  223,73,206,212,33,229,169,166,179,57,4,61,
  229,97,80,237,227,69,39,159,235,189,188,87,
  213,121,72,227,67,10,242,216,79,86,96,102,
  217,79,75,181,166,219,239,0,71,30,225,121,
  238,50,38,222,86,158,248,25,58,174,16,190,
  231,72,25,60,48,251,161,39,220,173,53,44,
  206,223,31,182,158,202,96,8,193,79,230,38,
  23,243,81,67,75,0,53,69,195,215,114,75,
  86,6,240,199,237,85,73,20,167,240,36,178,
  58,110,225,157,161,165,148,33,6,254,251,167,
  157,49,164,94,39,73,178,149,233,65,220,61,
  178,219,23,1,37,196,95,12,4,193,251,57,
  240,246,36,208,153,42,242,237,13,41,139,88,
  171,196,96,51,181,148,184,169,217,67,218,76,
  84,164,37,236,156,187,103,190,63,32,95,244,
  39,76,184,166,210,40,162,84,211,26,54,180,
  69,182,168,68,35,21,63,74,190,56,250,225,
  11,190,105,187,221,196,215,73,192,88,5,108,
  98,66,247,226,48,224,172,43,83,58,19,189,
  76,38,182,163,21,169,115,198,100,222,16,80,
  84,182,54,113,183,84,37,150,69,98,192,186,
  118,78,238,228,64,24,246,2,214,222,183,46,
  200,92,232,30,210,197,84,165,156,54,178,175,
  103,149,3,104,252,75,160,39,22,207,16,194,
  212,63,2,41,171,18,62,69,189,61,231,174,
  225,200,81,20,233,174,23,33,45,95,221,182,
  218,187,211,156,31,196,182,188,85,209,239,244,
  252,32,111,66,213,8,163,42,194,215,99,54,
  102,172,168,169,46,0,236,20,170,230,214,217,
  242,38,42,85,90,175,205,79,155,115,233,34,
  80,12,201,203,58,107,9,175,53,221,235,106,
  6,38,160,41,3,119,27,48,208,185,96,242,
  251,59,82,236,227,55,242,210,57,254,93,222,
  253,33,249,87,0,38,155,86,63,164,34,205,
  204,184,209,59,30,18,184,199,210,185,87,49,
  49,92,193,39,181,1,198,54,95,163,173,155,
  35,24,109,216,43,177,201,217,186,46,79,22,
  240,230,26,180,187,100,104,27,203,68,191,88,
  98,75,90,7,30,167,237,32,85,47,27,197,
  54,8,48,68,139,254,37,187,102,189,151,202,
  244,2,45,70,86,42,107,73,179,30,35,165,
  14,146,255,1,154,31,76,82,101,215,92,81,
  93,43,93,196,173,160,211,42,171,31,148,63,
  185,214,87,240,175,46,160,184,150,84,231,21,
  89,28,242,230,151,10,54,12,141,42,30,211,
  91,97,188,61,209,139,173,60,160,199,159,17,
  235,86,149,16,48,250,88,133,242,232,10,62,
  226,244,152,28,217,129,97,240,25,173,46,89,
  183,87,211,255,49,56,171,223,186,232,138,209,
  218,63,231,230,11,147,193,212,220,171,240,87,
  164,215,177,67,221,185,186,75,35,222,51,199,
  184,188,191,69,70,22,106,85,155,5,237,80,
  76,95,64,255,25,46,20,85,78,215,41,178,
  30,39,14,210,164,31,15,53,166,255,97,195,
  111,19,84,26,27,245,55,201,200,46,224,203,
  247,103,16,188,239,42,168,196,147,186,112,234,
  241,161,141,93,73,81,37,190,244,44,90,219,
  80,24,97,101,15,98,243,171,246,44,77,156,
  223,180,104,138,0,168,225,156,57,136,16,73,
  69,223,48,245,83,75,137,16,187,222,98,14,
  242,220,73,191,233,50,173,63,50,30,26,47,
  214,103,12,248,193,96,178,57,30,149,117,54,
  6,243,26,226,196,62,79,85,10,186,99,66,
  37,183,221,148,217,87,35,197,97,1,94,191,
  98,179,214,34,41,56,252,199,73,243,235,94,
  34,93,190,91,201,120,164,224,200,25,22,231,
  188,217,46,15,160,94,72,221,194,241,220,169,
  94,75,179,203,39,170,8,224,229,198,40,202,
  67,109,179,211,214,68,14,201,49,6,64,228,
  205,52,160,150,160,20,192,116,75,170,231,64,
  179,43,237,146,36,94,5,71,54,179,49,87,
  85,102,248,196,4,121,190,242,194,186,182,222,
  223,204,111,206,200,218,47,235,162,47,211,251,
  15,34,77,156,11,211,47,217,10,150,76,174,
  86,230,99,28,234,170,12,68,184,60,109,168,
  199,217,85,184,212,64,65,56,234,67,231,18,
  23,159,186,94,1,191,24,52,93,2,185,202,
  246,231,186,158,60,104,213,226,10,207,231,96,
  219,226,50,43,159,35,33,32,201,205,52,15,
  223,110,185,203,178,185,23,24,21,22,76,209,
  7,41,188,181,47,90,48,19,70,50,175,229,
  156,209,44,61,3,22,32,187,185,159,12,70,
  67,3,239,173,7,117,49,54,29,155,238,19,
  29,21,241,214,26,246,162,91,28,214,112,73,
  250,192,183,234,178,100,231,194,73,195,115,90,
  47,167,170,186,64,95,240,5,205,197,101,181,
  200,164,114,94,26,45,87,56,34,164,204,160,
  14,233,89,33,107,5,213,86,209,143,56,188,
  10,227,51,168,185,38,150,225,117,55,208,169,
  188,25,105,50,92,0,248,159,13,6,0,239,
  183,161,69,52,206,100,46,111,203,94,185,70,
  61,41,74,59,17,42,65,40,59,6,100,57,
  182,232,47,27,178,93,225,243,93,95,48,174,
  177,10,115,162,38,225,158,11,93,33,1,197,
  213,206,70,201,161,53,171,46,193,200,232,194,
  137,253,198,252,45,52,156,63,6,214,165,70,
  14,20,211,187,30,61,41,150,48,218,184,159,
  31,196,237,75,53,69,38,161,165,252,168,229,
  26,209,223,240,253,185,253,220,192,191,129,193,
  23,179,229,246,201,75,253,29,195,4,173,236,
  232,154,28,4,246,22,235,32,70,174,77,153,
  28,210,24,216,63,77,30,224,248,186,40,163,
  38,202,3,195,227,45,6,41,243,7,72,59,
  209,89,230,41,187,165,45,171,41,36,188,84,
  163,29,171,69,73,7,21,193,30,195,104,96,
  249,15,92,224,239,199,210,3,96,220,218,88,
  200,234,71,170,92,229,54,205,43,189,87,61,
  243,171,3,52,196,195,67,69,35,209,200,251,
  187,212,23,226,36,190,234,202,236,9,242,89,
  252,102,72,167,118,16,200,118,15,66,82,35,
  42,105,254,214,69,174,23,229,127,181,227,123,
  12,168,252,225,186,43,235,252,16,235,172,15,
  226,153,89,233,75,246,21,148,194,180,247,63,
  170,75,102,242,251,38,63,11,102,82,244,237,
  91,210,109,6,187,1,230,44,195,220,35,205,
  212,154,4,28,76,253,211,25,187,42,155,79,
  44,67,85,95,16,25,61,79,1,193,37,53,
  183,65,104,95,201,55,39,226,101,191,39,112,
  92,68,37,236,207,26,57,189,57,59,220,206,
  26,251,181,214,247,92,218,225,94,192,156,187,
  80,223,24,64,37,187,95,175,54,78,39,191,
  202,44,216,22,16,63,7,182,17,29,88,103,
  84,196,5,177,213,5,227,185,197,62,176,89,
  240,5,249,163,228,209,241,0,248,192,181,169,
  169,215,92,62,85,188,4,3,94,202,231,233,
  196,83,213,35,253,44,161,4,71,43,149,107,
  63,237,185,160,212,212,20,203,170,8,200,243,
  197,217,80,83,86,59,23,229,109,49,147,71,
  233,163,230,0,235,216,34,23,241,100,180,245,
  26,247,239,96,169,54,251,4,201,210,198,238,
  18,190,219,55,40,202,166,13,235,48,23,82,
  52,152,182,2,188,196,94,216,99,221,147,30,
  161,170,218,241,168,182,196,218,51,65,153,196,
  63,189,186,39,14,200,201,67,77,159,249,174,
  14,169,28,42,247,172,63,26,105,159,11,59,
  25,244,170,178,63,16,16,232,213,15,55,69,
  94,254,224,199,40,186,25,63,59,95,179,193,
  64,78,205,192,162,203,207,72,66,168,210,55,
  203,56,64,84,39,55,231,166,197,53,191,75,
  69,2,200,176,72,254,34,73,198,43,46,82,
  85,32,213,252,254,7,91,7,178,243,208,46,
  33,194,82,101,47,76,68,153,28,42,196,90,
  53,8,177,72,89,1,87,230,183,78,243,178,
  86,46,211,57,191,109,94,41,102,61,12,39,
  53,153,12,62,57,92,45,3,102,138,53,246,
  208,167,238,44,94,63,16,67,70,6,236,199,
  94,221,8,28,197,151,35,161,8,36,144,52,
  191,155,150,106,249,134,41,182,13,14,142,176,
  222,61,132,49,43,129,3,186,42,205,216,146,
  10,148,203,177,53,155,45,25,157,244,201,43,
  51,212,70,76,253,172,64,235,158,27,14,2,
  56,42,39,254,37,202,55,156,185,66,252,222,
  161,196,202,68,33,203,176,49,64,10,83,188,
  21,174,220,16,32,202,167,226,241,167,64,164,
  53,16,77,173,175,164,214,79,194,44,11,70,
  14,81,36,84,206,5,225,207,15,62,182,20,
  61,209,38,226,235,202,222,30,222,237,92,223,
  253,64,53,21,74,63,198,165,9,76,18,207,
  10,173,18,23,193,218,48,25,191,0,233,62,
  68,26,9,163,2,189,39,242,232,242,16,224,
  9,208,216,72,9,246,15,238,221,9,51,18,
  28,31,189,243,44,248,77,210,32,45,14,3,
  195,176,119,154,97,246,1,217,204,20,202,253,
  159,37,176,22,41,216,73,39,47,246,1,17,
  190,230,22,166,67,191,160,23,63,224,186,63,
  188,52,28,199,29,154,237,253,7,225,75,250,
  167,63,175,57,74,230,19,88,233,230,26,253,
  65,207,5,10,75,208,215,93,158,37,251,144,
  27,4,16,176,189,250,233,19,153,76,194,51,
  73,30,176,244,50,161,78,12,236,74,73,227,
  217,20,73,77,223,232,14,46,45,89,42,179,
  175,181,235,210,75,64,10,247,201,245,25,49,
  202,6,209,155,202,228,90,99,83,1,36,215,
  81,94,154,38,189,45,203,188,248,62,182,254,
  0,84,38,222,25,216,44,2,217,207,228,5,
  35,189,241,177,96,192,207,234,170,30,77,85,
  76,29,192,59,221,7,67,100,168,18,187,42,
  228,203,213,64,42,80,14,215,249,12,223,58,
  174,17,243,223,166,5,68,250,74,181,221,188,
  54,216,18,6,31,51,77,95,181,255,167,184,
  20,2,216,26,39,223,211,195,31,218,63,46,
  7,5,185,45,165,13,91,218,85,46,75,63,
  205,195,160,89,253,57,51,216,149,55,244,150,
  36,71,206,233,164,64,254,179,251,189,97,155,
  54,224,46,13,89,76,177,195,58,163,32,67,
  193,197,59,31,200,161,32,65,52,251,45,13,
  166,39,159,192,182,76,42,62,200,154,224,195,
  78,221,46,178,59,251,71,222,11,184,28,73,
  193,231,172,255,238,15,64,203,153,48,25,46,
  26,23,169,55,209,232,43,170,194,48,182,226,
  9,226,3,235,195,29,187,219,163,190,21,43,
  163,39,226,177,217,223,78,245,223,175,213,182,
  58,55,16,68,200,59,187,226,162,51,205,178,
  2,174,150,17,15,52,77,19,199,213,197,79,
  181,185,23,12,8,24,24,192,202,181,216,54,
  205,39,54,80,189,11,2,74,54,48,148,177,
  67,85,84,41,195,43,72,248,251,201,162,179,
  58,253,39,3,194,225,200,216,64,254,59,147,
  28,95,81,26,89,243,102,201,248,13,233,82,
  112,254,57,34,62,170,84,202,164,233,222,219,
  65,250,2,193,149,103,89,9,64,199,52,236,
  58,60,26,80,218,40,235,193,232,50,242,105,
  102,23,23,1,202,99,90,64,110,255,252,28,
  102,143,87,222,170,213,11,195,36,244,241,225,
  29,28,86,17,140,38,197,197,205,3,155,250,
  164,14,70,196,246,49,74,246,168,109,200,177,
  16,24,61,74,254,191,219,239,27,249,77,76,
  44,186,1,6,180,74,75,176,209,245,138,33,
  79,213,129,235,181,40,182,70,48,154,255,75,
  176,46,219,61,185,58,96,146,9,41,26,238,
  51,10,78,183,171,189,49,144,19,90,21,47,
  177,225,22,234,59,185,60,174,19,213,35,191,
  22,241,223,225,234,90,197,14,17,173,85,182,
  200,153,68,80,184,243,254,49,250,171,218,217,
  248,64,163,66,26,220,195,97,223,172,233,252,
  157,247,245,198,23,208,243,233,203,69,204,41,
  88,70,101,222,226,214,88,169,175,15,96,43,
  2,181,67,182,250,33,210,98,235,245,227,255,
  68,186,65,102,61,1,92,22,62,48,82,27,
  74,220,45,196,50,40,172,181,20,60,0,0,
  213,57,91,37,31,42,201,204,213,51,170,216,
  255,208,22,252,64,13,64,213,170,236,249,51,
  39,46,242,155,19,44,230,172,237,245,174,117,
  161,30,231,198,44,4,252,18,251,246,219,17,
  185,30,100,189,199,171,42,47,9,195,115,4,
  165,170,233,187,189,46,41,202,64,96,84,0,
  183,171,9,58,76,181,162,247,56,216,87,27,
  194,68,7,70,34,39,209,116,211,17,248,111,
  29,191,45,48,183,199,185,218,47,193,196,64,
  42,87,79,202,187,6,217,2,19,224,245,180,
  82,193,112,249,212,12,0,205,200,78,47,214,
  234,241,242,29,82,75,99,105,52,54,179,112,
  90,70,166,81,204,202,59,29,74,43,99,188,
  235,34,13,169,229,97,76,44,73,87,1,31,
  96,194,210,155,101,48,227,226,172,37,175,0,
  87,48,34,63,5,1,22,120,219,216,198,98,
  218,208,8,20,187,89,249,105,224,239,57,173,
  8,94,10,22,42,35,11,104,83,164,29,69,
  52,17,107,245,59,100,91,235,74,168,44,32,
  235,16,6,88,82,60,101,193,177,53,115,201,
  173,185,202,187,61,214,168,225,183,48,5,17,
  35,91,234,239,233,80,196,105,246,172,31,70,
  231,50,11,206,173,108,86,179,4,175,119,49,
  177,109,241,8,81,62,180,251,188,194,211,205,
  230,93,29,239,7,40,197,88,13,104,63,175,
  211,32,43,206,240,24,197,43,46,224,162,22,
  20,25,252,202,97,66,180,245,19,245,10,6,
  203,223,66,12,13,91,101,127,222,6,80,206,
  58,199,40,79,199,220,67,222,10,84,96,56,
  40,39,2,204,84,8,51,15,64,222,83,102,
  66,59,12,181,194,220,239,51,51,247,222,108,
  7,29,63,42,69,95,169,33,72,90,73,186,
  85,72,105,32,235,7,185,230,198,154,43,190,
  255,195,203,1,29,62,52,61,188,226,209,56,
  30,58,30,189,43,243,163,43,54,190,27,12,
  205,47,169,163,204,241,41,215,165,182,176,175,
  185,208,76,54,53,151,237,41,78,204,242,46,
  243,87,163,189,213,30,91,80,115,179,233,247,
  97,187,83,93,255,185,183,220,210,236,41,252,
  78,2,244,234,62,192,87,29,232,49,254,171,
  3,198,254,166,234,154,56,197,220,59,193,211,
  48,212,29,75,152,30,208,186,188,50,79,162,
  219,40,230,210,159,43,79,168,218,239,17,37,
  21,192,214,220,4,218,50,179,191,43,21,174,
  199,202,221,108,227,218,106,36,238,193,38,55,
  211,166,28,211,196,193,17,199,166,185,40,188,
  239,145,39,183,147,238,51,166,151,8,63,26,
  46,238,69,228,183,184,43,48,20,197,198,92,
  112,154,4,243,192,187,230,173,65,205,175,201,
  27,24,26,187,19,59,242,176,44,50,7,52,
  205,237,77,62,21,55,183,83,202,190,73,64,
  62,185,163,97,20,174,243,50,85,75,84,5,
  24,165,60,13,14,164,71,200,201,215,179,220,
  222,251,205,84,7,34,193,160,213,9,161,72,
  183,68,88,37,70,185,102,49,223,108,220,44,
  190,3,235,8,242,53,97,226,208,235,29,49,
  251,25,181,62,30,168,5,27,227,43,183,46,
  200,171,176,77,60,80,78,61,61,59,8,12,
  15,187,182,107,5,82,86,10,173,243,211,238,
  94,207,71,216,151,94,40,195,245,199,4,166,
  10,9,24,35,239,173,100,201,24,50,248,71,
  185,38,27,38,232,172,35,247,44,203,196,53,
  3,244,209,252,6,39,203,155,217,222,170,179,
  85,44,226,37,207,91,250,3,250,195,82,26,
  55,78,39,102,188,63,37,36,27,249,175,23,
  242,223,193,82,69,184,234,250,4,249,77,13,
  79,163,198,63,190,7,32,186,229,90,173,39,
  64,208,160,233,207,237,106,21,18,212,23,89,
  235,251,222,195,28,241,178,153,70,202,63,34,
  74,18,71,222,177,255,99,168,19,233,82,29,
  202,176,35,214,188,10,39,182,248,20,227,24,
  49,242,84,176,67,211,218,190,185,19,248,13,
  197,152,35,244,161,236,44,196,49,253,86,202,
  42,3,54,80,216,188,195,5,3,222,240,108,
  21,164,56,28,168,35,62,34,95,149,6,220,
  156,162,2,15,54,87,9,36,182,238,110,30,
  8,49,183,3,52,61,201,174,132,209,216,183,
  205,40,129,182,246,47,196,16,241,11,50,57,
  65,22,31,53,19,5,213,17,178,174,215,141,
  203,179,185,85,188,140,255,172,165,50,56,38,
  255,213,154,220,159,28,253,190,185,210,48,243,
  66,221,234,178,26,40,75,240,16,88,24,194,
  61,77,237,71,87,45,250,196,146,41,1,243,
  242,179,51,190,230,209,241,82,154,70,24,168,
  215,75,186,42,99,63,185,251,13,150,218,57,
  11,54,47,216,40,160,31,69,233,208,240,81,
  50,68,223,21,3,228,41,36,182,82,240,205,
  225,182,86,247,10,41,145,241,175,32,195,209,
  241,225,197,60,21,95,141,22,44,185,57,72,
  156,191,13,183,205,230,51,66,230,44,245,100,
  222,19,110,231,105,242,54,217,95,38,30,81,
  60,224,230,82,31,68,172,37,119,185,209,44,
  73,12,10,249,245,2,197,164,104,30,190,235,
  16,191,221,204,192,12,67,203,206,224,207,211,
  245,68,99,187,245,230,59,96,219,3,88,195,
  34,31,53,193,56,205,213,23,5,237,174,186,
  67,215,229,200,229,232,9,48,16,219,26,55,
  77,246,212,192,192,16,208,244,186,197,65,16,
  174,22,221,81,80,80,36,50,181,71,79,177,
  96,235,14,100,202,216,229,165,17,5,174,242,
  206,58,212,55,155,250,235,77,81,182,1,100,
  224,161,218,27,29,24,235,43,177,203,33,22,
  97,163,27,23,63,193,44,231,21,191,56,1,
  227,25,85,182,205,42,77,73,188,255,54,61,
  42,238,91,7,240,88,4,27,171,209,80,248,
  224,20,30,207,9,182,245,254,12,211,68,222,
  63,42,215,102,248,216,45,254,10,208,235,40,
  28,222,252,1,230,57,49,77,100,69,12,230,
  97,7,247,232,3,194,32,185,186,195,80,71,
  82,50,201,199,206,80,7,27,6,230,14,38,
  234,168,0,31,7,197,186,164,249,49,195,238,
  91,231,207,98,156,57,253,197,241,194,15,96,
  255,211,2,44,56,8,27,10,253,194,236,42,
  200,70,251,194,45,245,100,211,75,74,201,65,
  32,216,210,5,154,87,52,244,34,172,153,200,
  196,188,177,253,171,183,204,245,45,54,167,226,
  53,80,175,71,36,73,36,252,14,194,56,3,
  196,29,0,188,188,180,199,240,53,67,238,240,
  251,248,234,46,215,80,27,161,14,3,43,229,
  225,10,52,32,174,228,37,61,197,102,248,15,
  215,158,21,209,30,50,60,71,59,217,164,8,
  69,158,47,174,213,3,96,164,175,21,50,86,
  83,153,14,26,186,218,203,208,66,188,39,32,
  232,184,207,86,183,219,69,228,175,74,27,63,
  144,216,90,62,156,234,2,223,96,39,208,44,
  198,204,224,22,14,75,162,32,63,187,49,175,
  53,238,39,214,48,27,182,143,240,77,155,165,
  28,170,67,207,225,236,25,242,162,182,47,51,
  13,193,176,213,74,41,95,191,160,184,185,154,
  205,242,196,229,198,239,197,252,36,154,187,147,
  5,198,47,147,20,190,26,209,252,52,148,54,
  49,73,172,38,210,243,255,12,254,224,191,173,
  8,182,195,92,93,131,80,79,208,112,57,138,
  201,52,196,88,19,201,97,78,22,34,70,208,
  2,33,175,83,243,225,46,205,244,104,15,78,
  5,48,90,10,101,192,39,64,53,25,209,14,
  233,84,211,174,97,182,223,85,32,184,59,226,
  202,77,65,49,74,237,96,44,67,229,184,156,
  255,151,166,228,186,175,75,6,250,213,225,79,
  26,177,116,243,53,245,185,160,221,43,176,106,
  91,159,15,47,184,109,167,247,43,217,20,16,
  133,36,17,3,46,97,188,238,104,252,214,234,
  77,109,60,168,54,221,176,176,24,27,176,18,
  18,43,33,158,100,186,91,13,194,49,241,187,
  97,29,8,253,246,127,214,246,197,71,14,86,
  100,102,98,70,44,179,198,162,240,72,56,14,
  51,205,100,34,65,63,96,76,62,157,41,94,
  57,246,86,90,239,3,194,37,83,203,99,116,
  46,80,165,252,41,240,11,50,231,10,228,168,
  1,12,186,151,10,66,177,103,253,80,251,210,
  248,205,69,68,53,19,198,199,70,180,217,105,
  193,223,59,193,20,12,38,60,234,4,92,245,
  159,194,48,4,109,192,201,160,75,184,72,117,
  164,65,23,82,215,64,60,166,197,174,72,43,
  71,251,94,181,242,24,80,219,254,86,220,220,
  174,157,192,221,33,165,254,19,169,213,99,39,
  77,67,102,50,104,41,15,34,108,254,228,165,
  221,8,176,205,232,19,246,56,44,247,248,65,
  218,104,178,43,157,30,72,187,106,147,220,217,
  207,179,43,212,222,74,77,183,65,87,58,69,
  5,200,198,193,73,71,234,3,186,227,205,95,
  23,252,114,171,217,66,43,84,42,232,9,97,
  85,2,95,172,52,217,71,6,65,94,13,16,
  214,222,216,228,219,164,48,29,187,56,189,224,
  242,60,95,180,100,82,165,160,39,254,203,29,
  197,18,93,80,58,185,11,58,194,34,158,177,
  37,236,54,150,32,30,222,28,169,23,13,40,
  54,6,231,179,72,29,192,192,54,169,103,4,
  60,34,72,5,23,68,153,208,42,213,255,87,
  154,42,27,80,55,73,187,16,110,165,23,247,
  159,65,175,87,44,23,202,219,104,243,195,206,
  164,187,30,250,86,175,156,110,87,204,234,83,
  229,223,111,191,104,184,247,39,201,254,21,188,
  66,214,34,30,222,93,34,243,52,108,184,81,
  81,228,253,185,81,29,55,24,43,103,200,14,
  22,20,191,169,229,251,193,62,252,68,182,220,
  66,13,178,162,230,99,233,72,38,191,173,5,
  40,114,168,150,211,234,42,196,89,178,241,25,
  238,166,15,2,182,4,196,212,60,26,19,198,
  196,35,185,57,192,215,74,201,186,5,167,20,
  177,83,77,235,83,242,52,135,248,106,238,252,
  106,168,174,102,235,106,175,218,211,77,220,113,
  223,158,33,27,1,237,100,90,222,228,52,223,
  105,163,34,198,219,157,62,251,64,89,91,124,
  57,20,5,215,240,15,239,70,42,255,45,241,
  59,215,231,170,142,228,34,3,30,74,48,52,
  26,56,202,203,224,68,229,80,35,194,33,73,
  54,217,62,68,166,178,67,136,64,120,43,77,
  75,228,216,53,56,242,1,147,58,199,40,42,
  194,32,205,64,179,173,185,181,54,94,247,70,
  203,216,152,142,99,33,27,61,149,155,171,64,
  35,55,158,42,81,212,210,180,62,136,149,180,
  255,98,189,203,19,234,40,71,65,21,108,183,
  70,91,8,193,60,234,141,252,57,225,54,8,
  80,176,48,234,221,167,32,198,167,42,2,60,
  8,168,14,131,65,157,23,61,90,214,11,242,
  162,246,18,175,233,56,133,186,79,70,94,186,
  57,34,189,163,188,228,91,15,10,94,231,161,
  85,104,164,38,222,153,227,111,144,160,9,11,
  12,212,99,65,85,85,71,228,71,248,3,243,
  181,76,191,181,210,151,84,56,155,111,252,89,
  237,210,42,52,122,94,202,213,150,155,18,188,
  110,82,202,250,1,58,211,61,232,11,38,173,
  36,168,237,228,55,235,240,49,211,53,82,77,
  96,76,36,170,97,66,188,76,253,16,224,229,
  181,9,95,29,62,15,19,184,52,216,30,234,
  30,25,204,100,118,172,207,212,64,85,120,215,
  198,219,41,178,197,0,60,16,51,37,23,188,
  228,215,221,68,211,68,18,107,173,67,204,99,
  70,34,76,79,246,212,38,126,172,18,125,61,
  190,250,165,79,66,192,92,98,141,162,44,165,
  83,75,59,10,255,10,34,123,47,219,235,145,
  230,4,140,56,225,184,10,53,86,228,221,204,
  187,178,63,34,97,230,59,253,158,111,249,191,
  201,66,22,64,233,170,101,108,59,20,127,27,
  233,66,168,96,55,182,188,51,146,101,13,196,
  164,69,200,76,72,158,103,233,49,51,115,191,
  159,19,233,68,8,156,176,41,176,247,108,218,
  157,27,173,160,225,6,195,227,40,223,59,217,
  160,203,93,61,17,232,218,54,27,184,244,22,
  244,213,84,156,170,34,179,11,30,69,234,31,
  45,204,69,49,84,141,7,109,236,223,50,55,
  100,188,82,198,83,245,174,246,82,232,122,67,
  74,76,92,98,195,95,5,54,184,200,229,88,
  169,223,29,91,193,32,230,158,240,163,0,68,
  8,45,4,216,152,59,79,160,250,159,246,59,
  163,34,236,230,200,196,220,235,174,255,185,187,
  244,70,178,39,38,65,26,164,2,230,140,64,
  1,241,225,43,21,184,112,222,168,76,57,73,
  10,248,57,234,51,48,169,174,72,169,183,48,
  24,69,41,245,158,233,212,36,166,101,156,161,
  81,40,210,105,160,151,91,147,177,74,208,31,
  1,252,11,35,219,223,194,196,69,205,50,73,
  53,202,248,150,187,198,146,81,84,75,132,52,
  222,182,174,201,72,129,208,51,58,141,146,187,
  224,1,207,41,195,203,191,225,69,191,51,57,
  10,79,223,98,33,235,97,219,193,236,150,73,
  40,61,209,74,37,165,52,36,88,4,249,226,
  191,145,69,88,198,255,7,217,44,60,143,34,
  33,238,26,231,18,0,66,88,169,2,166,15,
  222,255,191,227,77,7,235,225,215,146,234,63,
  235,62,96,244,93,34,49,10,27,115,84,41,
  219,213,58,64,217,187,240,73,22,29,70,29,
  0,91,30,103,74,93,207,114,68,83,206,169,
  49,246,91,242,234,198,213,162,9,2,119,70,
  234,114,46,183,29,197,112,197,100,224,16,225,
  21,185,237,2,33,10,83,29,70,15,233,233,
  83,216,91,97,43,247,249,86,230,25,246,45,
  106,172,81,97,0,11,7,227,68,214,96,182,
  82,223,0,243,119,95,158,9,74,230,218,82,
  235,204,226,221,188,254,3,99,57,67,253,116,
  6,36,56,155,67,47,50,165,86,154,159,191,
  155,1,200,70,116,167,214,229,52,175,165,223,
  198,38,55,63,196,17,159,234,125,53,35,242,
  248,214,213,103,81,189,168,32,89,70,77,229,
  30,240,64,36,52,47,158,76,169,154,50,31,
  198,121,198,174,238,89,75,227,72,156,200,2,
  248,110,203,245,229,45,166,85,242,54,92,184,
  99,92,43,48,47,218,174,102,89,175,91,47,
  61,206,229,85,80,236,248,72,31,230,90,1,
  244,57,109,229,193,203,17,184,255,161,63,9,
  58,42,0,111,67,110,55,179,15,112,213,87,
  25,166,253,176,193,110,11,217,50,212,90,86,
  28,179,3,221,163,166,102,75,89,62,61,23,
  17,192,71,114,108,125,231,251,208,115,213,217,
  200,44,104,167,119,178,64,54,119,98,118,218,
  51,87,199,226,74,99,156,226,8,37,82,197,
  112,70,181,234,163,171,227,77,175,72,82,57,
  17,89,203,157,255,235,156,224,8,184,249,190,
  243,121,210,198,41,254,197,95,240,163,230,170,
  221,166,116,193,111,201,175,14,90,15,186,216,
  192,83,209,185,86,23,70,207,37,161,105,28,
  216,53,88,179,110,196,203,26,0,94,81,168,
  93,90,227,214,95,191,21,83,52,73,65,204,
  215,28,194,32,249,61,233,54,25,111,167,207,
  80,55,73,193,89,2,208,4,76,243,65,236,
  6,219,57,217,180,10,183,46,213,42,34,29,
  238,213,56,100,69,102,72,97,233,222,62,219,
  17,252,212,15,115,250,80,107,24,255,91,225,
  222,177,203,68,172,5,174,180,54,185,232,246,
  199,231,99,251,94,112,62,176,29,220,230,231,
  27,206,80,209,75,46,11,201,180,46,17,196,
  245,83,253,115,206,48,52,187,107,216,34,13,
  193,37,2,221,213,59,42,240,169,55,196,55,
  197,228,226,64,243,19,219,18,201,108,23,78,
  81,236,250,47,83,233,188,89,207,195,57,229,
  31,28,51,34,63,180,23,7,207,36,250,30,
  52,92,12,253,236,106,20,28,121,69,85,230,
  188,18,224,232,70,115,56,179,180,81,208,112,
  208,0,73,87,85,3,244,207,80,7,217,235,
  66,87,253,55,101,21,30,101,214,246,34,66,
  152,175,55,143,0,10,202,215,167,222,232,214,
  164,175,43,162,68,148,138,93,149,178,167,176,
  16,74,55,243,102,49,251,58,3,49,21,20,
  94,105,38,23,188,141,192,106,243,186,105,77,
  83,44,129,233,193,70,58,99,219,36,250,50,
  161,7,58,240,239,21,223,85,168,23,2,165,
  33,35,216,79,179,174,43,18,160,24,42,153,
  166,65,4,79,44,56,154,1,25,18,82,60,
  228,77,206,39,196,65,39,52,184,90,38,188,
  254,80,162,41,96,190,23,173,253,14,3,170,
  150,180,254,24,193,234,242,176,205,31,186,58,
  21,60,72,230,224,175,164,165,192,15,155,62,
  179,238,235,34,17,204,23,82,8,88,197,211,
  16,15,229,200,70,51,155,63,34,250,74,17,
  96,53,245,202,234,155,197,2,191,59,237,29,
  239,196,234,61,103,147,69,76,63,220,193,183,
  53,158,190,14,172,251,190,7,79,254,46,33,
  0,165,188,45,233,142,183,12,40,62,204,26,
  213,51,231,72,162,233,192,163,230,149,178,202,
  205,228,212,171,66,226,159,21,137,166,217,48,
  35,230,74,223,207,21,209,221,194,20,218,146,
  244,101,177,193,56,9,57,162,143,216,103,169,
  224,205,174,80,162,78,164,160,177,155,154,17,
  182,205,77,17,154,218,207,201,164,244,197,182,
  220,188,180,169,34,206,28,21,32,14,250,209,
  197,58,200,36,190,147,27,184,44,253,220,239,
  32,64,162,30,80,173,27,170,50,162,28,5,
  155,55,165,162,200,32,239,4,160,10,22,161,
  14,101,138,233,68,235,215,97,82,95,32,148,
  229,14,235,245,161,26,40,16,151,162,236,136,
  211,95,242,211,65,151,12,73,169,252,174,208,
  85,45,242,43,171,228,46,83,53,197,55,197,
  78,223,23,164,212,145,231,75,84,247,218,95,
  163,250,109,144,151,15,29,189,36,251,52,198,
  192,173,14,43,52,207,164,220,28,45,79,154,
  211,46,11,44,207,154,82,191,74,47,184,4,
  247,183,235,195,234,51,118,193,57,2,238,80,
  251,234,181,253,239,56,242,18,222,250,222,60,
  186,251,53,129,38,184,129,52,255,40,94,51,
  173,2,16,197,204,179,230,193,249,177,2,20,
  17,214,164,143,188,2,250,76,247,59,236,59,
  188,36,196,226,171,26,25,88,154,100,67,176,
  23,245,146,168,248,131,108,13,130,254,177,151,
  182,223,210,98,40,164,34,37,69,215,65,237,
  202,227,152,240,61,63,175,169,52,92,255,241,
  165,27,108,99,22,254,52,181,18,88,246,83,
  95,97,42,47,202,86,223,39,20,78,237,255,
  51,240,58,10,41,24,32,185,17,0,42,113,
  55,73,120,245,9,17,213,115,11,159,118,60,
  205,249,125,234,16,93,203,198,24,79,42,226,
  217,25,34,34,219,55,247,20,186,36,66,102,
  255,227,212,217,49,60,247,58,94,37,46,185,
  182,19,25,23,6,58,89,178,216,244,20,237,
  39,238,235,61,103,22,77,205,1,98,177,19,
  33,113,9,221,240,100,43,213,217,13,95,181,
  230,44,194,184,233,153,4,223,193,160,54,251,
  178,253,15,33,160,141,65,96,196,173,214,184,
  231,218,68,203,159,155,64,197,148,166,17,143,
  199,186,177,220,175,41,81,232,71,54,4,250,
  29,210,194,14,200,141,97,154,10,90,233,187,
  99,26,202,90,190,205,27,232,244,34,6,27,
  237,217,171,195,231,223,26,221,62,229,93,180,
  225,73,0,45,91,23,21,153,253,41,58,142,
  87,161,162,243,43,194,7,151,175,34,146,47,
  173,155,36,156,226,71,162,196,152,210,213,178,
  197,155,82,177,83,207,56,148,134,53,207,232,
  73,94,17,75,74,35,103,89,76,212,147,253,
  58,228,227,0,0,241,95,30,183,70,54,234,
  77,240,252,101,38,157,69,62,16,254,202,160,
  64,58,164,193,73,194,161,173,176,239,17,154,
  36,178,79,51,218,65,251,11,5,12,79,223,
  27,248,27,216,49,148,1,82,65,49,4,208,
  196,53,160,95,41,216,4,7,34,214,183,202,
  87,28,217,199,72,145,244,3,169,54,22,12,
  76,71,211,11,73,19,175,27,76,97,233,7,
  100,165,77,72,50,204,64,61,254,186,69,248,
  194,210,19,187,252,226,255,235,40,43,182,167,
  102,229,145,225,188,150,53,23,41,103,89,15,
  48,208,213,30,67,77,87,8,42,15,46,76,
  24,179,216,74,91,233,160,193,213,225,30,180,
  165,7,149,59,218,241,46,212,153,255,44,178,
  62,23,24,82,48,63,21,149,167,81,204,17,
  182,242,54,224,188,29,251,8,155,174,241,221,
  219,129,17,228,133,246,226,185,10,248,189,106,
  196,76,33,43,111,191,62,243,10,116,79,180,
  34,101,244,57,178,27,104,197,215,228,92,19,
  54,12,54,101,219,39,253,109,245,194,4,233,
  83,84,178,225,112,206,75,254,83,219,17,9,
  60,50,89,153,91,15,71,190,96,200,172,167,
  251,15,60,193,153,71,35,9,24,213,55,226,
  210,44,237,162,206,24,68,196,147,194,71,165,
  63,196,229,239,61,50,191,74,83,210,18,51,
  251,36,45,213,33,206,27,47,141,177,188,174,
  71,149,153,104,31,188,84,8,203,31,207,53,
  207,85,70,13,94,18,48,190,236,80,21,102,
  250,239,68,18,85,203,35,31,16,163,190,12,
  12,254,40,201,93,247,178,243,236,9,221,17,
  227,217,10,235,255,169,45,254,105,56,232,189,
  99,50,80,208,180,77,21,7,56,203,12,106,
  107,94,48,188,27,255,10,29,100,218,89,13,
  76,182,53,218,27,88,248,96,8,19,211,85,
  0,251,216,177,91,92,91,248,222,11,15,97,
  32,186,48,237,211,48,77,109,186,204,250,31,
  81,212,32,167,99,239,54,219,49,61,27,3,
  194,32,74,42,13,176,27,203,233,248,81,232,
  191,239,9,199,173,20,172,7,253,198,59,2,
  230,187,161,25,193,149,33,16,168,55,33,230,
  14,244,218,163,222,64,165,0,16,162,186,55,
  64,250,137,155,196,16,205,91,54,168,255,192,
  26,219,148,65,38,213,254,241,227,19,60,137,
  21,6,79,210,68,69,56,217,252,182,99,175,
  37,85,204,203,180,225,183,88,151,42,73,193,
  193,222,66,221,169,155,191,66,248,232,164,7,
  177,206,194,191,228,192,235,91,32,158,43,34,
  10,193,83,73,42,17,28,176,229,198,224,213,
  70,6,20,214,92,219,44,76,76,249,24,150,
  163,217,171,237,42,170,55,37,61,87,50,59,
  47,203,4,173,33,226,172,214,247,230,223,5,
  44,216,142,243,10,171,150,55,226,159,22,149,
  18,226,4,65,9,43,4,87,181,74,7,205,
  155,67,154,186,92,59,5,90,227,11,189,20,
  184,17,206,248,42,2,240,252,54,240,178,203,
  37,0,156,196,91,176,154,42,174,153,235,227,
  207,96,35,169,23,39,53,187,200,42,171,50,
  197,220,47,203,232,63,34,175,147,199,164,252,
  86,38,43,71,227,40,21,242,58,45,69,142,
  75,29,231,234,213,250,206,176,6,22,243,44,
  38,182,204,46,245,0,254,184,54,151,234,244,
  29,69,79,205,104,194,21,38,140,211,197,220,
  150,94,55,223,209,210,154,250,167,230,245,227,
  67,210,197,89,17,202,1,231,234,212,24,179,
  19,243,239,170,172,155,33,177,2,192,245,213,
  85,248,74,210,248,32,41,24,63,228,207,248,
  75,9,49,212,88,65,200,109,19,117,185,16,
  254,48,21,18,61,168,90,159,188,66,59,40,
  136,180,8,161,153,93,238,74,76,0,38,66,
  30,0,45,213,29,145,219,211,198,153,249,95,
  70,218,240,239,141,190,104,26,212,221,16,8,
  2,231,62,188,17,31,3,93,201,214,70,12,
  14,168,16,30,73,76,100,0,206,192,78,96,
  0,121,34,241,10,14,157,89,19,4,181,240,
  66,83,95,62,83,229,12,69,44,32,30,99,
  196,70,184,52,174,174,93,56,92,145,235,36,
  154,233,26,210,66,8,79,106,231,160,231,255,
  4,13,41,240,118,95,232,25,34,88,111,208,
  204,59,87,253,182,237,9,46,190,185,29,86,
  167,163,242,205,228,209,34,95,154,205,255,227,
  175,28,144,51,91,161,160,234,214,97,122,84,
  228,170,243,184,41,212,180,62,203,240,56,202,
  175,62,154,189,215,253,205,5,159,226,171,243,
  61,44,150,215,199,254,204,140,147,180,56,152,
  83,8,71,16,80,74,207,32,192,95,93,23,
  96,195,23,255,47,17,182,74,2,180,232,4,
  98,205,1,51,240,212,64,14,55,196,51,129,
  153,188,150,252,13,40,76,30,12,175,245,77,
  101,197,20,75,198,1,156,51,229,211,57,217,
  102,50,99,20,222,9,190,200,168,85,91,225,
  250,76,41,255,241,41,110,81,189,249,173,213,
  251,246,185,106,134,35,30,223,161,36,5,14,
  97,246,230,224,196,46,178,28,253,31,50,204,
  87,254,42,209,32,85,244,29,40,202,207,83,
  15,187,89,111,28,219,197,89,232,0,183,149,
  236,11,10,202,141,214,79,25,233,38,3,184,
  188,243,107,189,11,249,113,96,52,170,43,48,
  174,230,81,115,80,197,86,43,48,43,84,169,
  92,189,198,12,178,99,92,87,86,110,16,25,
  248,138,4,115,32,149,234,43,61,178,32,9,
  0,51,236,168,83,155,80,192,53,45,218,44,
  102,202,208,52,212,92,207,46,209,184,156,214,
  247,247,44,183,62,226,72,65,197,252,181,223,
  187,18,223,47,69,174,213,179,56,164,42,189,
